<unk>	0
<s>	0
</s>	0
▁t	-0
he	-1
▁a	-2
in	-3
▁the	-4
on	-5
re	-6
▁s	-7
▁w	-8
er	-9
at	-10
▁o	-11
en	-12
▁c	-13
an	-14
is	-15
it	-16
or	-17
▁p	-18
ed	-19
▁b	-20
▁f	-21
ing	-22
es	-23
▁of	-24
ou	-25
▁an	-26
▁in	-27
ar	-28
al	-29
▁to	-30
ion	-31
▁m	-32
ic	-33
▁d	-34
▁and	-35
as	-36
▁h	-37
ent	-38
▁th	-39
om	-40
le	-41
▁I	-42
▁re	-43
il	-44
▁e	-45
ct	-46
▁is	-47
ro	-48
▁l	-49
ve	-50
▁be	-51
st	-52
▁n	-53
ation	-54
▁T	-55
id	-56
▁g	-57
▁S	-58
un	-59
▁that	-60
im	-61
ce	-62
ut	-63
▁on	-64
ol	-65
▁for	-66
ly	-67
et	-68
▁y	-69
▁C	-70
us	-71
ot	-72
▁A	-73
ch	-74
ore	-75
▁K	-76
ay	-77
▁wh	-78
▁it	-79
ig	-80
am	-81
ur	-82
ad	-83
ill	-84
ir	-85
▁st	-86
ver	-87
th	-88
ment	-89
▁The	-90
ter	-91
▁as	-92
ow	-93
ith	-94
▁P	-95
▁con	-96
▁with	-97
▁pro	-98
ong	-99
ul	-100
se	-101
▁M	-102
▁you	-103
▁he	-104
▁was	-105
▁are	-106
▁com	-107
▁ex	-108
▁at	-109
el	-110
if	-111
est	-112
oun	-113
▁r	-114
▁H	-115
▁will	-116
ge	-117
ers	-118
art	-119
▁by	-120
oo	-121
▁su	-122
em	-123
res	-124
▁"	-125
ri	-126
ld	-127
pp	-128
▁ha	-129
▁al	-130
ate	-131
ec	-132
▁J	-133
ak	-134
▁1	-135
▁we	-136
ist	-137
ain	-138
▁D	-139
ity	-140
ort	-141
▁v	-142
ess	-143
her	-144
▁G	-145
▁Kore	-146
rom	-147
ect	-148
op	-149
▁2	-150
ive	-151
ear	-152
▁N	-153
oc	-154
ial	-155
du	-156
um	-157
▁W	-158
▁In	-159
ang	-160
ice	-161
ies	-162
▁have	-163
▁sh	-164
▁B	-165
and	-166
os	-167
▁ch	-168
ud	-169
igh	-170
▁has	-171
▁ne	-172
▁comp	-173
▁from	-174
▁not	-175
ac	-176
▁L	-177
ant	-178
ich	-179
end	-180
ab	-181
▁exp	-182
▁which	-183
iv	-184
ee	-185
▁who	-186
▁whe	-187
▁can	-188
▁sa	-189
ast	-190
red	-191
▁E	-192
▁or	-193
▁le	-194
▁Ch	-195
▁me	-196
▁F	-197
▁de	-198
iz	-199
▁pl	-200
▁un	-201
ry	-202
▁wor	-203
qu	-204
▁but	-205
ime	-206
▁go	-207
ren	-208
ould	-209
▁U	-210
▁Korea	-211
▁inc	-212
▁Y	-213
gh	-214
all	-215
▁year	-216
ra	-217
▁this	-218
use	-219
ure	-220
out	-221
▁ab	-222
up	-223
ue	-224
ase	-225
ung	-226
▁said	-227
ard	-228
age	-229
▁It	-230
our	-231
▁(	-232
▁sp	-233
ated	-234
cc	-235
ough	-236
ark	-237
ff	-238
ident	-239
▁R	-240
ction	-241
▁se	-242
ap	-243
ust	-244
ight	-245
ome	-246
▁k	-247
ult	-248
▁Se	-249
ip	-250
▁res	-251
fter	-252
ous	-253
▁so	-254
▁j	-255
ary	-256
▁bec	-257
▁ad	-258
▁tr	-259
ance	-260
▁int	-261
▁been	-262
▁time	-263
▁cont	-264
ber	-265
▁O	-266
der	-267
port	-268
ae	-269
▁part	-270
▁there	-271
ition	-272
ie	-273
ke	-274
▁dis	-275
▁im	-276
▁man	-277
▁Kim	-278
▁ag	-279
▁out	-280
▁after	-281
ans	-282
ide	-283
so	-284
▁off	-285
ost	-286
ake	-287
ational	-288
ye	-289
▁20	-290
lo	-291
▁do	-292
."	-293
ound	-294
▁were	-295
ount	-296
▁te	-297
orm	-298
ause	-299
▁his	-300
ell	-301
per	-302
ame	-303
ther	-304
ine	-305
▁work	-306
▁As	-307
▁pe	-308
ood	-309
▁also	-310
▁when	-311
ag	-312
ire	-313
▁ar	-314
od	-315
irst	-316
▁compan	-317
▁ev	-318
ations	-319
ign	-320
▁inv	-321
▁app	-322
ople	-323
vern	-324
act	-325
one	-326
▁if	-327
▁they	-328
▁per	-329
▁Th	-330
ding	-331
ince	-332
ike	-333
ace	-334
▁3	-335
are	-336
ical	-337
▁about	-338
▁my	-339
▁more	-340
ence	-341
ens	-342
vel	-343
ict	-344
▁first	-345
ib	-346
▁than	-347
▁rec	-348
▁people	-349
ru	-350
▁pre	-351
▁pol	-352
ress	-353
erv	-354
▁their	-355
ook	-356
ub	-357
og	-358
▁all	-359
▁us	-360
ree	-361
00	-362
ack	-363
form	-364
▁because	-365
▁day	-366
ade	-367
▁such	-368
▁cl	-369
mer	-370
che	-371
pt	-372
▁up	-373
vernment	-374
oin	-375
ass	-376
ile	-377
vers	-378
▁en	-379
▁am	-380
lud	-381
ors	-382
air	-383
▁over	-384
resident	-385
oon	-386
duct	-387
ced	-388
lic	-389
▁att	-390
▁invest	-391
▁acc	-392
ual	-393
▁like	-394
▁fin	-395
▁new	-396
▁Korean	-397
ions	-398
itt	-399
▁its	-400
ious	-401
orth	-402
▁reg	-403
ased	-404
▁Min	-405
ish	-406
ool	-407
ning	-408
▁gr	-409
iff	-410
very	-411
▁government	-412
ach	-413
▁had	-414
ities	-415
▁St	-416
▁cons	-417
rent	-418
able	-419
▁one	-420
ents	-421
▁sec	-422
illion	-423
rough	-424
ink	-425
▁ro	-426
▁your	-427
▁pr	-428
▁includ	-429
old	-430
oul	-431
ia	-432
lect	-433
ail	-434
▁last	-435
▁won	-436
ok	-437
▁dec	-438
▁act	-439
,"	-440
row	-441
oint	-442
▁North	-443
▁tw	-444
ond	-445
▁Seoul	-446
ating	-447
▁bus	-448
▁qu	-449
▁comm	-450
ative	-451
▁Un	-452
▁imp	-453
ory	-454
now	-455
▁diff	-456
man	-457
▁other	-458
▁mark	-459
chool	-460
ected	-461
con	-462
▁sc	-463
anc	-464
aw	-465
▁high	-466
▁em	-467
▁mo	-468
ep	-469
▁through	-470
▁5	-471
▁bet	-472
▁only	-473
tern	-474
▁incre	-475
▁mon	-476
▁stud	-477
ite	-478
▁He	-479
▁rel	-480
▁supp	-481
▁This	-482
▁sy	-483
uc	-484
▁two	-485
omm	-486
▁should	-487
▁say	-488
▁them	-489
min	-490
ater	-491
iness	-492
▁Pro	-493
▁where	-494
▁no	-495
▁due	-496
ublic	-497
▁Lee	-498
▁would	-499
yeong	-500
low	-501
dust	-502
we	-503
▁201	-504
▁pos	-505
icial	-506
▁market	-507
▁min	-508
iss	-509
▁4	-510
▁get	-511
ution	-512
▁National	-513
▁fe	-514
enter	-515
ank	-516
▁want	-517
▁cr	-518
ject	-519
▁rep	-520
▁conf	-521
▁need	-522
ll	-523
oup	-524
xt	-525
istr	-526
▁product	-527
▁know	-528
▁report	-529
ild	-530
ized	-531
enc	-532
uring	-533
stem	-534
▁including	-535
conom	-536
▁sm	-537
▁partic	-538
ock	-539
▁If	-540
▁school	-541
▁again	-542
▁company	-543
▁month	-544
▁show	-545
▁Chin	-546
hen	-547
av	-548
day	-549
ju	-550
ention	-551
ied	-552
▁play	-553
▁mem	-554
▁companies	-555
▁President	-556
ular	-557
ivers	-558
▁We	-559
▁car	-560
ility	-561
▁under	-562
▁ann	-563
▁even	-564
▁There	-565
gu	-566
velop	-567
olog	-568
▁count	-569
sib	-570
ates	-571
▁bu	-572
▁business	-573
▁meet	-574
lease	-575
▁med	-576
▁years	-577
erson	-578
▁made	-579
▁think	-580
ise	-581
▁lead	-582
te	-583
▁investig	-584
ven	-585
ange	-586
▁op	-587
▁some	-588
▁loc	-589
ble	-590
▁team	-591
▁serv	-592
get	-593
▁good	-594
▁vis	-595
▁system	-596
ween	-597
▁since	-598
▁public	-599
▁into	-600
▁char	-601
ouse	-602
▁prov	-603
▁sub	-604
▁between	-605
ics	-606
▁col	-607
▁num	-608
reat	-609
way	-610
▁make	-611
▁real	-612
ecial	-613
und	-614
▁Part	-615
ose	-616
▁ph	-617
ason	-618
▁Tr	-619
▁V	-620
▁add	-621
▁official	-622
hed	-623
▁take	-624
plo	-625
▁her	-626
ording	-627
ices	-628
rest	-629
),	-630
▁Wh	-631
ick	-632
rop	-633
▁held	-634
▁disc	-635
ited	-636
ures	-637
▁any	-638
ob	-639
own	-640
ved	-641
▁could	-642
▁Park	-643
▁right	-644
ife	-645
ific	-646
ving	-647
▁rece	-648
▁Je	-649
▁che	-650
irect	-651
▁10	-652
gan	-653
▁did	-654
▁while	-655
▁ins	-656
▁many	-657
istry	-658
ower	-659
▁indust	-660
▁number	-661
fore	-662
▁start	-663
▁Party	-664
ments	-665
ian	-666
ert	-667
▁person	-668
▁econom	-669
outh	-670
000	-671
ove	-672
ax	-673
ily	-674
aking	-675
ister	-676
ener	-677
▁don	-678
▁next	-679
▁develop	-680
ract	-681
ron	-682
▁des	-683
gr	-684
resent	-685
ital	-686
▁ear	-687
▁law	-688
▁resp	-689
alk	-690
ng	-691
,000	-692
▁inst	-693
▁well	-694
les	-695
urn	-696
icult	-697
iew	-698
▁being	-699
▁our	-700
▁Gyeong	-701
sec	-702
▁plan	-703
▁str	-704
▁6	-705
The	-706
▁bl	-707
ese	-708
▁point	-709
▁inter	-710
ience	-711
▁Ministry	-712
▁expected	-713
▁grow	-714
▁head	-715
ared	-716
▁child	-717
▁fact	-718
▁Comm	-719
▁eff	-720
▁dep	-721
ety	-722
airman	-723
▁trans	-724
▁fam	-725
ck	-726
▁est	-727
ind	-728
ty	-729
▁br	-730
▁police	-731
▁sur	-732
▁Sh	-733
wn	-734
ization	-735
▁You	-736
cess	-737
▁support	-738
ries	-739
▁co	-740
▁ref	-741
▁An	-742
ful	-743
▁long	-744
▁aut	-745
▁call	-746
▁ind	-747
amp	-748
▁just	-749
ered	-750
ams	-751
nam	-752
▁iss	-753
lear	-754
apan	-755
▁announ	-756
▁lar	-757
▁cur	-758
▁what	-759
▁second	-760
ourt	-761
ting	-762
▁conc	-763
blem	-764
ency	-765
▁cre	-766
▁On	-767
▁before	-768
▁see	-769
chn	-770
▁soc	-771
▁oper	-772
▁ac	-773
▁problem	-774
▁var	-775
▁now	-776
▁look	-777
▁use	-778
▁del	-779
wang	-780
▁former	-781
▁sal	-782
▁rem	-783
ph	-784
won	-785
ft	-786
▁ass	-787
ancial	-788
▁during	-789
ings	-790
ord	-791
▁ca	-792
▁7	-793
ided	-794
▁three	-795
▁tri	-796
▁contin	-797
ward	-798
iversity	-799
ather	-800
▁met	-801
▁pay	-802
▁China	-803
▁direct	-804
▁possib	-805
▁how	-806
▁Japan	-807
mb	-808
its	-809
▁main	-810
▁inte	-811
hip	-812
▁place	-813
▁end	-814
ute	-815
▁local	-816
▁“	-817
▁Prov	-818
sel	-819
ittee	-820
ret	-821
▁million	-822
riend	-823
▁comple	-824
▁rev	-825
▁most	-826
▁South	-827
ally	-828
▁special	-829
do	-830
▁project	-831
▁prev	-832
med	-833
uation	-834
▁ret	-835
ize	-836
rem	-837
▁fore	-838
ek	-839
bers	-840
▁sit	-841
ision	-842
▁Acc	-843
▁requ	-844
▁every	-845
▁diffe	-846
▁saying	-847
▁back	-848
▁hel	-849
uch	-850
▁emplo	-851
ission	-852
▁difficult	-853
led	-854
▁same	-855
▁prof	-856
atch	-857
▁opp	-858
▁Dae	-859
▁particip	-860
oy	-861
▁open	-862
▁case	-863
▁him	-864
uss	-865
▁war	-866
lish	-867
ew	-868
▁pass	-869
▁How	-870
▁meeting	-871
lain	-872
▁result	-873
▁lot	-874
▁group	-875
▁found	-876
▁det	-877
ump	-878
▁each	-879
▁order	-880
▁without	-881
uk	-882
read	-883
▁set	-884
▁perform	-885
lection	-886
▁way	-887
ave	-888
ives	-889
▁help	-890
▁According	-891
ense	-892
▁process	-893
ology	-894
▁cor	-895
agement	-896
yung	-897
▁rest	-898
▁inform	-899
▁own	-900
other	-901
▁gu	-902
▁8	-903
▁world	-904
▁around	-905
▁week	-906
▁students	-907
ural	-908
▁Cho	-909
▁investigation	-910
▁bro	-911
▁used	-912
oung	-913
osp	-914
ef	-915
abor	-916
▁19	-917
▁much	-918
hing	-919
ministr	-920
icy	-921
ering	-922
▁sign	-923
▁ed	-924
entr	-925
▁Al	-926
▁Con	-927
▁party	-928
▁may	-929
imes	-930
▁house	-931
▁techn	-932
▁interest	-933
▁down	-934
▁Moon	-935
▁dem	-936
▁'	-937
ork	-938
ters	-939
▁Province	-940
▁life	-941
▁dr	-942
ently	-943
▁president	-944
usp	-945
artment	-946
▁ask	-947
▁pri	-948
▁ra	-949
▁When	-950
als	-951
▁against	-952
por	-953
ged	-954
▁gener	-955
ases	-956
▁wr	-957
▁check	-958
▁increase	-959
▁home	-960
▁products	-961
▁days	-962
▁Hy	-963
▁import	-964
▁various	-965
▁sum	-966
▁reported	-967
ruct	-968
ath	-969
▁industry	-970
▁pur	-971
rib	-972
ually	-973
iving	-974
ants	-975
▁City	-976
ection	-977
arch	-978
▁adv	-979
▁visit	-980
atic	-981
▁susp	-982
ism	-983
▁she	-984
▁reason	-985
▁announced	-986
duc	-987
▁going	-988
▁price	-989
ium	-990
▁billion	-991
▁tax	-992
▁small	-993
▁At	-994
▁Bus	-995
▁def	-996
▁fac	-997
ts	-998
▁service	-999
semb	-1000
alth	-1001
gy	-1002
▁const	-1003
pr	-1004
▁members	-1005
lement	-1006
▁job	-1007
aj	-1008
▁bel	-1009
▁prom	-1010
▁prosec	-1011
ner	-1012
▁come	-1013
li	-1014
used	-1015
elf	-1016
▁9	-1017
▁Jae	-1018
▁rate	-1019
osed	-1020
▁power	-1021
aly	-1022
▁large	-1023
▁fi	-1024
cheon	-1025
ale	-1026
▁contro	-1027
omp	-1028
▁feel	-1029
sembly	-1030
▁office	-1031
iation	-1032
▁city	-1033
▁compet	-1034
▁hand	-1035
cept	-1036
▁University	-1037
▁sent	-1038
▁very	-1039
ustom	-1040
ruction	-1041
▁wom	-1042
▁area	-1043
▁country	-1044
▁information	-1045
ior	-1046
▁does	-1047
▁prep	-1048
ised	-1049
ollow	-1050
▁buil	-1051
▁whether	-1052
▁impro	-1053
▁win	-1054
ived	-1055
gest	-1056
▁Re	-1057
duction	-1058
▁exper	-1059
▁air	-1060
tal	-1061
▁care	-1062
▁though	-1063
ched	-1064
▁four	-1065
▁Is	-1066
ems	-1067
▁national	-1068
▁pa	-1069
ug	-1070
▁chang	-1071
▁Please	-1072
aring	-1073
▁educ	-1074
▁rele	-1075
▁meas	-1076
inc	-1077
▁management	-1078
▁hard	-1079
▁talk	-1080
▁fl	-1081
▁Minister	-1082
ever	-1083
gi	-1084
ues	-1085
aining	-1086
▁inf	-1087
ted	-1088
▁friend	-1089
▁US	-1090
▁organ	-1091
ai	-1092
ternational	-1093
ocr	-1094
ope	-1095
▁30	-1096
▁children	-1097
▁current	-1098
ds	-1099
▁room	-1100
▁different	-1101
▁financial	-1102
▁economic	-1103
oh	-1104
▁tra	-1105
▁bo	-1106
eep	-1107
▁sol	-1108
uture	-1109
▁Han	-1110
amsung	-1111
▁effect	-1112
▁commun	-1113
▁Assembly	-1114
ief	-1115
▁design	-1116
▁respon	-1117
oth	-1118
▁Go	-1119
▁jud	-1120
▁custom	-1121
▁art	-1122
▁big	-1123
▁past	-1124
ended	-1125
ajor	-1126
ilit	-1127
ient	-1128
▁change	-1129
akes	-1130
▁happ	-1131
▁food	-1132
ished	-1133
▁attention	-1134
▁eas	-1135
oney	-1136
▁strong	-1137
line	-1138
▁follow	-1139
▁situation	-1140
▁neg	-1141
mit	-1142
▁aff	-1143
▁fire	-1144
▁ob	-1145
▁Che	-1146
▁become	-1147
▁estab	-1148
▁Samsung	-1149
though	-1150
▁event	-1151
▁state	-1152
▁ser	-1153
▁Ye	-1154
rence	-1155
▁ter	-1156
▁cost	-1157
▁dri	-1158
iron	-1159
uclear	-1160
cent	-1161
▁May	-1162
▁low	-1163
dong	-1164
▁too	-1165
til	-1166
▁intro	-1167
▁family	-1168
▁addition	-1169
▁book	-1170
▁cap	-1171
▁possible	-1172
the	-1173
land	-1174
▁today	-1175
ministration	-1176
alf	-1177
▁ent	-1178
bal	-1179
idents	-1180
▁post	-1181
leg	-1182
arm	-1183
▁Trump	-1184
hor	-1185
▁test	-1186
▁related	-1187
▁policy	-1188
▁class	-1189
▁la	-1190
▁Sec	-1191
ctions	-1192
▁mid	-1193
ively	-1194
▁sk	-1195
ov	-1196
san	-1197
▁future	-1198
▁put	-1199
▁explain	-1200
▁sales	-1201
ages	-1202
We	-1203
▁run	-1204
▁Gang	-1205
ending	-1206
▁working	-1207
ness	-1208
▁let	-1209
ional	-1210
duced	-1211
▁major	-1212
ooper	-1213
omet	-1214
▁ful	-1215
▁confir	-1216
▁game	-1217
▁Busan	-1218
▁fil	-1219
▁here	-1220
▁give	-1221
▁hour	-1222
▁why	-1223
▁ext	-1224
io	-1225
▁11	-1226
istrict	-1227
▁pop	-1228
▁particular	-1229
lected	-1230
▁Gwang	-1231
hy	-1232
▁rese	-1233
▁press	-1234
▁development	-1235
▁crit	-1236
iber	-1237
▁New	-1238
ising	-1239
▁dom	-1240
▁enter	-1241
▁stand	-1242
ex	-1243
▁activ	-1244
ospital	-1245
▁pat	-1246
viron	-1247
▁Pol	-1248
orts	-1249
▁Off	-1250
▁money	-1251
▁foreign	-1252
ho	-1253
▁Dem	-1254
self	-1255
▁saf	-1256
▁left	-1257
ugh	-1258
▁ve	-1259
▁water	-1260
▁level	-1261
▁performance	-1262
gether	-1263
▁together	-1264
▁What	-1265
ilities	-1266
iety	-1267
▁still	-1268
▁growth	-1269
▁social	-1270
▁demand	-1271
▁12	-1272
RW	-1273
▁200	-1274
▁education	-1275
ued	-1276
▁dist	-1277
▁percent	-1278
ned	-1279
vironment	-1280
ront	-1281
ger	-1282
ric	-1283
▁Do	-1284
ey	-1285
▁account	-1286
vate	-1287
iod	-1288
▁rul	-1289
ody	-1290
▁those	-1291
gency	-1292
▁election	-1293
▁ce	-1294
tain	-1295
▁15	-1296
▁Ar	-1297
ilitary	-1298
▁list	-1299
ature	-1300
▁total	-1301
ressed	-1302
lobal	-1303
▁until	-1304
▁Jung	-1305
urity	-1306
▁prot	-1307
▁Jong	-1308
▁best	-1309
▁For	-1310
▁half	-1311
▁Fin	-1312
▁agree	-1313
▁decided	-1314
▁My	-1315
▁move	-1316
▁disp	-1317
▁increased	-1318
uty	-1319
▁amount	-1320
▁then	-1321
▁Democr	-1322
▁cult	-1323
▁countries	-1324
▁able	-1325
▁Eng	-1326
▁sim	-1327
ix	-1328
airs	-1329
▁Dong	-1330
▁occ	-1331
▁released	-1332
▁Gyeonggi	-1333
duce	-1334
iting	-1335
▁allow	-1336
▁represent	-1337
ata	-1338
▁KRW	-1339
iol	-1340
▁Court	-1341
▁analy	-1342
▁store	-1343
▁Gr	-1344
den	-1345
itiz	-1346
▁period	-1347
▁Act	-1348
▁fun	-1349
▁using	-1350
▁val	-1351
▁De	-1352
stit	-1353
▁important	-1354
▁near	-1355
.”	-1356
▁received	-1357
oll	-1358
▁polit	-1359
▁tour	-1360
ines	-1361
▁prosecution	-1362
ately	-1363
▁author	-1364
▁ap	-1365
olit	-1366
▁conduct	-1367
▁came	-1368
▁dam	-1369
▁great	-1370
ality	-1371
▁cond	-1372
▁center	-1373
▁took	-1374
▁discuss	-1375
▁Chairman	-1376
▁fund	-1377
▁technology	-1378
▁quest	-1379
▁building	-1380
▁Sup	-1381
ired	-1382
▁dra	-1383
▁top	-1384
▁Chung	-1385
▁employ	-1386
▁hum	-1387
▁stock	-1388
estic	-1389
▁try	-1390
▁belie	-1391
ulation	-1392
▁times	-1393
pped	-1394
▁based	-1395
iven	-1396
▁Shin	-1397
▁consid	-1398
▁profess	-1399
not	-1400
▁old	-1401
stand	-1402
▁Ex	-1403
ification	-1404
).	-1405
ists	-1406
▁private	-1407
ried	-1408
nd	-1409
cil	-1410
▁labor	-1411
▁these	-1412
ten	-1413
▁viol	-1414
▁young	-1415
▁early	-1416
olitan	-1417
▁court	-1418
▁Chinese	-1419
▁Serv	-1420
▁request	-1421
ances	-1422
reme	-1423
ropolitan	-1424
▁hig	-1425
▁making	-1426
▁find	-1427
ges	-1428
ms	-1429
▁mor	-1430
▁must	-1431
ony	-1432
▁short	-1433
hes	-1434
▁issue	-1435
▁Met	-1436
▁cooper	-1437
▁please	-1438
▁Man	-1439
▁bas	-1440
andid	-1441
▁health	-1442
▁leg	-1443
▁mus	-1444
▁expand	-1445
▁hope	-1446
je	-1447
▁military	-1448
imin	-1449
▁However	-1450
▁among	-1451
ructure	-1452
ying	-1453
▁bank	-1454
▁promot	-1455
▁construction	-1456
rial	-1457
▁After	-1458
▁return	-1459
",	-1460
▁ord	-1461
▁workers	-1462
▁Sp	-1463
▁went	-1464
▁phot	-1465
▁Office	-1466
ames	-1467
ified	-1468
▁chairman	-1469
▁data	-1470
▁vict	-1471
▁lo	-1472
▁send	-1473
asing	-1474
ceed	-1475
reen	-1476
▁women	-1477
▁expect	-1478
▁oppos	-1479
▁condition	-1480
▁committee	-1481
▁domestic	-1482
ars	-1483
▁read	-1484
▁media	-1485
▁100	-1486
ces	-1487
▁emer	-1488
ins	-1489
▁measures	-1490
▁global	-1491
▁consum	-1492
pping	-1493
▁fall	-1494
aim	-1495
▁got	-1496
▁progr	-1497
▁free	-1498
▁Center	-1499
▁called	-1500
work	-1501
▁concer	-1502
▁reve	-1503
ons	-1504
jin	-1505
▁elect	-1506
▁hol	-1507
▁foc	-1508
▁flo	-1509
▁sing	-1510
▁Democratic	-1511
▁equ	-1512
▁front	-1513
utes	-1514
▁coun	-1515
▁They	-1516
ready	-1517
▁investment	-1518
▁record	-1519
itizens	-1520
▁Although	-1521
ves	-1522
sc	-1523
here	-1524
▁areas	-1525
ird	-1526
▁economy	-1527
▁18	-1528
▁ty	-1529
▁Can	-1530
▁morning	-1531
▁seems	-1532
hold	-1533
▁hot	-1534
urance	-1535
▁Committee	-1536
▁sex	-1537
▁five	-1538
▁cannot	-1539
▁already	-1540
▁improve	-1541
ival	-1542
▁hospital	-1543
▁summit	-1544
▁Ass	-1545
reng	-1546
oot	-1547
orrow	-1548
▁prices	-1549
▁tem	-1550
▁candid	-1551
iver	-1552
sp	-1553
▁Ad	-1554
ension	-1555
hic	-1556
▁mod	-1557
▁general	-1558
▁spe	-1559
▁view	-1560
ash	-1561
▁Young	-1562
▁season	-1563
▁body	-1564
▁side	-1565
▁reveal	-1566
ling	-1567
▁bre	-1568
▁fail	-1569
▁share	-1570
▁present	-1571
▁relations	-1572
▁cases	-1573
▁regard	-1574
cast	-1575
▁streng	-1576
▁vide	-1577
yeon	-1578
less	-1579
▁critic	-1580
▁lear	-1581
▁exch	-1582
▁13	-1583
▁name	-1584
wan	-1585
▁full	-1586
ead	-1587
dle	-1588
ros	-1589
▁Japanese	-1590
▁within	-1591
rd	-1592
▁form	-1593
▁hist	-1594
▁hous	-1595
20	-1596
▁Dep	-1597
▁claim	-1598
▁experience	-1599
▁explained	-1600
▁laun	-1601
▁mat	-1602
▁months	-1603
▁opin	-1604
▁away	-1605
▁card	-1606
eld	-1607
aken	-1608
▁charact	-1609
ets	-1610
▁Rep	-1611
▁agreement	-1612
▁recently	-1613
▁Choi	-1614
▁instit	-1615
▁av	-1616
▁environment	-1617
▁tell	-1618
▁den	-1619
▁vehic	-1620
▁Gwangju	-1621
app	-1622
▁live	-1623
▁hours	-1624
▁appro	-1625
▁likely	-1626
▁Liber	-1627
▁exc	-1628
▁proper	-1629
▁charge	-1630
▁So	-1631
▁cert	-1632
▁beg	-1633
ically	-1634
▁Commission	-1635
▁Te	-1636
▁contract	-1637
▁less	-1638
erence	-1639
▁better	-1640
▁negot	-1641
▁United	-1642
yees	-1643
▁trade	-1644
ball	-1645
▁Indust	-1646
▁results	-1647
▁turn	-1648
▁accident	-1649
▁treat	-1650
▁Kang	-1651
▁somet	-1652
▁director	-1653
ociation	-1654
▁nec	-1655
EO	-1656
ains	-1657
▁leader	-1658
ides	-1659
▁member	-1660
▁Air	-1661
lied	-1662
▁soon	-1663
▁parent	-1664
▁Res	-1665
▁previous	-1666
mber	-1667
ks	-1668
▁residents	-1669
▁buy	-1670
▁love	-1671
ember	-1672
nel	-1673
rug	-1674
▁position	-1675
ik	-1676
▁lim	-1677
▁English	-1678
▁Educ	-1679
▁site	-1680
▁research	-1681
▁suff	-1682
retary	-1683
▁didn	-1684
entral	-1685
▁occur	-1686
▁bur	-1687
▁establish	-1688
▁prevent	-1689
▁prop	-1690
▁exist	-1691
▁Service	-1692
▁both	-1693
▁employees	-1694
nov	-1695
joy	-1696
ways	-1697
▁floor	-1698
ivid	-1699
oss	-1700
▁Pr	-1701
▁things	-1702
▁sl	-1703
ination	-1704
▁line	-1705
▁asked	-1706
▁grad	-1707
▁once	-1708
mak	-1709
▁land	-1710
ocu	-1711
earch	-1712
fer	-1713
urch	-1714
▁confirmed	-1715
▁mater	-1716
▁manag	-1717
iet	-1718
ccess	-1719
pe	-1720
▁citizens	-1721
▁Education	-1722
▁Jun	-1723
▁controvers	-1724
▁taking	-1725
▁Since	-1726
Kore	-1727
▁late	-1728
▁Just	-1729
yang	-1730
▁Comp	-1731
▁Incheon	-1732
sang	-1733
▁Police	-1734
ging	-1735
ption	-1736
▁pict	-1737
▁safety	-1738
▁mar	-1739
▁enjoy	-1740
▁officials	-1741
▁16	-1742
▁Cheong	-1743
ene	-1744
▁purch	-1745
▁ur	-1746
▁25	-1747
imum	-1748
▁another	-1749
It	-1750
itted	-1751
▁ruling	-1752
▁applic	-1753
ator	-1754
▁tar	-1755
▁Jin	-1756
▁po	-1757
▁docu	-1758
▁human	-1759
▁mov	-1760
▁Am	-1761
aster	-1762
▁players	-1763
izing	-1764
lose	-1765
▁Hong	-1766
▁14	-1767
▁plans	-1768
pl	-1769
▁night	-1770
▁opposition	-1771
orld	-1772
▁started	-1773
▁hold	-1774
▁income	-1775
▁success	-1776
lished	-1777
▁Jeju	-1778
▁led	-1779
udget	-1780
▁Sun	-1781
▁wa	-1782
▁production	-1783
young	-1784
▁trial	-1785
▁receive	-1786
▁corpor	-1787
ittle	-1788
▁pointed	-1789
▁keep	-1790
▁administration	-1791
oice	-1792
▁understand	-1793
▁popular	-1794
▁activities	-1795
▁continue	-1796
▁review	-1797
▁That	-1798
cer	-1799
▁medical	-1800
▁Liberty	-1801
▁material	-1802
▁insp	-1803
ili	-1804
▁spec	-1805
▁men	-1806
▁facilities	-1807
▁appear	-1808
thing	-1809
▁sect	-1810
.5	-1811
▁sell	-1812
▁Group	-1813
▁aud	-1814
▁pain	-1815
▁pred	-1816
ication	-1817
vey	-1818
▁ris	-1819
idence	-1820
▁self	-1821
▁vol	-1822
ross	-1823
▁competition	-1824
▁Yong	-1825
▁arrest	-1826
▁added	-1827
▁50	-1828
▁block	-1829
▁trad	-1830
acher	-1831
▁net	-1832
yong	-1833
▁broad	-1834
▁No	-1835
▁became	-1836
orn	-1837
▁Yang	-1838
▁clear	-1839
ones	-1840
itive	-1841
▁Ind	-1842
▁final	-1843
▁Eu	-1844
▁provide	-1845
cher	-1846
ored	-1847
▁World	-1848
▁House	-1849
▁joint	-1850
▁miss	-1851
▁problems	-1852
▁victim	-1853
▁mean	-1854
side	-1855
com	-1856
▁really	-1857
ream	-1858
stitute	-1859
▁showed	-1860
▁little	-1861
irc	-1862
▁third	-1863
▁video	-1864
▁ren	-1865
▁kind	-1866
▁civ	-1867
ients	-1868
▁Ju	-1869
▁revealed	-1870
term	-1871
▁Don	-1872
ploy	-1873
▁deb	-1874
▁necess	-1875
▁17	-1876
▁implement	-1877
▁Supreme	-1878
▁political	-1879
▁concern	-1880
by	-1881
▁Even	-1882
be	-1883
year	-1884
az	-1885
▁sold	-1886
▁Su	-1887
▁Co	-1888
verage	-1889
▁budget	-1890
▁far	-1891
▁international	-1892
▁parents	-1893
▁fine	-1894
ible	-1895
▁caused	-1896
▁recomm	-1897
par	-1898
▁key	-1899
▁Seung	-1900
time	-1901
▁But	-1902
▁thought	-1903
▁beh	-1904
▁Pe	-1905
▁sem	-1906
▁according	-1907
▁match	-1908
ached	-1909
aur	-1910
enior	-1911
▁Sung	-1912
▁Elect	-1913
▁exam	-1914
eration	-1915
▁customers	-1916
▁ben	-1917
▁draw	-1918
ault	-1919
▁character	-1920
ats	-1921
hib	-1922
ha	-1923
iqu	-1924
▁appe	-1925
▁trillion	-1926
▁representative	-1927
buk	-1928
▁predict	-1929
▁mom	-1930
gress	-1931
▁With	-1932
rast	-1933
▁known	-1934
▁Metropolitan	-1935
▁bill	-1936
▁means	-1937
▁services	-1938
▁Cor	-1939
▁Song	-1940
.,	-1941
head	-1942
▁travel	-1943
▁others	-1944
▁model	-1945
ortun	-1946
▁living	-1947
▁changed	-1948
orry	-1949
▁cause	-1950
▁decision	-1951
▁Tae	-1952
ability	-1953
▁coll	-1954
▁face	-1955
ison	-1956
▁always	-1957
▁Institute	-1958
▁raised	-1959
▁having	-1960
▁create	-1961
▁close	-1962
using	-1963
▁cooperation	-1964
▁expert	-1965
▁standard	-1966
▁base	-1967
ternal	-1968
hod	-1969
▁stat	-1970
su	-1971
▁negoti	-1972
▁Association	-1973
▁CEO	-1974
elfare	-1975
▁Bl	-1976
▁rights	-1977
▁ship	-1978
▁middle	-1979
▁mob	-1980
she	-1981
▁States	-1982
aces	-1983
▁friends	-1984
▁International	-1985
▁regul	-1986
▁road	-1987
ier	-1988
▁Bank	-1989
▁24	-1990
ogn	-1991
▁program	-1992
igin	-1993
▁pract	-1994
illeg	-1995
▁history	-1996
▁possibility	-1997
woo	-1998
▁Be	-1999
ys	-2000
▁Then	-2001
▁along	-2002
▁District	-2003
▁div	-2004
▁music	-2005
▁damage	-2006
▁insurance	-2007
▁par	-2008
▁visited	-2009
▁light	-2010
▁smart	-2011
remony	-2012
▁wage	-2013
secut	-2014
▁March	-2015
▁Sa	-2016
▁Yes	-2017
▁join	-2018
▁sw	-2019
▁illeg	-2020
▁mess	-2021
iday	-2022
▁leaders	-2023
▁eng	-2024
▁circ	-2025
▁study	-2026
▁six	-2027
▁conn	-2028
ened	-2029
▁Ji	-2030
▁news	-2031
▁minutes	-2032
vernor	-2033
▁responsib	-2034
▁tom	-2035
▁vot	-2036
undai	-2037
▁controversy	-2038
▁Asian	-2039
▁teacher	-2040
▁hit	-2041
▁spread	-2042
estival	-2043
▁security	-2044
▁Financial	-2045
Korean	-2046
aper	-2047
▁2018	-2048
▁eval	-2049
▁Yoon	-2050
▁watch	-2051
▁additional	-2052
▁En	-2053
meric	-2054
▁deter	-2055
▁er	-2056
▁phone	-2057
▁invol	-2058
▁death	-2059
▁detail	-2060
hyun	-2061
▁interv	-2062
let	-2063
▁”	-2064
illed	-2065
▁method	-2066
▁Sang	-2067
▁Russ	-2068
▁value	-2069
▁exec	-2070
epend	-2071
▁chief	-2072
▁Hyundai	-2073
▁never	-2074
fact	-2075
▁School	-2076
▁space	-2077
▁camp	-2078
cy	-2079
seas	-2080
▁contact	-2081
▁something	-2082
▁trip	-2083
irl	-2084
▁department	-2085
▁Coun	-2086
▁eat	-2087
▁treatment	-2088
aff	-2089
▁existing	-2090
▁stay	-2091
atory	-2092
▁often	-2093
ocal	-2094
ured	-2095
▁distrib	-2096
Ch	-2097
ories	-2098
▁society	-2099
▁ceremony	-2100
ronics	-2101
▁began	-2102
▁infl	-2103
utions	-2104
▁looking	-2105
redit	-2106
▁increasing	-2107
▁Jeon	-2108
▁27	-2109
▁field	-2110
▁household	-2111
▁tomorrow	-2112
▁Hyun	-2113
▁employment	-2114
▁lawmak	-2115
▁goal	-2116
▁role	-2117
▁opening	-2118
soo	-2119
▁park	-2120
▁bat	-2121
▁movie	-2122
ague	-2123
▁separ	-2124
▁decl	-2125
ening	-2126
▁origin	-2127
sh	-2128
▁applied	-2129
▁necessary	-2130
▁accept	-2131
▁taken	-2132
▁el	-2133
▁apply	-2134
▁install	-2135
▁restaur	-2136
▁rather	-2137
▁Jang	-2138
▁stage	-2139
▁Station	-2140
▁later	-2141
▁recogn	-2142
▁Br	-2143
▁dev	-2144
▁Seo	-2145
▁words	-2146
▁complex	-2147
chie	-2148
▁Le	-2149
▁Some	-2150
▁21	-2151
▁conducted	-2152
noon	-2153
▁benef	-2154
▁seen	-2155
▁supply	-2156
▁exchange	-2157
▁pus	-2158
▁40	-2159
▁arri	-2160
▁afternoon	-2161
▁Government	-2162
▁cut	-2163
▁student	-2164
▁break	-2165
▁Econom	-2166
▁non	-2167
rope	-2168
ici	-2169
pril	-2170
▁age	-2171
▁issues	-2172
▁subject	-2173
▁selected	-2174
▁paid	-2175
▁es	-2176
rees	-2177
▁recent	-2178
▁denuclear	-2179
▁complete	-2180
▁yet	-2181
▁overseas	-2182
▁easy	-2183
▁mother	-2184
lier	-2185
▁higher	-2186
▁ide	-2187
eng	-2188
▁story	-2189
▁community	-2190
▁Ge	-2191
▁achie	-2192
▁express	-2193
ester	-2194
▁reform	-2195
aration	-2196
▁23	-2197
rastructure	-2198
▁decre	-2199
ternet	-2200
▁participate	-2201
▁innov	-2202
▁sorry	-2203
▁points	-2204
▁Pl	-2205
▁region	-2206
▁Fore	-2207
▁makes	-2208
▁wind	-2209
▁Americ	-2210
▁question	-2211
▁Justice	-2212
▁ste	-2213
avor	-2214
ufact	-2215
▁ans	-2216
acy	-2217
▁cour	-2218
▁operation	-2219
▁deg	-2220
▁enough	-2221
▁ago	-2222
▁compared	-2223
▁cle	-2224
▁becom	-2225
▁Gyeongsang	-2226
▁Europe	-2227
▁appoint	-2228
▁control	-2229
▁dust	-2230
ze	-2231
▁April	-2232
▁nuclear	-2233
augh	-2234
ined	-2235
▁sug	-2236
▁directly	-2237
▁san	-2238
▁quick	-2239
▁expens	-2240
▁given	-2241
▁song	-2242
▁getting	-2243
lex	-2244
▁Mr	-2245
ament	-2246
▁individ	-2247
▁training	-2248
▁authorities	-2249
▁heart	-2250
▁culture	-2251
▁survey	-2252
lict	-2253
▁Electronics	-2254
▁broadcast	-2255
reed	-2256
▁quar	-2257
ological	-2258
▁lack	-2259
▁pres	-2260
▁average	-2261
▁Council	-2262
▁begin	-2263
▁rise	-2264
▁response	-2265
▁attract	-2266
▁schools	-2267
iding	-2268
ury	-2269
.1	-2270
atives	-2271
".	-2272
▁sho	-2273
▁walk	-2274
▁regular	-2275
▁funds	-2276
rist	-2277
▁lower	-2278
dule	-2279
▁leave	-2280
▁Prime	-2281
▁super	-2282
ming	-2283
▁few	-2284
▁brand	-2285
br	-2286
▁heat	-2287
▁minimum	-2288
▁conference	-2289
▁June	-2290
▁signific	-2291
▁Trade	-2292
▁Daegu	-2293
▁nation	-2294
▁Trans	-2295
medi	-2296
▁told	-2297
▁senior	-2298
▁housing	-2299
▁deal	-2300
sid	-2301
wa	-2302
avy	-2303
▁payment	-2304
▁She	-2305
▁transfer	-2306
mp	-2307
▁dise	-2308
ky	-2309
▁following	-2310
▁drink	-2311
ring	-2312
▁tren	-2313
▁Aff	-2314
vest	-2315
urther	-2316
▁bea	-2317
ained	-2318
ators	-2319
▁nat	-2320
▁sector	-2321
▁manufact	-2322
incial	-2323
▁flow	-2324
ton	-2325
ah	-2326
▁Reg	-2327
uge	-2328
lege	-2329
inder	-2330
▁While	-2331
▁Yoo	-2332
▁strate	-2333
rup	-2334
irth	-2335
anch	-2336
ecause	-2337
fort	-2338
▁Chang	-2339
▁parties	-2340
ches	-2341
▁district	-2342
▁projects	-2343
val	-2344
.2	-2345
▁Sc	-2346
▁fem	-2347
▁outside	-2348
aek	-2349
▁jobs	-2350
▁individual	-2351
▁22	-2352
▁vac	-2353
▁businesses	-2354
▁sche	-2355
reet	-2356
▁growing	-2357
▁industrial	-2358
▁sexual	-2359
ina	-2360
▁ahead	-2361
ilar	-2362
ession	-2363
▁Agency	-2364
▁28	-2365
road	-2366
▁Nam	-2367
▁Affairs	-2368
adem	-2369
ffic	-2370
▁round	-2371
▁comb	-2372
▁size	-2373
▁attended	-2374
hee	-2375
▁Sept	-2376
▁complain	-2377
▁expressed	-2378
▁slow	-2379
▁Kyung	-2380
▁temper	-2381
▁Jeong	-2382
▁ant	-2383
▁needed	-2384
▁photo	-2385
▁July	-2386
▁fell	-2387
▁believe	-2388
sis	-2389
action	-2390
▁minister	-2391
like	-2392
▁largest	-2393
▁26	-2394
▁costs	-2395
▁lost	-2396
▁2016	-2397
enced	-2398
▁happy	-2399
▁bad	-2400
tle	-2401
▁conflict	-2402
▁charges	-2403
▁interview	-2404
▁oil	-2405
ude	-2406
▁cris	-2407
▁candidate	-2408
▁gave	-2409
▁Fr	-2410
▁Jan	-2411
▁cent	-2412
▁God	-2413
▁organiz	-2414
.3	-2415
▁significant	-2416
istics	-2417
▁doll	-2418
▁ident	-2419
▁heard	-2420
▁Department	-2421
▁emergency	-2422
▁resol	-2423
▁negotiations	-2424
ald	-2425
▁Gu	-2426
▁estate	-2427
▁conditions	-2428
▁dram	-2429
▁schedule	-2430
cial	-2431
▁sever	-2432
si	-2433
▁located	-2434
▁completed	-2435
▁relationship	-2436
▁execut	-2437
hibition	-2438
▁online	-2439
ober	-2440
erman	-2441
idered	-2442
▁starting	-2443
▁delay	-2444
▁Christ	-2445
▁continued	-2446
quar	-2447
ula	-2448
oring	-2449
ift	-2450
▁Administration	-2451
gart	-2452
▁mobile	-2453
▁fr	-2454
▁screen	-2455
▁illegal	-2456
▁Land	-2457
yo	-2458
eb	-2459
cell	-2460
▁quality	-2461
▁respond	-2462
▁moment	-2463
▁stop	-2464
▁considered	-2465
ample	-2466
▁rain	-2467
indergart	-2468
▁picture	-2469
inary	-2470
mitted	-2471
▁Hwang	-2472
▁passed	-2473
▁created	-2474
▁needs	-2475
▁electric	-2476
▁personal	-2477
▁farm	-2478
cement	-2479
▁opportun	-2480
▁opinion	-2481
▁talks	-2482
leep	-2483
▁acqu	-2484
ify	-2485
▁civil	-2486
go	-2487
▁step	-2488
▁credit	-2489
▁September	-2490
aged	-2491
▁union	-2492
▁And	-2493
▁regarding	-2494
▁leading	-2495
▁similar	-2496
▁ener	-2497
▁attend	-2498
▁unf	-2499
aily	-2500
rency	-2501
▁State	-2502
uary	-2503
▁fir	-2504
▁capital	-2505
▁repl	-2506
bo	-2507
▁crisis	-2508
▁woman	-2509
▁basic	-2510
▁suggest	-2511
▁Def	-2512
elt	-2513
▁Mar	-2514
▁currently	-2515
▁To	-2516
▁alone	-2517
▁ver	-2518
In	-2519
▁planning	-2520
▁serious	-2521
▁established	-2522
▁questions	-2523
▁Let	-2524
▁introduced	-2525
▁further	-2526
▁Because	-2527
▁target	-2528
ple	-2529
▁suspic	-2530
▁several	-2531
▁scene	-2532
friend	-2533
▁driving	-2534
▁expl	-2535
▁conven	-2536
erc	-2537
ne	-2538
▁presidential	-2539
▁changes	-2540
▁single	-2541
de	-2542
▁cars	-2543
▁station	-2544
ishing	-2545
▁shows	-2546
▁trying	-2547
▁First	-2548
▁Labor	-2549
▁Wa	-2550
▁German	-2551
▁answ	-2552
▁university	-2553
ills	-2554
▁burden	-2555
phas	-2556
▁inside	-2557
▁port	-2558
▁ground	-2559
▁Ah	-2560
▁immedi	-2561
▁advance	-2562
▁Transport	-2563
hern	-2564
▁participated	-2565
▁Aug	-2566
▁rap	-2567
▁loss	-2568
▁Seong	-2569
ential	-2570
tion	-2571
agn	-2572
▁staff	-2573
▁High	-2574
▁pen	-2575
▁host	-2576
▁ball	-2577
▁consult	-2578
▁actively	-2579
▁developed	-2580
book	-2581
▁(1	-2582
mercial	-2583
rew	-2584
▁Fed	-2585
▁peace	-2586
▁date	-2587
▁gl	-2588
▁1,	-2589
▁Lot	-2590
▁clean	-2591
▁sanctions	-2592
▁independ	-2593
▁cold	-2594
▁seem	-2595
▁tast	-2596
▁doesn	-2597
▁female	-2598
▁medium	-2599
▁energy	-2600
▁cal	-2601
▁takes	-2602
▁assault	-2603
▁pun	-2604
▁emphas	-2605
▁club	-2606
▁2017	-2607
.4	-2608
▁Ph	-2609
yes	-2610
ises	-2611
▁bring	-2612
▁professor	-2613
▁profit	-2614
▁transport	-2615
▁Sing	-2616
▁church	-2617
▁progress	-2618
▁di	-2619
▁Oct	-2620
empt	-2621
▁birth	-2622
▁Cult	-2623
▁Thank	-2624
▁pressure	-2625
▁toward	-2626
▁done	-2627
▁operating	-2628
hest	-2629
▁experts	-2630
▁apartment	-2631
jong	-2632
▁agency	-2633
▁meaning	-2634
▁respect	-2635
▁included	-2636
▁course	-2637
▁father	-2638
▁29	-2639
po	-2640
▁inspection	-2641
ences	-2642
▁games	-2643
▁groups	-2644
▁mind	-2645
just	-2646
.6	-2647
come	-2648
▁might	-2649
ought	-2650
angu	-2651
▁Internet	-2652
cel	-2653
▁wanted	-2654
▁legal	-2655
insula	-2656
chedul	-2657
icon	-2658
▁One	-2659
▁Corpor	-2660
30	-2661
then	-2662
▁lives	-2663
ducing	-2664
▁items	-2665
▁hotel	-2666
▁influ	-2667
▁z	-2668
▁favor	-2669
▁Or	-2670
to	-2671
ners	-2672
▁Won	-2673
▁color	-2674
▁considering	-2675
▁reduce	-2676
▁girl	-2677
▁active	-2678
▁played	-2679
▁offic	-2680
.8	-2681
ietnam	-2682
▁certain	-2683
▁vehicle	-2684
▁doing	-2685
▁coming	-2686
▁content	-2687
ipl	-2688
▁regulations	-2689
▁Inf	-2690
▁contrib	-2691
▁Gangwon	-2692
▁mention	-2693
igence	-2694
rel	-2695
▁polic	-2696
▁Island	-2697
anced	-2698
▁patients	-2699
ground	-2700
▁analyz	-2701
▁autom	-2702
▁manager	-2703
.7	-2704
▁parts	-2705
▁provided	-2706
▁forward	-2707
▁Secretary	-2708
▁deep	-2709
▁disapp	-2710
iter	-2711
▁sat	-2712
▁equip	-2713
▁January	-2714
If	-2715
itional	-2716
▁restaurant	-2717
ailable	-2718
▁quickly	-2719
▁concerns	-2720
▁August	-2721
▁opened	-2722
int	-2723
▁prepare	-2724
▁mult	-2725
▁vice	-2726
▁Defense	-2727
ivery	-2728
lementary	-2729
▁poor	-2730
▁board	-2731
▁speed	-2732
▁launch	-2733
uted	-2734
▁eyes	-2735
for	-2736
▁Mot	-2737
▁Vietnam	-2738
▁strengthen	-2739
▁text	-2740
▁Mayor	-2741
▁terms	-2742
▁holiday	-2743
▁schedul	-2744
itten	-2745
▁foot	-2746
▁network	-2747
urs	-2748
▁Na	-2749
ormal	-2750
▁wife	-2751
▁Oh	-2752
▁Cup	-2753
▁dire	-2754
▁materials	-2755
illage	-2756
▁drug	-2757
co	-2758
▁Lotte	-2759
▁bar	-2760
▁pack	-2761
▁Russia	-2762
▁saw	-2763
▁failed	-2764
local	-2765
▁sure	-2766
cl	-2767
▁message	-2768
▁action	-2769
▁summer	-2770
sized	-2771
▁ordered	-2772
▁Em	-2773
▁equipment	-2774
▁personnel	-2775
▁efforts	-2776
▁highest	-2777
▁holding	-2778
▁thing	-2779
▁available	-2780
▁clot	-2781
▁rank	-2782
ape	-2783
▁Donald	-2784
▁easily	-2785
ilies	-2786
raph	-2787
▁commercial	-2788
▁users	-2789
▁experi	-2790
▁policies	-2791
▁wrong	-2792
▁organizations	-2793
▁reserv	-2794
bs	-2795
▁concentr	-2796
▁Vice	-2797
ployment	-2798
▁October	-2799
aughter	-2800
▁consumers	-2801
▁quarter	-2802
usion	-2803
▁famous	-2804
▁abs	-2805
▁focus	-2806
▁exhibition	-2807
▁TV	-2808
▁recommend	-2809
bu	-2810
ports	-2811
▁Prof	-2812
▁Security	-2813
▁dest	-2814
▁prepared	-2815
▁attack	-2816
▁works	-2817
ources	-2818
▁worth	-2819
▁alle	-2820
esterday	-2821
▁analysis	-2822
▁yesterday	-2823
ects	-2824
▁delivery	-2825
▁purchase	-2826
▁Feb	-2827
▁fast	-2828
▁document	-2829
▁trend	-2830
▁dou	-2831
▁crime	-2832
▁series	-2833
▁maintain	-2834
.9	-2835
jeon	-2836
ovember	-2837
▁Jeoll	-2838
▁Med	-2839
▁application	-2840
rant	-2841
▁affairs	-2842
▁Are	-2843
▁incident	-2844
▁prosecut	-2845
▁contents	-2846
▁Son	-2847
▁coach	-2848
gun	-2849
▁interp	-2850
▁cultural	-2851
▁Corporation	-2852
▁continu	-2853
ught	-2854
▁victims	-2855
▁stri	-2856
▁plant	-2857
▁receiving	-2858
velopment	-2859
reg	-2860
▁communication	-2861
▁institutions	-2862
▁corporate	-2863
▁showing	-2864
▁vehicles	-2865
▁Yeong	-2866
quarters	-2867
mission	-2868
▁tried	-2869
ruit	-2870
▁et	-2871
omen	-2872
▁below	-2873
▁true	-2874
▁entr	-2875
osing	-2876
▁Blue	-2877
▁risk	-2878
▁fre	-2879
▁carry	-2880
▁skin	-2881
▁sleep	-2882
▁aim	-2883
▁dead	-2884
▁governments	-2885
▁purp	-2886
▁college	-2887
▁families	-2888
▁kindergart	-2889
▁caught	-2890
▁matter	-2891
▁hy	-2892
▁Ahn	-2893
cember	-2894
▁cell	-2895
▁degrees	-2896
▁issued	-2897
▁behind	-2898
▁score	-2899
▁Chief	-2900
▁phys	-2901
▁remark	-2902
ruary	-2903
▁bit	-2904
▁November	-2905
istic	-2906
▁temperature	-2907
▁coup	-2908
▁earlier	-2909
▁exerc	-2910
▁player	-2911
▁instead	-2912
▁search	-2913
▁organization	-2914
ume	-2915
▁2015	-2916
urning	-2917
▁impact	-2918
▁hands	-2919
▁natural	-2920
eneral	-2921
▁60	-2922
ique	-2923
▁fig	-2924
▁sea	-2925
mosp	-2926
ery	-2927
▁felt	-2928
▁anything	-2929
▁anim	-2930
▁0	-2931
▁argu	-2932
iful	-2933
▁enc	-2934
▁reality	-2935
▁daily	-2936
▁drawing	-2937
▁Ul	-2938
▁Profess	-2939
▁reduced	-2940
ane	-2941
pite	-2942
▁limit	-2943
ountain	-2944
▁etc	-2945
astic	-2946
▁December	-2947
down	-2948
▁tick	-2949
▁places	-2950
▁sound	-2951
▁evidence	-2952
▁launched	-2953
▁statement	-2954
▁Ab	-2955
itting	-2956
▁corre	-2957
▁sports	-2958
irt	-2959
atform	-2960
elligence	-2961
▁(2	-2962
▁People	-2963
▁atmosp	-2964
▁structure	-2965
▁proceed	-2966
urities	-2967
▁Health	-2968
irector	-2969
▁31	-2970
▁Hall	-2971
▁leav	-2972
▁welfare	-2973
CT	-2974
▁February	-2975
uck	-2976
arant	-2977
▁All	-2978
▁langu	-2979
▁immediately	-2980
▁Invest	-2981
▁train	-2982
ao	-2983
fully	-2984
▁rates	-2985
▁repor	-2986
▁Soc	-2987
▁died	-2988
▁raise	-2989
▁pet	-2990
ration	-2991
▁son	-2992
▁original	-2993
▁comes	-2994
▁investigating	-2995
▁red	-2996
▁hur	-2997
▁rapid	-2998
incip	-2999
itude	-3000
▁sense	-3001
▁raising	-3002
▁sens	-3003
▁central	-3004
▁estim	-3005
oud	-3006
▁common	-3007
light	-3008
▁reach	-3009
▁achieve	-3010
▁term	-3011
▁administr	-3012
▁smartph	-3013
,”	-3014
▁Public	-3015
arp	-3016
▁eld	-3017
▁stores	-3018
oura	-3019
fe	-3020
ots	-3021
▁built	-3022
▁Governor	-3023
▁couldn	-3024
▁industries	-3025
ably	-3026
ask	-3027
▁Me	-3028
▁Pen	-3029
▁Cl	-3030
▁professional	-3031
▁consider	-3032
▁Foreign	-3033
▁stressed	-3034
▁Eun	-3035
▁cry	-3036
▁Techn	-3037
room	-3038
▁mer	-3039
▁release	-3040
▁filed	-3041
▁bri	-3042
▁Ha	-3043
▁Why	-3044
▁weather	-3045
▁sud	-3046
utiful	-3047
level	-3048
▁intention	-3049
▁sudden	-3050
▁occurred	-3051
▁pub	-3052
▁type	-3053
utional	-3054
▁Rec	-3055
▁rat	-3056
▁status	-3057
▁Research	-3058
▁fourth	-3059
▁Il	-3060
▁actual	-3061
▁dog	-3062
vert	-3063
▁2019	-3064
▁least	-3065
▁criticized	-3066
▁Among	-3067
▁dream	-3068
over	-3069
▁audit	-3070
▁mass	-3071
▁fans	-3072
▁Infrastructure	-3073
iversary	-3074
OS	-3075
▁involved	-3076
▁build	-3077
artments	-3078
lebr	-3079
ups	-3080
▁award	-3081
▁carried	-3082
yle	-3083
▁criticism	-3084
cheong	-3085
ops	-3086
▁internal	-3087
▁itself	-3088
▁owners	-3089
band	-3090
▁banks	-3091
▁opinions	-3092
▁black	-3093
▁entire	-3094
▁positive	-3095
▁trust	-3096
▁scheduled	-3097
onst	-3098
▁function	-3099
▁council	-3100
▁hom	-3101
aced	-3102
ental	-3103
▁turned	-3104
▁appeared	-3105
▁Represent	-3106
▁whole	-3107
gle	-3108
▁youth	-3109
▁direction	-3110
atively	-3111
▁hearing	-3112
▁written	-3113
seok	-3114
▁predicted	-3115
raw	-3116
ecially	-3117
iconduct	-3118
▁safe	-3119
▁customer	-3120
▁chance	-3121
▁Law	-3122
▁someone	-3123
▁fair	-3124
▁seven	-3125
▁film	-3126
▁Bo	-3127
▁advant	-3128
▁Gangnam	-3129
▁platform	-3130
▁ut	-3131
▁daughter	-3132
▁atmosphere	-3133
▁adjust	-3134
hwan	-3135
tainment	-3136
▁Central	-3137
▁secretary	-3138
▁documents	-3139
▁interpret	-3140
▁resear	-3141
▁include	-3142
ohn	-3143
unk	-3144
▁posted	-3145
▁reflect	-3146
▁properly	-3147
ode	-3148
▁households	-3149
▁brother	-3150
▁disease	-3151
0,000	-3152
▁volun	-3153
▁except	-3154
▁Industrial	-3155
▁traffic	-3156
▁events	-3157
▁arrested	-3158
rap	-3159
▁Prosecut	-3160
▁difference	-3161
pro	-3162
▁exceed	-3163
iveness	-3164
▁unc	-3165
▁worked	-3166
▁followed	-3167
▁agreed	-3168
▁speak	-3169
▁Special	-3170
▁box	-3171
ulated	-3172
▁academ	-3173
▁Daejeon	-3174
sung	-3175
▁prem	-3176
▁evaluation	-3177
▁teams	-3178
▁princip	-3179
▁univers	-3180
▁transportation	-3181
▁access	-3182
▁movement	-3183
▁Lim	-3184
vant	-3185
▁imm	-3186
▁obs	-3187
▁beautiful	-3188
▁disab	-3189
▁comfort	-3190
▁markets	-3191
▁benefits	-3192
▁loans	-3193
▁entrance	-3194
▁shopping	-3195
onom	-3196
▁heavy	-3197
▁weak	-3198
▁Science	-3199
met	-3200
▁usually	-3201
▁lect	-3202
▁beginning	-3203
▁entered	-3204
allen	-3205
ott	-3206
yu	-3207
▁discount	-3208
ender	-3209
ev	-3210
vere	-3211
▁collect	-3212
▁Art	-3213
ivered	-3214
ights	-3215
▁celebr	-3216
▁introduce	-3217
han	-3218
▁expenses	-3219
▁traditional	-3220
▁avo	-3221
▁warrant	-3222
▁Finance	-3223
chan	-3224
There	-3225
▁confirm	-3226
pa	-3227
olution	-3228
lay	-3229
▁Economic	-3230
ansion	-3231
isf	-3232
▁establishment	-3233
▁dig	-3234
▁delivered	-3235
▁blood	-3236
amer	-3237
hoon	-3238
▁drama	-3239
▁exact	-3240
▁learning	-3241
▁goods	-3242
ares	-3243
▁Professor	-3244
kay	-3245
▁Director	-3246
▁compens	-3247
▁Peninsula	-3248
▁facility	-3249
ffee	-3250
▁suspected	-3251
▁says	-3252
▁grand	-3253
▁defense	-3254
▁repe	-3255
liament	-3256
▁Sm	-3257
▁pot	-3258
▁pick	-3259
▁anniversary	-3260
▁mentioned	-3261
▁By	-3262
▁gas	-3263
▁199	-3264
rehen	-3265
ji	-3266
201	-3267
▁guarant	-3268
▁candidates	-3269
of	-3270
▁learn	-3271
▁opportunity	-3272
jeong	-3273
▁elections	-3274
▁violence	-3275
▁SK	-3276
▁Tw	-3277
CO	-3278
▁engine	-3279
▁measure	-3280
▁requested	-3281
BS	-3282
▁investors	-3283
▁sharp	-3284
▁wait	-3285
ystem	-3286
▁choo	-3287
▁dism	-3288
▁rice	-3289
▁highly	-3290
▁language	-3291
▁researcher	-3292
▁address	-3293
▁Ki	-3294
▁Kwon	-3295
▁hair	-3296
ends	-3297
ires	-3298
▁airport	-3299
▁typ	-3300
▁Chungcheong	-3301
na	-3302
▁fee	-3303
ware	-3304
▁Development	-3305
▁metropolitan	-3306
▁interested	-3307
arding	-3308
▁semiconduct	-3309
▁Industry	-3310
▁festival	-3311
▁across	-3312
▁giving	-3313
▁driver	-3314
▁winter	-3315
ship	-3316
▁protect	-3317
▁bag	-3318
▁din	-3319
luded	-3320
▁tele	-3321
▁Day	-3322
selves	-3323
ource	-3324
▁solve	-3325
iminal	-3326
▁session	-3327
comm	-3328
▁frequ	-3329
▁effects	-3330
▁excell	-3331
▁specific	-3332
▁reportedly	-3333
▁innovation	-3334
▁wide	-3335
▁suit	-3336
▁normal	-3337
▁App	-3338
overed	-3339
ban	-3340
amed	-3341
▁Asia	-3342
▁forest	-3343
▁answer	-3344
most	-3345
▁expansion	-3346
▁image	-3347
▁threat	-3348
▁voice	-3349
▁clothes	-3350
▁proposed	-3351
▁generation	-3352
▁expectations	-3353
▁Many	-3354
ibility	-3355
▁cook	-3356
▁cities	-3357
▁skills	-3358
▁sale	-3359
▁tou	-3360
encies	-3361
▁ability	-3362
aign	-3363
rently	-3364
▁mot	-3365
▁secret	-3366
▁tit	-3367
▁Tour	-3368
rehens	-3369
▁inj	-3370
▁export	-3371
▁protest	-3372
▁distribution	-3373
▁owner	-3374
▁responsibility	-3375
%,	-3376
icle	-3377
▁actually	-3378
▁administrative	-3379
▁reached	-3380
▁link	-3381
▁purpose	-3382
adium	-3383
▁example	-3384
fect	-3385
▁boy	-3386
▁bal	-3387
aps	-3388
▁pit	-3389
▁shi	-3390
▁nothing	-3391
▁Year	-3392
▁Union	-3393
▁LG	-3394
atures	-3395
▁ever	-3396
ously	-3397
▁Cont	-3398
▁books	-3399
▁bought	-3400
▁sto	-3401
▁eight	-3402
mon	-3403
▁pers	-3404
▁claimed	-3405
▁convers	-3406
▁biggest	-3407
▁conserv	-3408
▁alleg	-3409
▁select	-3410
▁rad	-3411
▁paper	-3412
▁ways	-3413
ropri	-3414
isc	-3415
▁competit	-3416
▁Hee	-3417
cle	-3418
▁restr	-3419
▁Germany	-3420
▁Hu	-3421
▁submitted	-3422
▁70	-3423
▁punish	-3424
iled	-3425
▁reports	-3426
▁taste	-3427
▁American	-3428
gen	-3429
▁required	-3430
▁accounting	-3431
-1	-3432
chain	-3433
▁init	-3434
▁Baek	-3435
▁lawmakers	-3436
▁whose	-3437
▁analyzed	-3438
▁log	-3439
▁seek	-3440
▁Airport	-3441
▁ess	-3442
▁determin	-3443
▁subsid	-3444
▁improvement	-3445
hood	-3446
▁idea	-3447
▁track	-3448
▁Pyong	-3449
usband	-3450
▁mach	-3451
▁force	-3452
▁object	-3453
▁universities	-3454
▁stocks	-3455
vention	-3456
▁hall	-3457
ourn	-3458
▁withd	-3459
▁adding	-3460
okes	-3461
unch	-3462
isory	-3463
▁Technology	-3464
atched	-3465
▁population	-3466
▁looks	-3467
icultural	-3468
▁Found	-3469
tae	-3470
eral	-3471
▁proced	-3472
▁letter	-3473
50	-3474
▁require	-3475
▁cancer	-3476
▁prison	-3477
▁accidents	-3478
▁elder	-3479
▁Festival	-3480
▁difficulties	-3481
▁kn	-3482
▁broke	-3483
▁goes	-3484
heon	-3485
▁houses	-3486
▁physical	-3487
▁correct	-3488
ighb	-3489
▁lawy	-3490
▁comput	-3491
▁headquarters	-3492
▁display	-3493
icip	-3494
ran	-3495
▁provincial	-3496
irae	-3497
▁moved	-3498
bit	-3499
▁camer	-3500
▁coffee	-3501
ley	-3502
.0	-3503
▁pension	-3504
▁thinking	-3505
▁Hye	-3506
▁cat	-3507
BC	-3508
osal	-3509
▁smo	-3510
▁announcement	-3511
oms	-3512
uel	-3513
my	-3514
▁reduction	-3515
▁strategy	-3516
▁unique	-3517
▁running	-3518
iring	-3519
▁taxi	-3520
rit	-3521
gent	-3522
▁drop	-3523
▁simple	-3524
▁cross	-3525
▁table	-3526
▁himself	-3527
▁ke	-3528
▁Now	-3529
▁East	-3530
▁alleged	-3531
aint	-3532
▁fight	-3533
▁swe	-3534
rary	-3535
wide	-3536
▁reasons	-3537
uses	-3538
eed	-3539
gery	-3540
▁challen	-3541
▁manufacturing	-3542
ograph	-3543
▁judge	-3544
▁approval	-3545
▁rout	-3546
ampions	-3547
based	-3548
▁Woo	-3549
iment	-3550
▁hon	-3551
▁annual	-3552
▁lawmaker	-3553
▁sites	-3554
▁Hot	-3555
related	-3556
▁remarks	-3557
▁advantage	-3558
ush	-3559
▁killed	-3560
▁parliament	-3561
ugg	-3562
▁eye	-3563
▁300	-3564
▁reading	-3565
▁excellent	-3566
▁advert	-3567
▁Mark	-3568
▁everything	-3569
▁Cur	-3570
ruption	-3571
▁rising	-3572
idge	-3573
▁intens	-3574
▁campaign	-3575
hye	-3576
▁programs	-3577
pper	-3578
▁dollars	-3579
ral	-3580
▁preparing	-3581
▁Culture	-3582
▁returned	-3583
▁2014	-3584
▁subsc	-3585
▁Church	-3586
sy	-3587
▁doct	-3588
▁limited	-3589
▁attempt	-3590
▁secure	-3591
jung	-3592
▁mis	-3593
▁becomes	-3594
▁Byung	-3595
▁tal	-3596
▁details	-3597
▁Pyongyang	-3598
bum	-3599
ables	-3600
useum	-3601
▁vacation	-3602
▁Commun	-3603
▁husband	-3604
ror	-3605
▁Count	-3606
▁League	-3607
▁division	-3608
athe	-3609
rate	-3610
▁Regarding	-3611
▁produced	-3612
▁Foundation	-3613
▁waiting	-3614
▁winning	-3615
▁esp	-3616
▁playing	-3617
▁European	-3618
▁delayed	-3619
uth	-3620
▁signed	-3621
▁Hae	-3622
▁ban	-3623
▁esc	-3624
▁negative	-3625
aries	-3626
scale	-3627
▁lif	-3628
fety	-3629
▁mist	-3630
▁province	-3631
izes	-3632
ologies	-3633
▁Food	-3634
▁promote	-3635
▁nearby	-3636
▁duty	-3637
alled	-3638
▁regional	-3639
▁warm	-3640
▁Roh	-3641
▁integr	-3642
care	-3643
umb	-3644
▁allowed	-3645
▁everyone	-3646
▁Ulsan	-3647
▁gap	-3648
osure	-3649
▁500	-3650
▁exchang	-3651
▁teachers	-3652
rehensive	-3653
▁Federation	-3654
▁relatively	-3655
apore	-3656
icine	-3657
▁evalu	-3658
▁emb	-3659
▁gold	-3660
▁extra	-3661
▁severe	-3662
▁writing	-3663
erve	-3664
▁ten	-3665
▁webs	-3666
▁discl	-3667
▁forced	-3668
▁becoming	-3669
China	-3670
ronic	-3671
▁replace	-3672
▁Environment	-3673
▁excess	-3674
▁neighb	-3675
▁indic	-3676
▁Col	-3677
▁elementary	-3678
▁huge	-3679
▁revision	-3680
▁harm	-3681
▁moving	-3682
▁Bu	-3683
▁completely	-3684
▁202	-3685
▁sun	-3686
▁star	-3687
igation	-3688
▁closed	-3689
rought	-3690
▁longer	-3691
▁viewers	-3692
olf	-3693
anger	-3694
▁Singapore	-3695
▁impos	-3696
▁resident	-3697
▁gradu	-3698
ids	-3699
▁Representative	-3700
2,	-3701
▁selling	-3702
▁tre	-3703
▁creating	-3704
▁participation	-3705
▁consecut	-3706
suit	-3707
▁themselves	-3708
ective	-3709
▁Deputy	-3710
▁strength	-3711
▁pm	-3712
▁soccer	-3713
▁depos	-3714
▁weap	-3715
▁York	-3716
▁poll	-3717
iction	-3718
▁General	-3719
▁emot	-3720
quare	-3721
resh	-3722
▁basis	-3723
▁tariff	-3724
▁influence	-3725
▁branch	-3726
▁newly	-3727
iers	-3728
▁firm	-3729
▁photos	-3730
▁authority	-3731
▁circum	-3732
▁lic	-3733
▁unit	-3734
▁word	-3735
dern	-3736
▁actor	-3737
▁exports	-3738
▁Safety	-3739
▁email	-3740
▁tempor	-3741
▁promotion	-3742
▁encoura	-3743
▁Hospital	-3744
▁depending	-3745
iplom	-3746
▁Not	-3747
▁watching	-3748
▁(3	-3749
▁era	-3750
▁wish	-3751
▁choice	-3752
▁ratio	-3753
▁shown	-3754
ero	-3755
▁bond	-3756
▁gift	-3757
',	-3758
▁variety	-3759
▁These	-3760
▁Sports	-3761
chol	-3762
▁anti	-3763
▁expanding	-3764
urer	-3765
nergy	-3766
▁resign	-3767
▁introduction	-3768
▁science	-3769
▁worried	-3770
▁includes	-3771
▁Ear	-3772
▁emphasized	-3773
▁abroad	-3774
▁surgery	-3775
.-	-3776
▁leaving	-3777
▁responsible	-3778
▁causing	-3779
▁From	-3780
▁brok	-3781
▁nature	-3782
▁Ins	-3783
▁especially	-3784
▁har	-3785
▁earn	-3786
▁practice	-3787
▁assets	-3788
▁village	-3789
▁convenience	-3790
▁brief	-3791
▁Stud	-3792
▁Business	-3793
sible	-3794
▁Welfare	-3795
▁exercise	-3796
▁employee	-3797
▁visiting	-3798
▁KT	-3799
▁altern	-3800
▁gather	-3801
▁finished	-3802
▁continues	-3803
sun	-3804
round	-3805
▁although	-3806
▁focused	-3807
▁property	-3808
▁Kak	-3809
▁flight	-3810
ormer	-3811
orial	-3812
▁Myung	-3813
alse	-3814
▁operated	-3815
pon	-3816
▁joined	-3817
▁Com	-3818
▁surpr	-3819
▁Conf	-3820
▁white	-3821
▁elderly	-3822
▁Complex	-3823
▁improved	-3824
▁Did	-3825
order	-3826
▁allows	-3827
▁consecutive	-3828
stances	-3829
▁satisf	-3830
▁hear	-3831
▁prior	-3832
▁During	-3833
▁recruit	-3834
▁bab	-3835
▁dro	-3836
actions	-3837
arily	-3838
▁Face	-3839
▁fees	-3840
▁almost	-3841
formation	-3842
▁changing	-3843
▁Could	-3844
▁concept	-3845
▁recognized	-3846
uman	-3847
▁fix	-3848
▁rail	-3849
raft	-3850
▁recorded	-3851
▁cool	-3852
▁War	-3853
▁Jud	-3854
▁weight	-3855
isl	-3856
▁appearance	-3857
As	-3858
▁choose	-3859
▁blockchain	-3860
▁investigate	-3861
▁Sejong	-3862
▁profits	-3863
annel	-3864
els	-3865
▁Dis	-3866
▁calc	-3867
▁suffered	-3868
icious	-3869
ull	-3870
▁door	-3871
▁earth	-3872
▁assess	-3873
▁disaster	-3874
▁Dec	-3875
▁shoot	-3876
▁wants	-3877
▁deliver	-3878
▁allegations	-3879
▁seats	-3880
▁Sam	-3881
▁opt	-3882
▁weeks	-3883
▁factory	-3884
▁Da	-3885
▁premium	-3886
▁diagn	-3887
▁range	-3888
▁dinner	-3889
▁overall	-3890
▁Work	-3891
▁max	-3892
gment	-3893
▁installed	-3894
▁strug	-3895
hwa	-3896
▁green	-3897
▁compensation	-3898
sts	-3899
chi	-3900
▁Former	-3901
▁planned	-3902
irit	-3903
▁Games	-3904
▁recommended	-3905
▁autonom	-3906
▁classes	-3907
▁arrived	-3908
▁suffering	-3909
▁ir	-3910
ropriate	-3911
▁fra	-3912
eun	-3913
load	-3914
▁gen	-3915
▁Our	-3916
cont	-3917
▁Des	-3918
enture	-3919
▁operate	-3920
▁wave	-3921
▁Net	-3922
▁sym	-3923
areun	-3924
▁util	-3925
rec	-3926
▁rose	-3927
▁standards	-3928
▁sister	-3929
▁Pa	-3930
lymp	-3931
▁career	-3932
▁busy	-3933
▁pictures	-3934
▁concert	-3935
▁Soo	-3936
▁Motor	-3937
▁older	-3938
▁criminal	-3939
▁technologies	-3940
▁disabled	-3941
▁agencies	-3942
▁sentenced	-3943
▁discussion	-3944
▁above	-3945
eo	-3946
▁protection	-3947
nings	-3948
▁file	-3949
▁parking	-3950
▁Last	-3951
outhern	-3952
ido	-3953
men	-3954
▁sett	-3955
▁retire	-3956
▁shot	-3957
▁communic	-3958
▁respectively	-3959
▁street	-3960
North	-3961
estern	-3962
▁accused	-3963
▁bed	-3964
▁participating	-3965
isted	-3966
▁accomp	-3967
oong	-3968
▁Olymp	-3969
▁crypt	-3970
▁deputy	-3971
▁Bareun	-3972
▁studying	-3973
ificial	-3974
ears	-3975
▁website	-3976
▁governor	-3977
ays	-3978
▁Att	-3979
▁myself	-3980
rote	-3981
▁diplom	-3982
▁brought	-3983
▁theme	-3984
▁write	-3985
eech	-3986
ocur	-3987
wha	-3988
icted	-3989
▁repeated	-3990
iced	-3991
▁virt	-3992
▁appeal	-3993
▁Facebook	-3994
▁comment	-3995
▁despite	-3996
▁snow	-3997
▁Life	-3998
▁surv	-3999
▁focusing	-4000
ses	-4001
▁Employment	-4002
▁Fair	-4003
▁Of	-4004
▁Brit	-4005
▁external	-4006
▁increases	-4007
▁Sw	-4008
▁cover	-4009
▁marketing	-4010
▁decline	-4011
▁subscri	-4012
▁happened	-4013
▁eating	-4014
▁calling	-4015
▁units	-4016
▁batter	-4017
▁Also	-4018
ilding	-4019
▁reb	-4020
▁rating	-4021
▁designated	-4022
▁intelligence	-4023
▁falling	-4024
▁effective	-4025
3,	-4026
▁avoid	-4027
▁comprehensive	-4028
▁River	-4029
▁wonder	-4030
wh	-4031
cho	-4032
▁attached	-4033
▁implemented	-4034
▁fresh	-4035
▁rob	-4036
▁punishment	-4037
ards	-4038
▁refund	-4039
dro	-4040
▁expanded	-4041
ganization	-4042
▁counsel	-4043
▁foundation	-4044
▁organized	-4045
off	-4046
▁bott	-4047
▁wall	-4048
▁rapidly	-4049
▁Prosecutors	-4050
▁wrote	-4051
▁affili	-4052
evit	-4053
▁shares	-4054
▁entertainment	-4055
▁Peace	-4056
▁paying	-4057
▁Hotel	-4058
▁missing	-4059
▁weekend	-4060
mirae	-4061
▁nice	-4062
▁spot	-4063
▁grade	-4064
▁sympt	-4065
▁proport	-4066
▁Republic	-4067
▁speech	-4068
▁tourists	-4069
▁commission	-4070
▁inevit	-4071
▁Management	-4072
▁Securities	-4073
▁acting	-4074
▁guid	-4075
▁loan	-4076
▁officer	-4077
▁soft	-4078
athered	-4079
▁resources	-4080
%)	-4081
mi	-4082
▁significantly	-4083
▁ec	-4084
▁separate	-4085
▁Ho	-4086
itness	-4087
back	-4088
▁served	-4089
▁gathered	-4090
▁index	-4091
▁shock	-4092
▁appointed	-4093
any	-4094
▁leadership	-4095
ube	-4096
▁strateg	-4097
▁petition	-4098
Th	-4099
▁victory	-4100
▁Most	-4101
▁records	-4102
▁entering	-4103
ori	-4104
omin	-4105
where	-4106
▁sharing	-4107
▁surround	-4108
amb	-4109
▁cash	-4110
ployed	-4111
▁leak	-4112
▁Heung	-4113
▁Kakao	-4114
▁County	-4115
▁fully	-4116
▁calls	-4117
▁ep	-4118
▁factors	-4119
▁cryptocur	-4120
▁resc	-4121
▁Int	-4122
ded	-4123
▁2,	-4124
elds	-4125
▁channel	-4126
▁apartments	-4127
▁remains	-4128
▁reservation	-4129
▁advanced	-4130
▁rental	-4131
▁item	-4132
coming	-4133
▁centers	-4134
no	-4135
▁location	-4136
face	-4137
▁Provincial	-4138
▁mission	-4139
▁judges	-4140
▁solution	-4141
▁smartphone	-4142
▁provides	-4143
ux	-4144
▁Insurance	-4145
▁executives	-4146
▁suspect	-4147
▁Goo	-4148
▁ded	-4149
▁AI	-4150
▁wear	-4151
▁prosecutor	-4152
▁adult	-4153
▁semiconductor	-4154
▁debt	-4155
▁successful	-4156
▁seat	-4157
▁drunk	-4158
▁perfect	-4159
▁withdraw	-4160
mar	-4161
hae	-4162
▁decrease	-4163
▁reporters	-4164
▁suspicion	-4165
iate	-4166
▁ticket	-4167
▁consumer	-4168
▁refer	-4169
▁published	-4170
▁80	-4171
▁Move	-4172
phoon	-4173
ifying	-4174
▁Aut	-4175
chang	-4176
istered	-4177
▁subway	-4178
▁scored	-4179
▁prec	-4180
▁singer	-4181
▁Ne	-4182
▁pret	-4183
▁asking	-4184
▁observ	-4185
▁presented	-4186
▁impossible	-4187
▁coast	-4188
ivity	-4189
▁types	-4190
▁cy	-4191
▁source	-4192
▁section	-4193
rimin	-4194
▁regions	-4195
ledge	-4196
▁false	-4197
▁More	-4198
▁crimes	-4199
▁stress	-4200
▁consumption	-4201
imb	-4202
illing	-4203
▁Award	-4204
▁ill	-4205
▁feeling	-4206
jae	-4207
▁qual	-4208
▁Every	-4209
atically	-4210
1,	-4211
▁meal	-4212
▁baseball	-4213
▁extreme	-4214
▁Currently	-4215
ki	-4216
oday	-4217
▁digital	-4218
lus	-4219
▁unfair	-4220
▁constit	-4221
▁believed	-4222
▁Joon	-4223
▁mix	-4224
▁sil	-4225
ining	-4226
▁Where	-4227
▁tourism	-4228
▁computer	-4229
▁Doo	-4230
▁push	-4231
▁competitiveness	-4232
▁background	-4233
ster	-4234
IS	-4235
▁His	-4236
▁ing	-4237
▁ended	-4238
▁nar	-4239
▁sending	-4240
▁monit	-4241
▁minute	-4242
▁else	-4243
▁danger	-4244
seong	-4245
person	-4246
▁penal	-4247
▁Market	-4248
NS	-4249
icken	-4250
▁modern	-4251
▁medicine	-4252
▁checked	-4253
▁enterpr	-4254
▁interpreted	-4255
▁Head	-4256
▁Koreans	-4257
▁Exp	-4258
▁affected	-4259
AT	-4260
▁Ro	-4261
▁providing	-4262
house	-4263
▁Inter	-4264
▁vote	-4265
▁healthy	-4266
▁shop	-4267
▁talking	-4268
▁Yu	-4269
▁Line	-4270
▁wearing	-4271
ield	-4272
▁lawsuit	-4273
▁manip	-4274
▁remember	-4275
▁camera	-4276
▁decide	-4277
▁dismiss	-4278
▁patient	-4279
▁estimated	-4280
▁suc	-4281
overy	-4282
▁Movement	-4283
▁offer	-4284
▁appointment	-4285
▁spend	-4286
▁spring	-4287
▁independence	-4288
▁truth	-4289
▁stable	-4290
▁succeed	-4291
▁Par	-4292
▁lat	-4293
▁stopped	-4294
▁executive	-4295
▁expensive	-4296
▁enh	-4297
▁abuse	-4298
struction	-4299
▁agr	-4300
▁incon	-4301
▁anyone	-4302
▁performances	-4303
ios	-4304
▁parliamentary	-4305
mun	-4306
▁decreased	-4307
▁Seok	-4308
▁born	-4309
▁America	-4310
▁Christian	-4311
▁Start	-4312
▁lunch	-4313
holders	-4314
▁developing	-4315
▁Bareunmirae	-4316
▁Your	-4317
▁worry	-4318
eneration	-4319
▁Inst	-4320
▁figure	-4321
▁revised	-4322
▁suddenly	-4323
▁Rev	-4324
▁willing	-4325
tr	-4326
▁Chun	-4327
▁mainly	-4328
▁Recently	-4329
▁ru	-4330
▁quite	-4331
▁connection	-4332
▁journ	-4333
▁couple	-4334
▁ple	-4335
▁kindergartens	-4336
more	-4337
▁designed	-4338
orthern	-4339
▁forces	-4340
commun	-4341
▁unlike	-4342
▁taxes	-4343
▁urban	-4344
▁Pomp	-4345
▁Human	-4346
▁formed	-4347
▁ens	-4348
▁King	-4349
▁(4	-4350
▁desc	-4351
▁behav	-4352
▁meters	-4353
▁fishing	-4354
umn	-4355
▁contains	-4356
▁suggested	-4357
▁gets	-4358
▁male	-4359
aching	-4360
▁waste	-4361
▁orders	-4362
US	-4363
myeon	-4364
▁Pre	-4365
▁inconven	-4366
▁Geun	-4367
▁okay	-4368
▁artificial	-4369
▁activity	-4370
▁pray	-4371
▁Koreas	-4372
▁remaining	-4373
acity	-4374
ression	-4375
eria	-4376
▁Pri	-4377
▁lawyer	-4378
▁proposal	-4379
▁declaration	-4380
▁prob	-4381
standing	-4382
ei	-4383
ians	-4384
oration	-4385
▁Social	-4386
▁judicial	-4387
▁path	-4388
▁scand	-4389
▁fish	-4390
▁broadcasting	-4391
eor	-4392
▁infrastructure	-4393
uff	-4394
▁198	-4395
ram	-4396
jured	-4397
▁touch	-4398
▁devices	-4399
▁ordinary	-4400
oices	-4401
▁symptoms	-4402
▁creation	-4403
▁cryptocurrency	-4404
mical	-4405
▁legisl	-4406
ny	-4407
iles	-4408
free	-4409
▁Superv	-4410
▁finally	-4411
▁heads	-4412
▁injured	-4413
orough	-4414
▁shared	-4415
▁comments	-4416
▁Today	-4417
▁looked	-4418
aith	-4419
▁core	-4420
itation	-4421
▁produce	-4422
rences	-4423
▁ingred	-4424
▁Aust	-4425
▁quant	-4426
▁Policy	-4427
▁difficulty	-4428
vent	-4429
▁nine	-4430
▁ones	-4431
▁spent	-4432
okesman	-4433
▁manage	-4434
▁sn	-4435
▁White	-4436
▁meant	-4437
▁demonst	-4438
▁Im	-4439
▁volume	-4440
▁greatly	-4441
▁standing	-4442
▁SM	-4443
▁mayor	-4444
▁-	-4445
ym	-4446
▁abol	-4447
▁island	-4448
▁judgment	-4449
ampionship	-4450
▁concerned	-4451
▁improving	-4452
▁conservative	-4453
▁shut	-4454
▁trading	-4455
▁certific	-4456
▁serve	-4457
▁double	-4458
iated	-4459
▁doub	-4460
▁discussed	-4461
yond	-4462
▁beyond	-4463
▁Sohn	-4464
▁excessive	-4465
▁Women	-4466
aging	-4467
▁Sat	-4468
▁implementation	-4469
▁arr	-4470
▁spirit	-4471
asks	-4472
▁Joo	-4473
▁baby	-4474
▁Economy	-4475
▁mountain	-4476
▁sentence	-4477
▁(5	-4478
▁guest	-4479
ightly	-4480
▁talent	-4481
▁capt	-4482
▁task	-4483
▁independent	-4484
▁Gim	-4485
igious	-4486
▁adop	-4487
▁Google	-4488
▁Mid	-4489
▁notice	-4490
lines	-4491
iciency	-4492
▁educational	-4493
▁refuge	-4494
▁Sea	-4495
▁potential	-4496
▁Mond	-4497
▁catch	-4498
▁politics	-4499
osis	-4500
ij	-4501
ither	-4502
▁runs	-4503
▁younger	-4504
▁mur	-4505
▁wel	-4506
ashion	-4507
▁relevant	-4508
▁memory	-4509
▁divided	-4510
▁initial	-4511
▁article	-4512
▁Iran	-4513
▁plants	-4514
▁environmental	-4515
▁ult	-4516
10	-4517
▁twice	-4518
▁detailed	-4519
▁alternative	-4520
▁Yeon	-4521
▁Suwon	-4522
▁corporation	-4523
▁sad	-4524
▁Under	-4525
▁strike	-4526
▁strongly	-4527
hol	-4528
▁discussions	-4529
quality	-4530
nes	-4531
▁currency	-4532
ees	-4533
▁trou	-4534
▁Exper	-4535
ateg	-4536
▁suspended	-4537
▁35	-4538
▁pan	-4539
▁album	-4540
▁Mus	-4541
▁Mi	-4542
au	-4543
▁device	-4544
▁defe	-4545
▁justice	-4546
▁innovative	-4547
▁throughout	-4548
▁Hak	-4549
riage	-4550
▁fields	-4551
▁Due	-4552
aling	-4553
▁town	-4554
lies	-4555
▁Bar	-4556
▁histor	-4557
9,	-4558
▁regret	-4559
▁accepted	-4560
ties	-4561
▁Was	-4562
▁retirement	-4563
▁title	-4564
▁committed	-4565
▁listen	-4566
imate	-4567
▁Supervisory	-4568
▁ath	-4569
▁Energy	-4570
▁circumstances	-4571
▁secured	-4572
eorological	-4573
▁accur	-4574
▁screening	-4575
▁Ac	-4576
▁finish	-4577
▁monthly	-4578
▁bul	-4579
▁visitors	-4580
▁Investment	-4581
▁preparation	-4582
▁accum	-4583
▁nationwide	-4584
▁lose	-4585
▁painting	-4586
fin	-4587
▁explan	-4588
merce	-4589
▁Cons	-4590
▁faith	-4591
▁doctor	-4592
exp	-4593
▁hosted	-4594
▁cop	-4595
▁buildings	-4596
ulate	-4597
ancing	-4598
▁haven	-4599
▁audience	-4600
▁transl	-4601
▁thorough	-4602
▁tired	-4603
▁supported	-4604
▁representatives	-4605
▁crack	-4606
▁stated	-4607
▁Tourism	-4608
mine	-4609
▁connect	-4610
▁consist	-4611
att	-4612
▁Pan	-4613
▁thank	-4614
▁examination	-4615
▁Would	-4616
▁France	-4617
▁sides	-4618
▁inspect	-4619
▁contain	-4620
▁Hol	-4621
▁Monday	-4622
jected	-4623
▁registered	-4624
oses	-4625
▁fraud	-4626
enger	-4627
▁command	-4628
ohang	-4629
▁zone	-4630
ada	-4631
▁rooms	-4632
▁Cooper	-4633
▁fat	-4634
▁categ	-4635
▁drinking	-4636
eas	-4637
chul	-4638
ipped	-4639
▁scandal	-4640
▁pushed	-4641
▁assist	-4642
▁Services	-4643
▁conversation	-4644
▁hydro	-4645
▁Constit	-4646
▁participants	-4647
▁understanding	-4648
aches	-4649
▁goals	-4650
▁apprec	-4651
jun	-4652
▁Child	-4653
▁stories	-4654
otion	-4655
▁golf	-4656
▁academic	-4657
▁Ag	-4658
▁newsp	-4659
▁machine	-4660
▁characteristics	-4661
▁counter	-4662
ancy	-4663
▁lived	-4664
▁filled	-4665
▁effort	-4666
▁failure	-4667
▁typhoon	-4668
▁forecast	-4669
type	-4670
▁Unlike	-4671
▁checking	-4672
▁ice	-4673
▁solid	-4674
▁regime	-4675
istration	-4676
▁Gyeongnam	-4677
ilipp	-4678
▁lik	-4679
▁Russian	-4680
▁Meteorological	-4681
▁diseases	-4682
joon	-4683
▁Agr	-4684
▁seemed	-4685
▁gives	-4686
friendly	-4687
▁Sum	-4688
▁democr	-4689
▁worker	-4690
▁transactions	-4691
▁Jes	-4692
▁flex	-4693
▁requires	-4694
mark	-4695
▁News	-4696
▁Pompeo	-4697
▁Pyeong	-4698
▁remain	-4699
▁attending	-4700
%.	-4701
▁Af	-4702
▁Power	-4703
▁Jeolla	-4704
▁Fire	-4705
▁Friday	-4706
▁Philipp	-4707
▁selection	-4708
▁electricity	-4709
▁renew	-4710
▁putting	-4711
uct	-4712
▁Pohang	-4713
▁damaged	-4714
▁attitude	-4715
▁beauty	-4716
▁rum	-4717
▁guarantee	-4718
▁Rights	-4719
▁window	-4720
▁blue	-4721
▁determined	-4722
▁Enter	-4723
▁superv	-4724
▁eventually	-4725
limin	-4726
▁rein	-4727
regular	-4728
▁shipping	-4729
▁systems	-4730
▁reducing	-4731
▁reflected	-4732
▁learned	-4733
▁psy	-4734
▁prize	-4735
iling	-4736
▁named	-4737
▁Tai	-4738
▁dial	-4739
▁wors	-4740
▁believes	-4741
▁hurt	-4742
▁salary	-4743
seo	-4744
▁license	-4745
▁borrow	-4746
▁gre	-4747
right	-4748
called	-4749
▁league	-4750
ications	-4751
iors	-4752
▁firms	-4753
▁amid	-4754
▁depart	-4755
▁stead	-4756
▁2016,	-4757
▁popularity	-4758
▁liqu	-4759
forcement	-4760
▁Information	-4761
ui	-4762
▁recruitment	-4763
▁vers	-4764
▁Jesus	-4765
▁argued	-4766
▁smooth	-4767
▁stab	-4768
▁Consid	-4769
▁amb	-4770
▁Port	-4771
▁kindergarten	-4772
▁menu	-4773
▁Si	-4774
ohol	-4775
▁termin	-4776
joo	-4777
▁soldiers	-4778
▁happen	-4779
▁mart	-4780
▁experienced	-4781
▁transaction	-4782
wook	-4783
▁admission	-4784
kyung	-4785
▁finding	-4786
engers	-4787
cohol	-4788
heast	-4789
▁urgent	-4790
▁clearly	-4791
▁suspicions	-4792
ico	-4793
▁autonomous	-4794
▁birthday	-4795
▁dry	-4796
▁Supp	-4797
▁walking	-4798
bed	-4799
▁capacity	-4800
▁regulation	-4801
luding	-4802
▁listed	-4803
▁supporting	-4804
▁laugh	-4805
▁bi	-4806
ogue	-4807
▁consideration	-4808
▁Pal	-4809
▁Hanwha	-4810
▁Cr	-4811
▁dark	-4812
▁drugs	-4813
▁belong	-4814
rol	-4815
▁dispute	-4816
▁witness	-4817
▁domin	-4818
▁temporary	-4819
▁Ryu	-4820
▁chicken	-4821
▁harass	-4822
mat	-4823
▁throw	-4824
▁balance	-4825
thening	-4826
▁drive	-4827
pass	-4828
▁Yeou	-4829
▁prelimin	-4830
▁hop	-4831
▁animals	-4832
▁bottom	-4833
▁obtain	-4834
▁appropriate	-4835
run	-4836
▁Therefore	-4837
▁isn	-4838
▁Kong	-4839
▁homes	-4840
▁ready	-4841
onent	-4842
ibrary	-4843
▁sometimes	-4844
▁stance	-4845
▁essential	-4846
▁thanks	-4847
▁Div	-4848
▁Prom	-4849
iliar	-4850
▁drawn	-4851
▁kinds	-4852
▁Considering	-4853
hel	-4854
▁Have	-4855
▁Car	-4856
▁bid	-4857
▁fier	-4858
uggish	-4859
▁broken	-4860
▁judged	-4861
▁corruption	-4862
▁Star	-4863
tenance	-4864
▁debate	-4865
▁models	-4866
▁complaint	-4867
▁ran	-4868
ensive	-4869
▁About	-4870
▁prefer	-4871
▁lecture	-4872
▁Construction	-4873
myung	-4874
▁Analy	-4875
▁demanded	-4876
▁principle	-4877
▁ele	-4878
key	-4879
▁arrive	-4880
▁volunte	-4881
raz	-4882
ote	-4883
▁Taiwan	-4884
▁overcome	-4885
▁Civ	-4886
▁pitcher	-4887
▁mall	-4888
▁jump	-4889
▁registration	-4890
▁2020	-4891
▁meat	-4892
▁save	-4893
▁sluggish	-4894
building	-4895
▁civic	-4896
▁evening	-4897
▁downt	-4898
▁shareholders	-4899
▁Yeouido	-4900
▁features	-4901
▁interests	-4902
▁crow	-4903
▁entry	-4904
door	-4905
▁battle	-4906
▁setting	-4907
5,	-4908
8,	-4909
▁lots	-4910
employed	-4911
▁elected	-4912
▁resolve	-4913
-2	-4914
son	-4915
▁Ko	-4916
▁sample	-4917
▁briefing	-4918
▁favorite	-4919
▁volunt	-4920
omb	-4921
▁claims	-4922
▁anx	-4923
▁Engine	-4924
▁southern	-4925
▁rent	-4926
▁cancel	-4927
▁grades	-4928
▁deposit	-4929
oyang	-4930
▁India	-4931
part	-4932
▁Wed	-4933
▁laws	-4934
▁narrow	-4935
▁sky	-4936
osmet	-4937
rench	-4938
▁conver	-4939
▁warning	-4940
▁Middle	-4941
▁Grand	-4942
▁regardless	-4943
urday	-4944
▁meaningful	-4945
▁hydrogen	-4946
asion	-4947
▁reply	-4948
▁Stadium	-4949
▁connected	-4950
▁wages	-4951
▁marriage	-4952
▁IT	-4953
iform	-4954
▁behavior	-4955
▁gradually	-4956
▁characters	-4957
▁negotiation	-4958
▁reven	-4959
amily	-4960
▁90	-4961
ishe	-4962
iable	-4963
▁kept	-4964
▁Project	-4965
▁lay	-4966
▁signs	-4967
▁actors	-4968
▁appears	-4969
oke	-4970
isions	-4971
▁preliminary	-4972
▁Her	-4973
▁user	-4974
▁earnest	-4975
udi	-4976
▁unve	-4977
▁violation	-4978
▁gra	-4979
▁purs	-4980
▁complaints	-4981
cing	-4982
mbol	-4983
▁San	-4984
▁alcohol	-4985
▁style	-4986
isheries	-4987
▁ruled	-4988
▁tariffs	-4989
▁stra	-4990
▁confidence	-4991
ellow	-4992
itime	-4993
▁discrimin	-4994
▁cance	-4995
▁Apple	-4996
▁amend	-4997
▁multip	-4998
▁Strate	-4999
▁married	-5000
▁maximum	-5001
▁guard	-5002
long	-5003
▁flag	-5004
▁applying	-5005
ousand	-5006
▁suspension	-5007
▁Shim	-5008
▁1,000	-5009
▁fashion	-5010
▁Cha	-5011
▁scen	-5012
undred	-5013
▁interesting	-5014
▁burn	-5015
km	-5016
▁phen	-5017
osition	-5018
▁Indones	-5019
craft	-5020
▁clos	-5021
urally	-5022
iculture	-5023
▁fif	-5024
endent	-5025
▁fierce	-5026
eter	-5027
▁YouT	-5028
▁songs	-5029
▁practical	-5030
▁kil	-5031
▁tight	-5032
▁contest	-5033
▁strengthening	-5034
▁Mex	-5035
▁uncert	-5036
▁knowledge	-5037
▁seeing	-5038
▁venture	-5039
▁affect	-5040
▁British	-5041
▁fuel	-5042
▁Kwang	-5043
▁careful	-5044
▁ang	-5045
▁ign	-5046
▁exclus	-5047
▁revital	-5048
▁concluded	-5049
▁SME	-5050
▁officers	-5051
▁Hw	-5052
▁minor	-5053
▁injury	-5054
sik	-5055
▁Sunday	-5056
▁produc	-5057
▁Austral	-5058
▁feelings	-5059
▁subsidi	-5060
▁promoted	-5061
▁foreigners	-5062
▁officially	-5063
▁actions	-5064
▁directors	-5065
lusion	-5066
▁36	-5067
▁damages	-5068
▁expects	-5069
▁methods	-5070
▁ministry	-5071
▁Motors	-5072
▁symbol	-5073
▁surrounding	-5074
▁emerged	-5075
▁emerging	-5076
▁expression	-5077
▁constant	-5078
aved	-5079
icro	-5080
▁Division	-5081
▁agricultural	-5082
▁Gun	-5083
icient	-5084
under	-5085
▁lines	-5086
▁weapons	-5087
▁hike	-5088
▁aimed	-5089
▁delicious	-5090
▁Per	-5091
▁epis	-5092
▁electronic	-5093
▁submit	-5094
▁accounts	-5095
▁straight	-5096
zz	-5097
king	-5098
▁ranked	-5099
▁Saturday	-5100
▁maintenance	-5101
▁destro	-5102
▁uniform	-5103
▁ICT	-5104
look	-5105
iciary	-5106
▁ingredients	-5107
▁fear	-5108
amples	-5109
▁occup	-5110
▁phenomen	-5111
▁Cong	-5112
▁rare	-5113
▁operations	-5114
SS	-5115
wol	-5116
▁via	-5117
place	-5118
7,	-5119
▁fixed	-5120
▁concentration	-5121
▁plane	-5122
laration	-5123
▁losing	-5124
▁Har	-5125
▁tend	-5126
▁honor	-5127
▁distance	-5128
▁wid	-5129
▁comfortable	-5130
▁presentation	-5131
▁apolog	-5132
▁causes	-5133
▁Dan	-5134
▁Through	-5135
▁determine	-5136
▁u	-5137
▁tim	-5138
▁schol	-5139
▁ensure	-5140
▁declared	-5141
▁videos	-5142
▁Medical	-5143
uration	-5144
▁prosp	-5145
Japan	-5146
▁buying	-5147
▁tourist	-5148
▁recovery	-5149
▁Bio	-5150
▁route	-5151
▁deliber	-5152
▁telecommun	-5153
▁explanation	-5154
▁Geum	-5155
nesday	-5156
▁breat	-5157
▁Museum	-5158
▁assign	-5159
▁latest	-5160
▁lowest	-5161
▁band	-5162
ledged	-5163
novation	-5164
▁exchanges	-5165
▁i	-5166
soon	-5167
▁passing	-5168
▁passengers	-5169
rep	-5170
▁Tax	-5171
▁penalty	-5172
▁experiences	-5173
ray	-5174
▁af	-5175
▁strugg	-5176
▁restaurants	-5177
loom	-5178
▁SNS	-5179
▁Bang	-5180
▁rules	-5181
▁football	-5182
▁mail	-5183
osystem	-5184
▁attracting	-5185
▁Ste	-5186
neung	-5187
▁prosecutors	-5188
▁manufacturer	-5189
▁glass	-5190
ma	-5191
▁vul	-5192
▁nurs	-5193
▁approved	-5194
▁association	-5195
apt	-5196
▁helped	-5197
▁Goyang	-5198
▁majority	-5199
▁rich	-5200
nament	-5201
▁animal	-5202
▁defend	-5203
▁Plan	-5204
aves	-5205
▁rule	-5206
▁2017,	-5207
▁losses	-5208
▁Team	-5209
▁kick	-5210
▁Cultural	-5211
▁bright	-5212
awei	-5213
idden	-5214
▁tasks	-5215
▁artists	-5216
▁Wednesday	-5217
▁opportunities	-5218
▁bonds	-5219
▁commem	-5220
▁purchased	-5221
▁identified	-5222
TS	-5223
obile	-5224
▁Promotion	-5225
ham	-5226
▁murder	-5227
uri	-5228
▁Mon	-5229
▁agend	-5230
▁Tur	-5231
▁vill	-5232
▁athlet	-5233
▁movies	-5234
▁pretty	-5235
▁dropped	-5236
▁Changwon	-5237
▁sentiment	-5238
▁debut	-5239
4,	-5240
hington	-5241
▁French	-5242
uations	-5243
▁cosmet	-5244
ler	-5245
ador	-5246
▁Gyeongbuk	-5247
▁remo	-5248
▁nearly	-5249
▁Attention	-5250
▁Actor	-5251
▁prime	-5252
▁KB	-5253
▁offices	-5254
▁rejected	-5255
▁shooting	-5256
▁Engineering	-5257
▁KOS	-5258
▁liter	-5259
▁System	-5260
▁values	-5261
▁Philippines	-5262
gn	-5263
aker	-5264
▁Fund	-5265
▁hiring	-5266
▁consc	-5267
▁collabor	-5268
▁conducting	-5269
▁Gal	-5270
▁cloud	-5271
▁Workers	-5272
40	-5273
▁Corp	-5274
▁prin	-5275
▁sweet	-5276
vious	-5277
▁Declaration	-5278
▁uses	-5279
▁thousand	-5280
▁ecosystem	-5281
▁Sol	-5282
▁boo	-5283
▁sharply	-5284
aded	-5285
▁wasn	-5286
▁stick	-5287
▁colors	-5288
▁Command	-5289
▁earthqu	-5290
▁Mountain	-5291
▁spokesman	-5292
DA	-5293
▁minim	-5294
▁mixed	-5295
expected	-5296
lying	-5297
▁West	-5298
▁handed	-5299
▁Village	-5300
▁watched	-5301
▁mouth	-5302
▁Cheongju	-5303
▁subjects	-5304
▁Washington	-5305
▁teen	-5306
▁partners	-5307
▁blocked	-5308
▁treated	-5309
▁slightly	-5310
▁hospitals	-5311
▁Huawei	-5312
▁advertise	-5313
▁Organization	-5314
▁factor	-5315
power	-5316
holder	-5317
▁franch	-5318
▁master	-5319
▁vulner	-5320
▁restrict	-5321
▁spending	-5322
▁enterprises	-5323
Kim	-5324
abin	-5325
▁ideas	-5326
▁residential	-5327
bok	-5328
▁Jo	-5329
oking	-5330
▁Past	-5331
▁mistake	-5332
gang	-5333
▁chat	-5334
▁reporter	-5335
akers	-5336
▁(6	-5337
ilater	-5338
▁fost	-5339
ilk	-5340
erry	-5341
gence	-5342
asters	-5343
▁separately	-5344
▁wed	-5345
▁unable	-5346
yn	-5347
▁pleas	-5348
▁frequently	-5349
▁Tok	-5350
▁promised	-5351
▁conflicts	-5352
'.	-5353
▁dance	-5354
▁square	-5355
▁rally	-5356
rier	-5357
inite	-5358
▁clin	-5359
▁continuously	-5360
know	-5361
▁Forest	-5362
▁Support	-5363
▁blow	-5364
ocation	-5365
▁collected	-5366
▁assessment	-5367
▁drew	-5368
▁wins	-5369
▁occurs	-5370
oph	-5371
▁inevitable	-5372
oi	-5373
ips	-5374
▁Hel	-5375
▁chair	-5376
▁beer	-5377
▁medal	-5378
abilities	-5379
▁investments	-5380
▁hundred	-5381
▁dialogue	-5382
▁wild	-5383
bre	-5384
char	-5385
▁charged	-5386
▁figures	-5387
▁meantime	-5388
▁spreading	-5389
▁diplomatic	-5390
▁newspaper	-5391
▁investigated	-5392
▁Pension	-5393
la	-5394
▁inqu	-5395
▁10,000	-5396
▁voices	-5397
ole	-5398
▁2013	-5399
income	-5400
▁52	-5401
▁Civil	-5402
▁bills	-5403
▁shape	-5404
itter	-5405
▁canceled	-5406
▁confident	-5407
▁challenge	-5408
iance	-5409
▁guide	-5410
▁helps	-5411
Se	-5412
▁either	-5413
▁sick	-5414
▁combined	-5415
▁ven	-5416
▁discipl	-5417
▁procedures	-5418
▁musical	-5419
▁performed	-5420
▁convention	-5421
▁border	-5422
▁collaps	-5423
▁mag	-5424
▁reor	-5425
▁sectors	-5426
▁carrying	-5427
itizen	-5428
▁Global	-5429
aem	-5430
▁functions	-5431
TC	-5432
tech	-5433
▁veget	-5434
▁gone	-5435
▁Mem	-5436
▁cast	-5437
▁swim	-5438
▁Thanks	-5439
hw	-5440
▁tickets	-5441
▁Olympics	-5442
▁proportion	-5443
▁id	-5444
apse	-5445
▁lux	-5446
▁rock	-5447
▁elimin	-5448
▁offered	-5449
▁Industries	-5450
▁collection	-5451
▁cas	-5452
▁hor	-5453
ommod	-5454
▁Jose	-5455
▁fifth	-5456
▁immig	-5457
▁rescue	-5458
izz	-5459
▁asset	-5460
▁foods	-5461
▁tests	-5462
▁finance	-5463
▁instruct	-5464
▁Cap	-5465
▁begun	-5466
mail	-5467
▁plastic	-5468
▁technical	-5469
▁confirmation	-5470
uting	-5471
▁equipped	-5472
▁Nex	-5473
▁gain	-5474
▁mental	-5475
▁applicants	-5476
anam	-5477
termeas	-5478
▁Real	-5479
▁wake	-5480
isition	-5481
ox	-5482
hab	-5483
▁farmers	-5484
▁Afric	-5485
▁pra	-5486
AN	-5487
▁UN	-5488
issions	-5489
▁realize	-5490
▁achieved	-5491
▁mostly	-5492
▁placed	-5493
▁suffer	-5494
uction	-5495
▁bigger	-5496
▁cooperate	-5497
▁Amid	-5498
▁mill	-5499
▁scale	-5500
▁topic	-5501
▁saving	-5502
▁benefit	-5503
▁actress	-5504
▁exposed	-5505
▁journal	-5506
▁Sal	-5507
▁shoes	-5508
rupt	-5509
acing	-5510
▁psych	-5511
▁worse	-5512
▁Strategy	-5513
▁promoting	-5514
eared	-5515
▁upper	-5516
▁specialized	-5517
▁maintained	-5518
▁scope	-5519
▁Yun	-5520
▁guidel	-5521
▁meetings	-5522
set	-5523
Korea	-5524
▁announce	-5525
IC	-5526
▁roads	-5527
▁pushing	-5528
▁brain	-5529
▁plays	-5530
taining	-5531
agers	-5532
▁empt	-5533
▁greet	-5534
▁loved	-5535
▁accommod	-5536
▁carefully	-5537
▁SMEs	-5538
▁smartphones	-5539
▁Lead	-5540
▁YouTube	-5541
▁demands	-5542
utical	-5543
▁multi	-5544
▁importance	-5545
▁Ui	-5546
▁passion	-5547
tic	-5548
▁Earlier	-5549
ja	-5550
▁Val	-5551
▁Arab	-5552
▁bath	-5553
▁Academ	-5554
▁fundament	-5555
reedom	-5556
▁eco	-5557
▁frame	-5558
lete	-5559
aters	-5560
▁unus	-5561
▁aircraft	-5562
▁Experts	-5563
▁continuing	-5564
▁fan	-5565
▁Stat	-5566
▁Marine	-5567
▁Independ	-5568
▁excluded	-5569
▁pled	-5570
▁managed	-5571
▁naturally	-5572
axy	-5573
▁aware	-5574
▁lab	-5575
▁Small	-5576
▁steel	-5577
▁gender	-5578
▁version	-5579
icide	-5580
isher	-5581
▁Saudi	-5582
EC	-5583
▁asp	-5584
known	-5585
▁Soon	-5586
▁Company	-5587
▁phenomenon	-5588
▁tournament	-5589
▁differences	-5590
gers	-5591
▁Nak	-5592
▁spons	-5593
▁Jeollanam	-5594
▁applications	-5595
ED	-5596
CEO	-5597
▁2015,	-5598
▁cru	-5599
▁levels	-5600
▁northern	-5601
arr	-5602
ites	-5603
oted	-5604
rank	-5605
▁boost	-5606
▁wedding	-5607
ching	-5608
phone	-5609
▁Board	-5610
▁agenda	-5611
▁turning	-5612
aug	-5613
pen	-5614
▁Bae	-5615
▁"201	-5616
▁race	-5617
ulating	-5618
▁pattern	-5619
6,	-5620
ns	-5621
iences	-5622
verse	-5623
▁collapse	-5624
▁efficiency	-5625
▁recognition	-5626
CTV	-5627
iece	-5628
▁Canada	-5629
▁drivers	-5630
▁Koo	-5631
▁cards	-5632
▁package	-5633
class	-5634
▁flood	-5635
▁allowing	-5636
▁yourself	-5637
▁blind	-5638
▁Shinhan	-5639
▁Intelligence	-5640
mas	-5641
▁Based	-5642
▁nomin	-5643
▁shops	-5644
▁explos	-5645
▁forget	-5646
▁procedure	-5647
bon	-5648
▁arch	-5649
essed	-5650
?"	-5651
▁distributed	-5652
RA	-5653
▁trees	-5654
▁voting	-5655
▁partner	-5656
▁recover	-5657
▁powerful	-5658
▁33	-5659
▁names	-5660
▁pregn	-5661
ager	-5662
▁issu	-5663
▁tow	-5664
▁leads	-5665
▁Unification	-5666
hand	-5667
▁Will	-5668
▁north	-5669
got	-5670
▁Girl	-5671
bang	-5672
▁tro	-5673
cheol	-5674
▁beat	-5675
▁Green	-5676
▁contracts	-5677
▁revolution	-5678
▁dece	-5679
mo	-5680
armace	-5681
▁mount	-5682
▁payments	-5683
▁cafe	-5684
▁coal	-5685
▁page	-5686
▁merch	-5687
▁securities	-5688
▁Gold	-5689
▁smile	-5690
▁realized	-5691
▁accel	-5692
▁degree	-5693
armaceutical	-5694
▁Mer	-5695
▁Beij	-5696
▁handle	-5697
▁flexible	-5698
assador	-5699
▁novel	-5700
▁facing	-5701
▁Analysts	-5702
uce	-5703
▁John	-5704
▁dogs	-5705
▁convenient	-5706
andon	-5707
ading	-5708
▁urged	-5709
▁receip	-5710
▁starts	-5711
▁multiple	-5712
▁certificate	-5713
▁consultation	-5714
▁arts	-5715
▁talked	-5716
kyu	-5717
▁Mal	-5718
▁pil	-5719
▁deleg	-5720
▁nood	-5721
▁Beijing	-5722
▁closely	-5723
▁Does	-5724
▁Adv	-5725
▁integrated	-5726
tes	-5727
▁Bre	-5728
essel	-5729
▁Tokyo	-5730
▁repair	-5731
▁Yongsan	-5732
▁Ilbo	-5733
▁Despite	-5734
▁approach	-5735
gg	-5736
▁Moo	-5737
▁register	-5738
▁semester	-5739
▁32	-5740
▁imag	-5741
▁trouble	-5742
▁disclosure	-5743
▁statistics	-5744
▁400	-5745
▁Kum	-5746
orters	-5747
▁grown	-5748
▁weaken	-5749
▁covered	-5750
▁establishing	-5751
acific	-5752
70	-5753
▁chose	-5754
▁greater	-5755
▁settlement	-5756
hour	-5757
raid	-5758
▁nerv	-5759
▁easier	-5760
▁stadium	-5761
▁knew	-5762
St	-5763
Wh	-5764
▁Sy	-5765
comfort	-5766
▁Singer	-5767
employment	-5768
▁inconvenience	-5769
▁Two	-5770
▁thoughts	-5771
▁responded	-5772
pyo	-5773
ript	-5774
▁conv	-5775
▁Until	-5776
▁brands	-5777
▁exceeded	-5778
▁shareholder	-5779
▁inaug	-5780
▁desire	-5781
▁dangerous	-5782
▁institution	-5783
▁Gyeongsangnam	-5784
▁recommendation	-5785
arden	-5786
useok	-5787
▁coord	-5788
oral	-5789
▁Children	-5790
2.	-5791
▁enhance	-5792
▁detected	-5793
▁disappear	-5794
ply	-5795
▁2010	-5796
▁Only	-5797
▁steps	-5798
▁unveiled	-5799
▁Sin	-5800
orage	-5801
▁offering	-5802
▁counseling	-5803
▁disappeared	-5804
▁tree	-5805
▁feels	-5806
▁mood	-5807
iverse	-5808
▁venue	-5809
▁evaluated	-5810
how	-5811
▁Kook	-5812
▁fill	-5813
ellect	-5814
▁votes	-5815
▁accord	-5816
▁CCTV	-5817
▁ride	-5818
▁Cheon	-5819
▁attra	-5820
▁divid	-5821
▁afraid	-5822
%),	-5823
▁POS	-5824
apers	-5825
▁faster	-5826
▁towards	-5827
500	-5828
▁ease	-5829
▁vessel	-5830
▁combination	-5831
▁missile	-5832
▁stability	-5833
▁historical	-5834
▁vulnerable	-5835
▁38	-5836
▁Jongno	-5837
▁encourage	-5838
▁disciplinary	-5839
ocol	-5840
▁Mok	-5841
▁dress	-5842
▁Gangneung	-5843
▁3,	-5844
▁aging	-5845
▁empty	-5846
▁whenever	-5847
▁raw	-5848
▁stake	-5849
ented	-5850
going	-5851
▁Seocho	-5852
▁opponent	-5853
▁resolution	-5854
▁filming	-5855
▁studies	-5856
▁competitive	-5857
orter	-5858
▁transferred	-5859
▁concentrated	-5860
about	-5861
▁cells	-5862
▁religious	-5863
▁Ok	-5864
▁meals	-5865
eek	-5866
▁Naver	-5867
▁Doosan	-5868
▁containing	-5869
▁code	-5870
inance	-5871
▁prevention	-5872
▁dollar	-5873
▁Seongnam	-5874
▁heav	-5875
▁involving	-5876
▁replacement	-5877
▁manipulation	-5878
sook	-5879
▁resolved	-5880
law	-5881
site	-5882
▁enjoyed	-5883
▁athletes	-5884
▁battery	-5885
ades	-5886
▁hang	-5887
▁memories	-5888
▁upcoming	-5889
▁happiness	-5890
▁Mad	-5891
eeper	-5892
reams	-5893
▁imported	-5894
▁45	-5895
maker	-5896
change	-5897
▁dishes	-5898
▁returning	-5899
▁Innovation	-5900
▁Store	-5901
▁gained	-5902
inger	-5903
▁images	-5904
▁Chuseok	-5905
▁staying	-5906
▁Christmas	-5907
▁amendment	-5908
▁communicate	-5909
PI	-5910
ket	-5911
▁34	-5912
istance	-5913
▁surface	-5914
achment	-5915
▁manner	-5916
▁sand	-5917
▁100,000	-5918
▁buses	-5919
▁upload	-5920
▁suitable	-5921
azon	-5922
▁listening	-5923
▁unexpected	-5924
▁persp	-5925
▁reporting	-5926
▁earthquake	-5927
▁cooking	-5928
▁assembly	-5929
▁automatically	-5930
▁Kia	-5931
▁remin	-5932
intendent	-5933
Al	-5934
▁whom	-5935
▁Panmun	-5936
oles	-5937
▁passenger	-5938
▁acquisition	-5939
▁kid	-5940
▁height	-5941
▁roll	-5942
▁Hanoi	-5943
▁Pay	-5944
ography	-5945
▁strict	-5946
▁anymore	-5947
▁situations	-5948
▁aid	-5949
▁quantity	-5950
▁provision	-5951
icles	-5952
▁accompan	-5953
odies	-5954
▁corporations	-5955
jo	-5956
bin	-5957
reaved	-5958
▁episode	-5959
▁supports	-5960
comfortable	-5961
▁accordance	-5962
▁researchers	-5963
lets	-5964
▁Which	-5965
▁Society	-5966
▁deterior	-5967
abinet	-5968
▁adults	-5969
▁fallen	-5970
▁funeral	-5971
▁individuals	-5972
▁Win	-5973
▁Congress	-5974
▁positions	-5975
yr	-5976
▁pow	-5977
▁facts	-5978
▁replaced	-5979
▁Indonesia	-5980
cean	-5981
▁awa	-5982
mother	-5983
▁rom	-5984
arian	-5985
encing	-5986
▁College	-5987
▁repeatedly	-5988
▁Western	-5989
▁transpa	-5990
▁1.5	-5991
ureau	-5992
▁Super	-5993
▁stabil	-5994
▁commemor	-5995
▁priority	-5996
gin	-5997
ensus	-5998
▁tool	-5999
▁south	-6000
reement	-6001
▁Mexico	-6002
▁jointly	-6003
▁guess	-6004
▁signing	-6005
▁gate	-6006
▁mand	-6007
uls	-6008
▁guil	-6009
▁cancell	-6010
yeol	-6011
▁Red	-6012
ursday	-6013
▁Galaxy	-6014
▁linked	-6015
▁struct	-6016
ception	-6017
▁retail	-6018
▁simply	-6019
dae	-6020
ulum	-6021
▁jun	-6022
▁Stand	-6023
▁abandon	-6024
▁disappoint	-6025
▁outstanding	-6026
FA	-6027
chon	-6028
fficient	-6029
▁destroy	-6030
▁Citizens	-6031
▁Mike	-6032
▁theater	-6033
dri	-6034
▁Fil	-6035
▁bereaved	-6036
▁Bong	-6037
▁king	-6038
▁relie	-6039
▁cosmetics	-6040
▁outdoor	-6041
eces	-6042
▁smell	-6043
▁perman	-6044
▁dispatched	-6045
ato	-6046
dom	-6047
▁Ang	-6048
▁ton	-6049
idity	-6050
▁recognize	-6051
win	-6052
▁nut	-6053
▁resum	-6054
▁districts	-6055
gl	-6056
▁flowers	-6057
▁creative	-6058
▁traveling	-6059
osun	-6060
▁gar	-6061
▁museum	-6062
▁deadline	-6063
▁holidays	-6064
▁grew	-6065
▁Smart	-6066
▁complic	-6067
▁earnings	-6068
▁extended	-6069
▁identity	-6070
▁caf	-6071
▁shr	-6072
cknow	-6073
▁acceler	-6074
lim	-6075
▁EU	-6076
▁peak	-6077
▁discrimination	-6078
▁surpass	-6079
▁installation	-6080
▁scholars	-6081
▁assaulted	-6082
▁countermeas	-6083
rain	-6084
▁fit	-6085
▁feature	-6086
▁storage	-6087
ellectual	-6088
▁neighbor	-6089
aped	-6090
▁stations	-6091
▁Over	-6092
▁however	-6093
▁unusual	-6094
▁appreciate	-6095
▁uncomfortable	-6096
SC	-6097
▁reasonable	-6098
ino	-6099
▁library	-6100
▁Free	-6101
▁feed	-6102
▁Amazon	-6103
▁suicide	-6104
▁attracted	-6105
▁harassment	-6106
▁recru	-6107
riculum	-6108
When	-6109
iture	-6110
▁Asiana	-6111
▁remove	-6112
▁verification	-6113
play	-6114
▁Rel	-6115
▁tea	-6116
▁Army	-6117
▁rebound	-6118
▁Sen	-6119
▁acknow	-6120
▁PC	-6121
▁fake	-6122
icians	-6123
Park	-6124
▁Mun	-6125
▁gun	-6126
board	-6127
▁tons	-6128
uesday	-6129
▁ultra	-6130
▁Bridge	-6131
▁Military	-6132
▁contribute	-6133
▁resignation	-6134
▁Ser	-6135
▁regulatory	-6136
▁Youth	-6137
▁controll	-6138
▁Abe	-6139
▁tens	-6140
▁artist	-6141
▁donation	-6142
▁downtown	-6143
▁unification	-6144
riers	-6145
icated	-6146
▁anxiety	-6147
eal	-6148
arity	-6149
This	-6150
▁relax	-6151
▁vision	-6152
▁web	-6153
pyeong	-6154
▁Summit	-6155
▁opposed	-6156
▁memorial	-6157
iel	-6158
▁upd	-6159
ength	-6160
▁aged	-6161
▁Academy	-6162
▁Constitutional	-6163
▁Okay	-6164
▁optim	-6165
▁exclusive	-6166
▁Mor	-6167
▁Sewol	-6168
▁messages	-6169
sing	-6170
heung	-6171
▁liber	-6172
▁feet	-6173
▁Joint	-6174
▁govern	-6175
▁Twitter	-6176
▁Australia	-6177
ney	-6178
▁Pastor	-6179
▁writer	-6180
▁helping	-6181
▁keen	-6182
▁tears	-6183
▁supposed	-6184
▁mut	-6185
▁yellow	-6186
▁bow	-6187
▁imposed	-6188
ari	-6189
▁habit	-6190
▁worst	-6191
eon	-6192
ighter	-6193
▁contribution	-6194
aret	-6195
osen	-6196
▁KBS	-6197
ishes	-6198
▁cup	-6199
▁wire	-6200
▁extent	-6201
▁matches	-6202
▁promise	-6203
ucks	-6204
▁bio	-6205
rants	-6206
▁spl	-6207
▁squ	-6208
ivest	-6209
▁risks	-6210
▁relief	-6211
▁scient	-6212
▁controversial	-6213
ping	-6214
▁boyfriend	-6215
▁complexes	-6216
▁theory	-6217
▁numbers	-6218
▁strange	-6219
▁centered	-6220
▁65	-6221
▁internet	-6222
▁Sub	-6223
▁dish	-6224
ivestock	-6225
▁martial	-6226
▁accumulated	-6227
▁capabilities	-6228
ER	-6229
roll	-6230
▁Swed	-6231
▁stim	-6232
▁refused	-6233
▁withdrawal	-6234
▁Street	-6235
▁trends	-6236
▁hundreds	-6237
▁illegally	-6238
ousing	-6239
▁usual	-6240
▁hidden	-6241
▁violating	-6242
▁basket	-6243
▁describ	-6244
▁Another	-6245
▁Kookmin	-6246
▁collapsed	-6247
▁previously	-6248
▁views	-6249
aza	-6250
▁strengthened	-6251
omer	-6252
▁stood	-6253
▁respondents	-6254
what	-6255
▁Hyo	-6256
etary	-6257
▁angry	-6258
▁escape	-6259
▁phones	-6260
▁CS	-6261
▁egg	-6262
▁subst	-6263
▁convey	-6264
▁Camp	-6265
▁auto	-6266
▁symp	-6267
vement	-6268
▁freely	-6269
▁consensus	-6270
▁seeking	-6271
▁momentum	-6272
▁prim	-6273
▁cited	-6274
▁uncertain	-6275
▁introducing	-6276
▁Gi	-6277
▁150	-6278
▁Family	-6279
▁flower	-6280
ortunately	-6281
▁originally	-6282
MW	-6283
▁Hyung	-6284
▁Before	-6285
▁Chosun	-6286
ederation	-6287
une	-6288
▁ID	-6289
▁mal	-6290
▁Election	-6291
▁consulting	-6292
▁POSCO	-6293
▁refers	-6294
▁Jeonnam	-6295
▁invoice	-6296
▁railway	-6297
▁recording	-6298
▁certification	-6299
Ph	-6300
amm	-6301
▁Love	-6302
▁diet	-6303
▁corres	-6304
etr	-6305
▁Who	-6306
▁impr	-6307
▁Jeonju	-6308
▁Senior	-6309
▁leaves	-6310
▁familiar	-6311
fast	-6312
▁milk	-6313
▁massive	-6314
▁slowdown	-6315
▁lowered	-6316
▁error	-6317
▁Thursday	-6318
▁admitted	-6319
▁Tele	-6320
reness	-6321
-0	-6322
▁aw	-6323
▁Gyeongsangbuk	-6324
▁joy	-6325
▁unp	-6326
▁sexually	-6327
razil	-6328
▁Four	-6329
▁fruit	-6330
▁acquaint	-6331
▁invested	-6332
▁conclusion	-6333
▁criteria	-6334
▁departments	-6335
▁county	-6336
▁commit	-6337
▁Sur	-6338
▁cart	-6339
▁Express	-6340
▁remained	-6341
▁securing	-6342
ipe	-6343
▁Look	-6344
▁kit	-6345
▁obl	-6346
▁corner	-6347
▁irregular	-6348
▁operators	-6349
rene	-6350
▁Put	-6351
▁upon	-6352
▁denied	-6353
▁kilomet	-6354
▁Ky	-6355
▁map	-6356
▁farming	-6357
▁succeeded	-6358
▁personality	-6359
▁moist	-6360
iscal	-6361
outheast	-6362
▁Fisheries	-6363
▁franchise	-6364
▁girlfriend	-6365
▁processing	-6366
log	-6367
▁visits	-6368
▁Independence	-6369
mm	-6370
▁Card	-6371
▁Guard	-6372
▁unless	-6373
▁successfully	-6374
▁subsidiary	-6375
▁diss	-6376
▁firef	-6377
▁Unions	-6378
▁solved	-6379
▁purchasing	-6380
,'	-6381
itch	-6382
contract	-6383
▁strategic	-6384
▁transform	-6385
▁Post	-6386
▁Follow	-6387
gae	-6388
etic	-6389
ilos	-6390
inces	-6391
▁Home	-6392
▁coin	-6393
igaret	-6394
▁creat	-6395
cles	-6396
▁MBC	-6397
▁soup	-6398
▁stre	-6399
urches	-6400
▁gaining	-6401
▁outcome	-6402
eth	-6403
▁mel	-6404
advant	-6405
▁freedom	-6406
▁der	-6407
▁insisted	-6408
▁Chungnam	-6409
▁category	-6410
▁willingness	-6411
▁Bi	-6412
geun	-6413
▁extension	-6414
af	-6415
gye	-6416
▁Dr	-6417
▁cream	-6418
▁probably	-6419
taek	-6420
▁acts	-6421
▁snack	-6422
▁solar	-6423
▁uncon	-6424
▁chosen	-6425
ris	-6426
itect	-6427
▁forum	-6428
▁shall	-6429
▁disadvant	-6430
▁deeply	-6431
berg	-6432
▁Eui	-6433
astern	-6434
▁ment	-6435
▁Brazil	-6436
▁answers	-6437
body	-6438
▁adm	-6439
▁risen	-6440
▁Wo	-6441
orney	-6442
▁calm	-6443
▁institute	-6444
CC	-6445
▁humans	-6446
▁memor	-6447
▁missed	-6448
▁monitoring	-6449
▁Pat	-6450
olute	-6451
▁studied	-6452
▁interior	-6453
▁lectures	-6454
▁curriculum	-6455
▁investigations	-6456
▁KE	-6457
▁BTS	-6458
ieces	-6459
▁Arts	-6460
▁troops	-6461
▁winner	-6462
▁articles	-6463
xit	-6464
eless	-6465
▁graduate	-6466
enary	-6467
▁diagnosis	-6468
me	-6469
uan	-6470
aemun	-6471
▁Road	-6472
▁robot	-6473
▁states	-6474
▁Tuesday	-6475
ructuring	-6476
▁confront	-6477
▁guidelines	-6478
▁Agriculture	-6479
▁advertising	-6480
isting	-6481
▁client	-6482
▁revers	-6483
▁volunteer	-6484
▁customized	-6485
chen	-6486
▁construct	-6487
▁favorable	-6488
wered	-6489
▁customs	-6490
▁cleaning	-6491
▁statements	-6492
▁copy	-6493
▁patent	-6494
▁Airlines	-6495
▁refugees	-6496
▁Tot	-6497
▁Times	-6498
▁bound	-6499
imately	-6500
▁citing	-6501
▁professors	-6502
obby	-6503
▁pork	-6504
▁Heavy	-6505
▁Hello	-6506
▁cheap	-6507
▁courses	-6508
▁serving	-6509
▁informed	-6510
▁Good	-6511
onents	-6512
aes	-6513
ama	-6514
▁pul	-6515
▁destination	-6516
▁Inc	-6517
▁army	-6518
▁defic	-6519
▁disclosed	-6520
▁Prot	-6521
▁neck	-6522
td	-6523
itis	-6524
▁eth	-6525
▁explo	-6526
▁quiet	-6527
▁waves	-6528
ilateral	-6529
▁pastor	-6530
▁completion	-6531
▁pig	-6532
▁Italy	-6533
▁smoke	-6534
▁imports	-6535
▁sources	-6536
▁kill	-6537
mentia	-6538
▁exactly	-6539
▁removed	-6540
▁requirements	-6541
▁Once	-6542
▁2016.	-6543
▁satisfaction	-6544
▁37	-6545
▁sen	-6546
▁surprised	-6547
▁reward	-6548
▁textbook	-6549
▁peninsula	-6550
▁sensitive	-6551
word	-6552
ocked	-6553
orient	-6554
etition	-6555
▁luxury	-6556
▁awareness	-6557
unar	-6558
▁Joseon	-6559
▁friendly	-6560
▁cooperative	-6561
haust	-6562
▁Foot	-6563
▁Test	-6564
asc	-6565
▁Cal	-6566
▁hung	-6567
▁note	-6568
▁Local	-6569
▁Those	-6570
ighters	-6571
▁century	-6572
▁perspective	-6573
▁Entertainment	-6574
ES	-6575
▁Jak	-6576
aving	-6577
uties	-6578
▁boss	-6579
▁guilty	-6580
▁weapon	-6581
▁limitations	-6582
▁noise	-6583
▁seriously	-6584
▁affiliates	-6585
iger	-6586
▁phase	-6587
▁championship	-6588
Un	-6589
▁appli	-6590
▁widely	-6591
▁shipment	-6592
▁teenagers	-6593
▁Tra	-6594
▁beach	-6595
ormally	-6596
oriented	-6597
▁Chae	-6598
▁Paris	-6599
▁Brexit	-6600
▁begins	-6601
point	-6602
▁Hana	-6603
▁kids	-6604
▁Forum	-6605
▁owned	-6606
▁daycare	-6607
put	-6608
▁killing	-6609
guk	-6610
▁Big	-6611
▁bread	-6612
▁thick	-6613
▁subscribers	-6614
▁thus	-6615
▁invited	-6616
▁composed	-6617
▁dismissed	-6618
▁indicators	-6619
▁engineering	-6620
▁Here	-6621
▁booked	-6622
▁supplies	-6623
▁swimming	-6624
enn	-6625
water	-6626
▁cake	-6627
▁feas	-6628
▁solo	-6629
▁charm	-6630
▁ships	-6631
▁glad	-6632
▁inn	-6633
▁spicy	-6634
▁temperatures	-6635
Chairman	-6636
▁Cooperation	-6637
aser	-6638
ference	-6639
▁institutional	-6640
arta	-6641
▁sincere	-6642
▁chemical	-6643
▁fighting	-6644
▁obtained	-6645
▁legislation	-6646
▁Play	-6647
▁permanent	-6648
▁Prosecutor	-6649
▁exting	-6650
▁gathering	-6651
▁die	-6652
▁impe	-6653
▁Force	-6654
▁rural	-6655
▁arrang	-6656
▁hate	-6657
▁reun	-6658
▁casual	-6659
▁extingu	-6660
▁Presidential	-6661
▁inquir	-6662
▁portion	-6663
▁Starting	-6664
▁Judge	-6665
istries	-6666
ara	-6667
▁FSS	-6668
▁inning	-6669
▁sust	-6670
▁compete	-6671
▁joining	-6672
President	-6673
▁accurate	-6674
▁kilometers	-6675
lin	-6676
▁keeping	-6677
▁imprison	-6678
▁steadily	-6679
▁easing	-6680
▁Investigation	-6681
rown	-6682
▁bridge	-6683
▁exhaust	-6684
IT	-6685
▁anger	-6686
▁persu	-6687
▁philos	-6688
suk	-6689
▁plenary	-6690
▁managing	-6691
▁Yeo	-6692
▁percentage	-6693
▁Fl	-6694
▁Spain	-6695
▁draft	-6696
▁faced	-6697
▁Exchange	-6698
60	-6699
eds	-6700
gil	-6701
style	-6702
▁Next	-6703
▁lease	-6704
▁citizen	-6705
▁Jeonbuk	-6706
wing	-6707
aming	-6708
▁closing	-6709
▁tension	-6710
▁provinces	-6711
▁enforcement	-6712
▁Cel	-6713
▁Coast	-6714
▁Rural	-6715
▁receipt	-6716
▁reconst	-6717
▁resulting	-6718
IN	-6719
▁flu	-6720
▁Polit	-6721
▁ranking	-6722
▁struggling	-6723
umi	-6724
▁fab	-6725
▁fro	-6726
▁Square	-6727
▁supplied	-6728
▁adjustment	-6729
▁39	-6730
▁climb	-6731
▁truck	-6732
▁scores	-6733
▁dismant	-6734
▁impress	-6735
▁channels	-6736
▁claiming	-6737
jom	-6738
hyuk	-6739
ider	-6740
▁ministries	-6741
▁restructuring	-6742
athy	-6743
▁Music	-6744
▁Author	-6745
▁England	-6746
▁sitting	-6747
▁frequent	-6748
generation	-6749
▁inauguration	-6750
He	-6751
▁Ja	-6752
▁revenue	-6753
▁Jakarta	-6754
▁Following	-6755
▁Aud	-6756
licop	-6757
▁mobil	-6758
▁strik	-6759
▁Revolution	-6760
itage	-6761
▁2017.	-6762
▁fault	-6763
▁timing	-6764
▁absolute	-6765
▁breaking	-6766
▁disputes	-6767
▁presence	-6768
▁Vietnamese	-6769
ona	-6770
▁Mo	-6771
▁Mac	-6772
▁Maritime	-6773
▁gif	-6774
▁helicop	-6775
▁shortly	-6776
▁advice	-6777
▁critical	-6778
▁stom	-6779
ortion	-6780
▁agent	-6781
▁Ham	-6782
ashed	-6783
▁Panmunjom	-6784
▁mandatory	-6785
▁subscription	-6786
▁curious	-6787
▁Songpa	-6788
▁Football	-6789
eting	-6790
field	-6791
▁feat	-6792
▁hack	-6793
▁Bible	-6794
▁Future	-6795
▁highlight	-6796
▁thoroughly	-6797
▁colle	-6798
▁closer	-6799
▁earned	-6800
▁rumors	-6801
AS	-6802
▁Leg	-6803
▁Map	-6804
▁pool	-6805
▁dreams	-6806
▁circles	-6807
▁pleasant	-6808
osu	-6809
uate	-6810
▁boat	-6811
▁usage	-6812
▁equity	-6813
▁churches	-6814
▁maintaining	-6815
▁Drug	-6816
reprene	-6817
▁safely	-6818
▁absence	-6819
▁engaged	-6820
▁violations	-6821
uro	-6822
▁Crit	-6823
▁ferry	-6824
wr	-6825
grade	-6826
▁guests	-6827
▁Commerce	-6828
1.	-6829
eup	-6830
hun	-6831
▁Hon	-6832
▁inher	-6833
▁stomach	-6834
▁demanding	-6835
▁solutions	-6836
oor	-6837
agues	-6838
state	-6839
▁Woori	-6840
▁identify	-6841
whel	-6842
▁600	-6843
Since	-6844
▁wood	-6845
▁Sim	-6846
illa	-6847
▁Ltd	-6848
▁colon	-6849
▁pilot	-6850
▁Chan	-6851
▁radio	-6852
▁studio	-6853
▁fundamental	-6854
▁FC	-6855
rete	-6856
▁sauce	-6857
▁Daewoo	-6858
▁fiscal	-6859
▁Headquarters	-6860
beom	-6861
isure	-6862
▁Given	-6863
ulations	-6864
▁Democracy	-6865
▁livestock	-6866
gon	-6867
▁Ren	-6868
▁pace	-6869
▁marine	-6870
▁teaching	-6871
▁emotional	-6872
▁pollution	-6873
▁perception	-6874
▁nur	-6875
▁Insp	-6876
▁aims	-6877
oseong	-6878
▁apology	-6879
▁strategies	-6880
plus	-6881
▁Custom	-6882
hai	-6883
hyeon	-6884
▁fires	-6885
▁Leader	-6886
▁overwhel	-6887
▁stronger	-6888
▁judiciary	-6889
night	-6890
ruking	-6891
▁2014,	-6892
Although	-6893
▁precious	-6894
▁somewhat	-6895
▁Os	-6896
▁BMW	-6897
duces	-6898
▁anticip	-6899
▁discovered	-6900
tery	-6901
▁vital	-6902
▁continuous	-6903
▁obst	-6904
▁Actress	-6905
▁happens	-6906
▁answered	-6907
appy	-6908
▁grant	-6909
amin	-6910
case	-6911
▁stars	-6912
▁attrib	-6913
▁larger	-6914
▁stayed	-6915
▁hitting	-6916
opol	-6917
▁Hanjin	-6918
80	-6919
emption	-6920
▁expressing	-6921
usi	-6922
▁evac	-6923
▁fulf	-6924
▁wine	-6925
ounder	-6926
▁Major	-6927
▁apologize	-6928
lude	-6929
▁Vol	-6930
agram	-6931
▁Hang	-6932
▁Like	-6933
▁impose	-6934
▁Housing	-6935
▁dedicated	-6936
▁enth	-6937
▁tank	-6938
▁sac	-6939
▁desper	-6940
▁matters	-6941
▁noodles	-6942
▁startups	-6943
▁detention	-6944
▁expectation	-6945
▁sleeping	-6946
▁rid	-6947
▁signal	-6948
My	-6949
flow	-6950
uous	-6951
▁elig	-6952
ailand	-6953
inking	-6954
ultane	-6955
▁spark	-6956
▁Consum	-6957
▁autumn	-6958
▁Official	-6959
▁requests	-6960
▁warned	-6961
echeon	-6962
▁restrictions	-6963
udd	-6964
urb	-6965
sius	-6966
▁abn	-6967
▁piece	-6968
▁spaces	-6969
▁unions	-6970
▁Buk	-6971
▁row	-6972
▁proud	-6973
▁pieces	-6974
jud	-6975
▁IP	-6976
▁Gong	-6977
▁iron	-6978
▁advis	-6979
▁river	-6980
▁teach	-6981
wo	-6982
gue	-6983
▁crew	-6984
▁winds	-6985
▁wound	-6986
▁permission	-6987
imp	-6988
▁motor	-6989
▁dementia	-6990
▁residence	-6991
▁moves	-6992
TA	-6993
amun	-6994
enty	-6995
▁Tom	-6996
▁iPh	-6997
rated	-6998
▁partial	-6999
▁Confederation	-7000
deok	-7001
▁Second	-7002
▁stages	-7003
▁expense	-7004
rok	-7005
host	-7006
▁Each	-7007
▁turns	-7008
▁broadc	-7009
▁Regional	-7010
▁Championship	-7011
rael	-7012
▁bodies	-7013
▁emotions	-7014
▁managers	-7015
▁recession	-7016
▁diverse	-7017
asty	-7018
glomer	-7019
▁Broad	-7020
▁veter	-7021
▁Olympic	-7022
▁formation	-7023
▁SBS	-7024
▁Sweden	-7025
▁wealth	-7026
▁basketball	-7027
▁Wan	-7028
▁defeat	-7029
▁donated	-7030
▁consists	-7031
▁underground	-7032
PG	-7033
ti	-7034
acle	-7035
▁Thailand	-7036
▁software	-7037
▁constantly	-7038
▁4,	-7039
▁conglomer	-7040
▁separated	-7041
▁arm	-7042
▁Base	-7043
▁vacc	-7044
▁duties	-7045
▁Instead	-7046
▁cigaret	-7047
▁confusion	-7048
▁cancellation	-7049
▁ate	-7050
iosity	-7051
▁aggress	-7052
▁dischar	-7053
▁Lawmaker	-7054
▁Black	-7055
▁foster	-7056
unt	-7057
▁2000	-7058
▁exit	-7059
▁booth	-7060
habilit	-7061
▁indict	-7062
▁Celsius	-7063
▁academy	-7064
▁enthusi	-7065
▁trials	-7066
▁Gyeongju	-7067
▁argument	-7068
▁feasibility	-7069
▁subcontract	-7070
▁considerable	-7071
▁semiconductors	-7072
-3	-7073
▁knows	-7074
▁stone	-7075
▁opposite	-7076
▁Southeast	-7077
▁ordinance	-7078
▁idol	-7079
▁analyze	-7080
oman	-7081
uries	-7082
▁Myeong	-7083
▁deficit	-7084
▁bathroom	-7085
▁ministers	-7086
▁(7	-7087
▁netiz	-7088
▁finger	-7089
▁nervous	-7090
▁analyzing	-7091
inal	-7092
▁hik	-7093
▁recall	-7094
ores	-7095
▁Any	-7096
▁pal	-7097
▁option	-7098
▁reviewing	-7099
▁Film	-7100
▁Nong	-7101
▁Paju	-7102
▁mort	-7103
▁enact	-7104
▁enjoying	-7105
▁Candid	-7106
▁length	-7107
▁cutting	-7108
▁samples	-7109
▁breakfast	-7110
bery	-7111
▁intense	-7112
▁struggle	-7113
▁violated	-7114
▁env	-7115
amber	-7116
force	-7117
tenham	-7118
▁falls	-7119
▁settled	-7120
▁simultane	-7121
.5%	-7122
▁cred	-7123
▁Three	-7124
▁10%	-7125
▁mine	-7126
▁Article	-7127
▁deceased	-7128
▁philosop	-7129
▁surprise	-7130
iant	-7131
▁reject	-7132
▁virtually	-7133
▁accompanied	-7134
▁Town	-7135
making	-7136
▁manufacturers	-7137
▁magn	-7138
▁aired	-7139
▁innoc	-7140
▁hearts	-7141
▁offers	-7142
▁helpful	-7143
▁Conference	-7144
assy	-7145
▁FTC	-7146
ocated	-7147
▁revise	-7148
▁letters	-7149
▁anc	-7150
month	-7151
▁Rail	-7152
▁priv	-7153
▁clubs	-7154
▁analysts	-7155
fledged	-7156
▁Israel	-7157
▁extend	-7158
▁charging	-7159
▁preventing	-7160
▁supporters	-7161
▁complicated	-7162
▁disabilities	-7163
uters	-7164
▁ju	-7165
▁Ter	-7166
stood	-7167
▁Prem	-7168
▁math	-7169
▁therap	-7170
▁handling	-7171
bong	-7172
hwamun	-7173
▁cycle	-7174
▁explains	-7175
▁curiosity	-7176
▁CJ	-7177
▁CSAT	-7178
▁Federal	-7179
▁Jinping	-7180
▁clothing	-7181
▁employed	-7182
▁factories	-7183
▁48	-7184
lock	-7185
▁bear	-7186
matics	-7187
▁carbon	-7188
▁satisfied	-7189
▁GM	-7190
ometown	-7191
▁climate	-7192
▁neighbors	-7193
▁refe	-7194
▁noted	-7195
▁kitchen	-7196
▁guidance	-7197
▁democracy	-7198
▁neighborhood	-7199
sa	-7200
▁hole	-7201
▁chances	-7202
▁concrete	-7203
▁operator	-7204
▁grandmother	-7205
bak	-7206
▁ine	-7207
▁savings	-7208
ufficient	-7209
xy	-7210
oto	-7211
▁AS	-7212
ern	-7213
coin	-7214
▁fol	-7215
▁mir	-7216
▁assoc	-7217
▁smoking	-7218
▁vegetables	-7219
awn	-7220
▁La	-7221
▁tall	-7222
▁incent	-7223
▁contributed	-7224
▁politicians	-7225
▁ge	-7226
▁cargo	-7227
▁nursing	-7228
▁misunder	-7229
jang	-7230
▁intern	-7231
DP	-7232
▁bot	-7233
▁collective	-7234
▁countermeasures	-7235
▁fle	-7236
▁cute	-7237
▁indicted	-7238
▁reviewed	-7239
▁dies	-7240
▁fold	-7241
esides	-7242
▁sustain	-7243
▁bicy	-7244
▁poss	-7245
▁Audit	-7246
▁Particip	-7247
gyu	-7248
▁Ship	-7249
▁fort	-7250
made	-7251
ether	-7252
▁virtual	-7253
▁merchants	-7254
▁presc	-7255
▁43	-7256
▁shel	-7257
▁tough	-7258
▁Awards	-7259
▁architect	-7260
▁subsidies	-7261
habilitation	-7262
▁42	-7263
sequ	-7264
▁Shang	-7265
▁pursue	-7266
▁heating	-7267
▁seniors	-7268
chun	-7269
gage	-7270
▁east	-7271
▁holds	-7272
▁testim	-7273
▁banking	-7274
▁finishing	-7275
▁Esp	-7276
▁phr	-7277
▁arrange	-7278
▁grounds	-7279
▁Chungbuk	-7280
▁reflects	-7281
▁insufficient	-7282
itz	-7283
istan	-7284
▁consent	-7285
▁reserve	-7286
▁contained	-7287
▁diagnosed	-7288
ondon	-7289
arrass	-7290
ription	-7291
▁attempted	-7292
▁practices	-7293
▁secondary	-7294
▁Gwanghwamun	-7295
▁impeachment	-7296
iano	-7297
▁197	-7298
▁Job	-7299
▁Paul	-7300
▁formal	-7301
▁heatw	-7302
▁honest	-7303
▁routes	-7304
pool	-7305
▁unlikely	-7306
.'	-7307
▁assum	-7308
▁faces	-7309
▁finals	-7310
▁scenes	-7311
▁ratings	-7312
▁stepped	-7313
▁annually	-7314
▁Open	-7315
▁cand	-7316
▁repay	-7317
▁Reform	-7318
▁landsc	-7319
▁resume	-7320
▁lawyers	-7321
▁preserv	-7322
▁prolong	-7323
▁demonstration	-7324
▁Mc	-7325
inar	-7326
rian	-7327
▁Yon	-7328
tered	-7329
▁recon	-7330
▁smoothly	-7331
▁generations	-7332
▁speculation	-7333
▁intellectual	-7334
▁Bund	-7335
▁fare	-7336
ranking	-7337
▁pending	-7338
▁definite	-7339
▁Instagram	-7340
▁institutes	-7341
born	-7342
▁Above	-7343
▁absor	-7344
▁hired	-7345
▁execution	-7346
▁unemployment	-7347
▁compar	-7348
▁headed	-7349
▁solving	-7350
▁estimate	-7351
▁55	-7352
▁Show	-7353
▁stir	-7354
▁prefe	-7355
▁principal	-7356
▁confrontation	-7357
ga	-7358
otic	-7359
clock	-7360
▁mechan	-7361
▁prohib	-7362
▁workplace	-7363
▁Club	-7364
▁Other	-7365
▁crackdown	-7366
▁effectively	-7367
ius	-7368
osh	-7369
olic	-7370
▁Africa	-7371
▁belief	-7372
▁incumb	-7373
▁leaked	-7374
ecess	-7375
▁Yeah	-7376
▁hire	-7377
▁Dream	-7378
▁films	-7379
▁London	-7380
▁adopted	-7381
▁founded	-7382
▁tonight	-7383
▁embarrass	-7384
ils	-7385
▁hometown	-7386
▁sets	-7387
▁cheer	-7388
▁singing	-7389
▁pad	-7390
▁hits	-7391
▁Mokpo	-7392
▁frust	-7393
▁button	-7394
▁departure	-7395
▁Mu	-7396
▁Both	-7397
▁mathe	-7398
▁slump	-7399
▁harmful	-7400
▁Kindergart	-7401
bing	-7402
▁Bol	-7403
▁Angel	-7404
fl	-7405
abuk	-7406
▁spr	-7407
viously	-7408
▁Person	-7409
▁summon	-7410
▁accommodation	-7411
.“	-7412
erous	-7413
▁decor	-7414
yl	-7415
▁prove	-7416
▁circle	-7417
▁divers	-7418
▁speaking	-7419
▁worsening	-7420
▁Its	-7421
▁valu	-7422
acheon	-7423
▁Daily	-7424
▁Lunar	-7425
▁forgot	-7426
▁Sorry	-7427
▁waters	-7428
ady	-7429
-201	-7430
▁amaz	-7431
icipal	-7432
▁retal	-7433
▁shout	-7434
▁alliance	-7435
▁proportional	-7436
▁incor	-7437
▁smaller	-7438
▁millions	-7439
▁childcare	-7440
▁succession	-7441
▁constitutional	-7442
▁41	-7443
xual	-7444
ifier	-7445
▁examine	-7446
▁selecting	-7447
▁hasn	-7448
▁iPhone	-7449
▁temporarily	-7450
irds	-7451
▁west	-7452
▁incumbent	-7453
▁affiliated	-7454
▁wal	-7455
▁knowing	-7456
▁achievements	-7457
▁ped	-7458
▁Turkey	-7459
▁worship	-7460
▁donations	-7461
▁producing	-7462
▁collecting	-7463
▁shipbuilding	-7464
▁Bas	-7465
antial	-7466
▁Elementary	-7467
▁classified	-7468
▁pharmaceutical	-7469
hak	-7470
het	-7471
lar	-7472
mal	-7473
enery	-7474
lihood	-7475
ponding	-7476
▁Reuters	-7477
▁collaboration	-7478
arsh	-7479
▁2012	-7480
▁Lord	-7481
▁illness	-7482
▁od	-7483
▁Girls	-7484
▁sixth	-7485
▁comprom	-7486
▁Agreement	-7487
▁logistics	-7488
▁Students	-7489
▁excluding	-7490
bi	-7491
zen	-7492
comp	-7493
▁ends	-7494
TE	-7495
upp	-7496
▁2008	-7497
▁Deok	-7498
▁Sure	-7499
▁fever	-7500
▁visual	-7501
▁refugee	-7502
▁supervision	-7503
▁reconstruction	-7504
▁Nuclear	-7505
▁indirect	-7506
▁purposes	-7507
▁contacted	-7508
IA	-7509
oir	-7510
ria	-7511
▁Burning	-7512
▁reviews	-7513
▁streets	-7514
.7%	-7515
eing	-7516
▁Dav	-7517
antic	-7518
▁desk	-7519
▁boast	-7520
▁magaz	-7521
▁micro	-7522
▁inject	-7523
▁stream	-7524
▁attendance	-7525
▁inevitably	-7526
ya	-7527
kyun	-7528
usan	-7529
▁leisure	-7530
shin	-7531
▁50%	-7532
▁voc	-7533
▁Water	-7534
iration	-7535
race	-7536
▁Bent	-7537
▁spect	-7538
▁outlook	-7539
▁entreprene	-7540
lam	-7541
▁pros	-7542
▁awards	-7543
▁wouldn	-7544
▁separation	-7545
▁nom	-7546
▁beef	-7547
▁comed	-7548
▁scoring	-7549
▁Heo	-7550
aesong	-7551
▁saved	-7552
▁thousands	-7553
▁discussing	-7554
AR	-7555
▁Cre	-7556
▁kim	-7557
▁Mapo	-7558
▁Wang	-7559
▁tied	-7560
▁2015.	-7561
▁jumped	-7562
▁Especially	-7563
▁perp	-7564
▁react	-7565
▁Gunsan	-7566
▁Tottenham	-7567
ipp	-7568
bezz	-7569
▁20%	-7570
▁Talk	-7571
▁raises	-7572
cm	-7573
▁seiz	-7574
.9%	-7575
ymn	-7576
▁5,	-7577
▁CN	-7578
▁arms	-7579
ulates	-7580
▁exempt	-7581
▁survival	-7582
IP	-7583
ourage	-7584
▁Tower	-7585
▁liked	-7586
▁exchanged	-7587
▁designation	-7588
▁voluntarily	-7589
▁Communications	-7590
..	-7591
▁farms	-7592
▁Should	-7593
▁titled	-7594
▁interven	-7595
▁manpower	-7596
▁resistance	-7597
hyung	-7598
ynasty	-7599
▁civilian	-7600
▁celebrate	-7601
.3%	-7602
▁El	-7603
page	-7604
▁licens	-7605
▁Capital	-7606
▁cheaper	-7607
▁manual	-7608
▁Community	-7609
real	-7610
▁Rather	-7611
▁excited	-7612
▁declined	-7613
▁guaranteed	-7614
ext	-7615
▁Ap	-7616
▁"2018	-7617
▁embezz	-7618
▁western	-7619
▁revitalize	-7620
▁KO	-7621
seon	-7622
▁Cheol	-7623
▁rough	-7624
▁listing	-7625
▁everyday	-7626
▁immediate	-7627
▁thr	-7628
▁fabric	-7629
▁marked	-7630
▁terror	-7631
▁movements	-7632
bage	-7633
▁Mart	-7634
▁mutual	-7635
▁disclose	-7636
MA	-7637
▁Kw	-7638
▁server	-7639
▁Communication	-7640
aka	-7641
▁garden	-7642
▁normally	-7643
▁75	-7644
▁UK	-7645
▁guys	-7646
father	-7647
▁Coach	-7648
rential	-7649
▁shipped	-7650
▁membership	-7651
▁interviews	-7652
▁picked	-7653
▁slowly	-7654
▁balanced	-7655
▁graduation	-7656
▁composition	-7657
▁trop	-7658
▁Great	-7659
▁maxim	-7660
fall	-7661
▁refr	-7662
▁Kumho	-7663
▁arbit	-7664
▁posts	-7665
▁swing	-7666
▁makeup	-7667
▁arranged	-7668
▁clinical	-7669
▁livelihood	-7670
▁doctors	-7671
▁acquired	-7672
prof	-7673
▁tun	-7674
ancer	-7675
▁intent	-7676
ano	-7677
een	-7678
▁Ed	-7679
▁alt	-7680
▁argue	-7681
▁advertisement	-7682
▁44	-7683
▁hero	-7684
ulative	-7685
▁Malays	-7686
▁Network	-7687
▁injuries	-7688
pri	-7689
▁Ma	-7690
▁lie	-7691
▁Gumi	-7692
▁2013,	-7693
▁Yeosu	-7694
▁philosophy	-7695
▁sufficient	-7696
▁threatened	-7697
aked	-7698
ivals	-7699
▁awarded	-7700
rid	-7701
yun	-7702
▁Ik	-7703
while	-7704
▁bags	-7705
▁Right	-7706
▁Gimhae	-7707
▁reaching	-7708
OE	-7709
ana	-7710
rae	-7711
ogether	-7712
▁unknown	-7713
▁Candidate	-7714
▁supplement	-7715
.2%	-7716
▁Amb	-7717
▁Game	-7718
▁furn	-7719
▁legs	-7720
▁Asset	-7721
▁bullet	-7722
▁funding	-7723
15	-7724
▁30%	-7725
▁brib	-7726
▁doubt	-7727
▁psychological	-7728
▁aren	-7729
▁sacr	-7730
▁cable	-7731
▁drinks	-7732
▁settle	-7733
▁Seungri	-7734
▁coordin	-7735
▁primary	-7736
▁welcome	-7737
▁Suncheon	-7738
▁punished	-7739
▁rus	-7740
▁summ	-7741
▁sight	-7742
▁wheel	-7743
▁offline	-7744
▁decisions	-7745
▁exemption	-7746
rim	-7747
▁Dok	-7748
▁mun	-7749
▁boom	-7750
▁girls	-7751
▁harder	-7752
▁seconds	-7753
▁anywhere	-7754
▁corresponding	-7755
▁Book	-7756
▁Well	-7757
▁Arabia	-7758
▁scholarship	-7759
▁gifts	-7760
▁monopol	-7761
▁automobile	-7762
.6%	-7763
▁Care	-7764
▁observed	-7765
▁launching	-7766
▁impression	-7767
loor	-7768
▁fru	-7769
▁lugg	-7770
▁sounds	-7771
▁extremely	-7772
▁processed	-7773
▁profitability	-7774
grat	-7775
▁bomb	-7776
▁pour	-7777
▁Kindergarten	-7778
▁196	-7779
▁Cabinet	-7780
▁Cheonan	-7781
▁mistakes	-7782
▁investigative	-7783
ps	-7784
▁Prize	-7785
▁panel	-7786
atching	-7787
▁opposing	-7788
▁Noh	-7789
▁Earth	-7790
▁Somet	-7791
▁equal	-7792
▁Pacific	-7793
week	-7794
▁hes	-7795
abled	-7796
▁hurry	-7797
▁Winter	-7798
▁liquid	-7799
▁advised	-7800
▁attacks	-7801
▁congrat	-7802
▁abandoned	-7803
.4%	-7804
.8%	-7805
box	-7806
▁Out	-7807
▁Hist	-7808
priced	-7809
▁Nexen	-7810
▁Press	-7811
▁logic	-7812
▁prompt	-7813
▁cameras	-7814
▁complained	-7815
▁Us	-7816
▁tu	-7817
▁pou	-7818
arious	-7819
▁targets	-7820
orted	-7821
minute	-7822
▁straw	-7823
▁instru	-7824
▁servants	-7825
▁villages	-7826
▁targeting	-7827
▁inspections	-7828
enz	-7829
dens	-7830
▁relation	-7831
▁investing	-7832
▁prolonged	-7833
osc	-7834
▁49	-7835
inct	-7836
▁ble	-7837
▁flat	-7838
▁fluct	-7839
▁Looking	-7840
▁blocking	-7841
▁progressive	-7842
kg	-7843
▁Exc	-7844
▁Sky	-7845
▁2018,	-7846
▁existence	-7847
cert	-7848
▁kimchi	-7849
▁margin	-7850
▁defendant	-7851
▁impressive	-7852
▁reorganization	-7853
▁Yongin	-7854
▁passes	-7855
▁luggage	-7856
izza	-7857
▁quot	-7858
▁Argent	-7859
▁seizure	-7860
▁vessels	-7861
)."	-7862
▁Bit	-7863
▁postpon	-7864
▁Authority	-7865
▁involvement	-7866
Lee	-7867
eding	-7868
▁Ansan	-7869
▁banned	-7870
ifically	-7871
▁posting	-7872
ciliation	-7873
▁heatwave	-7874
▁pregnant	-7875
▁startup	-7876
▁passport	-7877
▁purchases	-7878
▁profession	-7879
▁reflecting	-7880
▁achievement	-7881
▁vir	-7882
▁Emer	-7883
▁Bloom	-7884
▁Bureau	-7885
▁junior	-7886
yeo	-7887
▁Ga	-7888
▁blank	-7889
▁Byeong	-7890
▁Everyone	-7891
▁Shanghai	-7892
▁transition	-7893
ema	-7894
food	-7895
▁keeps	-7896
▁contrary	-7897
▁investor	-7898
▁Jeollabuk	-7899
▁photograph	-7900
▁2009	-7901
▁divor	-7902
▁cultiv	-7903
▁detect	-7904
▁ending	-7905
▁lights	-7906
▁passage	-7907
▁minimize	-7908
yoon	-7909
icing	-7910
▁Pres	-7911
▁dorm	-7912
terest	-7913
▁KOSPI	-7914
▁Druking	-7915
▁heading	-7916
▁publish	-7917
▁abolition	-7918
▁conscious	-7919
▁casualties	-7920
▁correction	-7921
25	-7922
bur	-7923
▁rot	-7924
aired	-7925
▁likes	-7926
election	-7927
▁chronic	-7928
▁couples	-7929
▁unclear	-7930
▁experiment	-7931
▁instruction	-7932
▁Transportation	-7933
.1%	-7934
▁Ty	-7935
▁pure	-7936
▁sugar	-7937
▁replied	-7938
▁returns	-7939
▁regarded	-7940
▁restoration	-7941
▁Agricultural	-7942
▁Representatives	-7943
▁Li	-7944
▁stip	-7945
▁papers	-7946
▁dealing	-7947
▁Bel	-7948
▁bon	-7949
ospel	-7950
▁chain	-7951
▁marks	-7952
▁indoor	-7953
▁reaction	-7954
▁superior	-7955
enez	-7956
▁writ	-7957
▁KOSDA	-7958
▁afford	-7959
▁generally	-7960
seop	-7961
▁Tem	-7962
▁5,000	-7963
▁tastes	-7964
▁footage	-7965
▁abnormal	-7966
▁dismissal	-7967
▁promising	-7968
)"	-7969
gic	-7970
▁120	-7971
eters	-7972
▁bench	-7973
▁captured	-7974
▁loo	-7975
▁Design	-7976
▁operates	-7977
▁imprisonment	-7978
▁characterized	-7979
odes	-7980
▁burned	-7981
▁generated	-7982
▁Expressway	-7983
lad	-7984
▁2,000	-7985
▁Valley	-7986
▁assistant	-7987
▁personally	-7988
▁46	-7989
▁fried	-7990
▁plate	-7991
▁Environmental	-7992
▁rehabilitation	-7993
▁excav	-7994
▁patrol	-7995
▁sevent	-7996
▁follows	-7997
NG	-7998
100	-7999
asan	-8000
there	-8001
▁Joong	-8002
▁monitor	-8003
▁telling	-8004
▁commander	-8005
ingu	-8006
moon	-8007
▁Huh	-8008
irable	-8009
▁pledge	-8010
▁classroom	-8011
▁dele	-8012
▁moon	-8013
▁Plaza	-8014
▁largely	-8015
▁responses	-8016
▁superintendent	-8017
▁remov	-8018
▁visible	-8019
▁premiums	-8020
AD	-8021
yal	-8022
▁root	-8023
▁surge	-8024
▁concentrate	-8025
▁Seon	-8026
▁Class	-8027
▁driven	-8028
▁intended	-8029
▁voluntary	-8030
▁Chul	-8031
▁dump	-8032
▁chart	-8033
▁invent	-8034
▁stands	-8035
▁intervention	-8036
▁emp	-8037
▁defeated	-8038
▁shoulder	-8039
▁weakness	-8040
▁connecting	-8041
que	-8042
uly	-8043
ighth	-8044
undae	-8045
▁poet	-8046
ateful	-8047
▁disag	-8048
▁intensive	-8049
▁attractive	-8050
gently	-8051
▁Bento	-8052
▁boxes	-8053
▁zones	-8054
▁Critics	-8055
▁founder	-8056
▁electoral	-8057
▁Imp	-8058
management	-8059
▁displayed	-8060
iler	-8061
▁fed	-8062
▁goalk	-8063
chairman	-8064
inations	-8065
▁Chuncheon	-8066
▁missionary	-8067
Even	-8068
▁dawn	-8069
▁mask	-8070
▁rises	-8071
▁Britain	-8072
▁scenery	-8073
▁bringing	-8074
▁efficient	-8075
rad	-8076
alian	-8077
uster	-8078
elling	-8079
▁Schol	-8080
▁Venez	-8081
▁Indian	-8082
▁chocol	-8083
▁sought	-8084
▁winners	-8085
▁paintings	-8086
▁(8	-8087
gram	-8088
▁Wall	-8089
▁exams	-8090
▁checks	-8091
▁deaths	-8092
stitution	-8093
▁Memorial	-8094
▁decreasing	-8095
19	-8096
▁100%	-8097
▁fruits	-8098
▁nights	-8099
▁bribery	-8100
▁Southern	-8101
▁laughter	-8102
▁accounted	-8103
▁destruction	-8104
life	-8105
▁elev	-8106
▁stuff	-8107
▁Forces	-8108
▁burdens	-8109
▁depends	-8110
▁delegation	-8111
▁interpretation	-8112
▁mig	-8113
▁Credit	-8114
▁amazing	-8115
▁creates	-8116
▁Champions	-8117
▁utilizing	-8118
pay	-8119
▁700	-8120
▁threw	-8121
▁dramas	-8122
▁steady	-8123
▁washing	-8124
▁deliberation	-8125
OK	-8126
ien	-8127
exist	-8128
▁tact	-8129
▁urgently	-8130
▁Convention	-8131
▁Isn	-8132
orders	-8133
▁Micro	-8134
▁appliances	-8135
With	-8136
shop	-8137
perity	-8138
▁20,000	-8139
▁Bal	-8140
▁thin	-8141
▁hopes	-8142
▁resort	-8143
▁daytime	-8144
▁experiencing	-8145
LED	-8146
▁fav	-8147
▁Tong	-8148
▁sear	-8149
▁failing	-8150
▁Venezuel	-8151
▁governance	-8152
sm	-8153
pone	-8154
▁grows	-8155
▁amounts	-8156
▁therapy	-8157
astically	-8158
▁assigned	-8159
appropriate	-8160
▁Gap	-8161
▁fly	-8162
▁lifted	-8163
▁Goseong	-8164
▁congress	-8165
▁overwhelming	-8166
200	-8167
▁Chi	-8168
iative	-8169
▁3,000	-8170
▁buyers	-8171
▁seminar	-8172
segae	-8173
ximately	-8174
▁producer	-8175
▁immigration	-8176
▁wra	-8177
ician	-8178
▁Kwak	-8179
▁semi	-8180
▁ware	-8181
ensions	-8182
itively	-8183
▁Inspection	-8184
▁relocation	-8185
▁Chungcheongnam	-8186
da	-8187
ica	-8188
▁51	-8189
▁Ur	-8190
turn	-8191
▁rescued	-8192
▁contrast	-8193
▁underway	-8194
▁lyr	-8195
▁nav	-8196
▁Aren	-8197
▁Oper	-8198
▁eligible	-8199
▁celebrities	-8200
▁particularly	-8201
▁options	-8202
▁Ambassador	-8203
acket	-8204
rical	-8205
▁pill	-8206
▁Branch	-8207
▁Premier	-8208
▁Training	-8209
▁indictment	-8210
▁Competition	-8211
▁Ann	-8212
▁discip	-8213
▁reverse	-8214
▁species	-8215
▁utilize	-8216
▁notified	-8217
▁realistic	-8218
agon	-8219
▁KBO	-8220
▁rang	-8221
utures	-8222
▁harmony	-8223
▁netizens	-8224
▁weekends	-8225
▁searching	-8226
pop	-8227
sei	-8228
odel	-8229
▁Cent	-8230
▁confessed	-8231
▁Ban	-8232
▁defect	-8233
▁Dynasty	-8234
▁numerous	-8235
rect	-8236
▁Sok	-8237
▁Suk	-8238
▁overtime	-8239
government	-8240
▁translation	-8241
▁800	-8242
▁hat	-8243
▁shift	-8244
▁authen	-8245
▁useful	-8246
▁restore	-8247
▁shouldn	-8248
▁violent	-8249
▁protested	-8250
▁expressions	-8251
▁Budd	-8252
myeong	-8253
▁Media	-8254
▁fired	-8255
▁inland	-8256
▁instant	-8257
▁postpone	-8258
▁performing	-8259
war	-8260
▁Ron	-8261
▁nor	-8262
▁flights	-8263
▁mothers	-8264
▁Bloomberg	-8265
▁Political	-8266
▁relatives	-8267
▁3-	-8268
▁Gen	-8269
adays	-8270
▁shif	-8271
▁Control	-8272
rome	-8273
anish	-8274
▁50,000	-8275
▁200,000	-8276
▁colorful	-8277
▁terminal	-8278
hyup	-8279
▁trig	-8280
▁abortion	-8281
▁Shinsegae	-8282
▁allowance	-8283
development	-8284
▁meets	-8285
iations	-8286
▁Ke	-8287
▁fines	-8288
▁merger	-8289
Japanese	-8290
▁airline	-8291
▁expertise	-8292
▁finalized	-8293
▁landscape	-8294
▁sup	-8295
range	-8296
▁cuts	-8297
▁quit	-8298
ima	-8299
bits	-8300
bles	-8301
list	-8302
▁tower	-8303
▁Teacher	-8304
▁disposal	-8305
▁graduates	-8306
▁productivity	-8307
UV	-8308
▁Yi	-8309
▁Meeting	-8310
▁resource	-8311
▁postponed	-8312
Le	-8313
OC	-8314
eong	-8315
▁escal	-8316
▁inner	-8317
▁slowing	-8318
▁combines	-8319
▁resulted	-8320
▁communities	-8321
▁Mom	-8322
▁err	-8323
icate	-8324
▁royal	-8325
▁depend	-8326
▁fellow	-8327
▁poison	-8328
▁bidding	-8329
▁speaker	-8330
▁talents	-8331
ifications	-8332
▁municipal	-8333
▁revealing	-8334
awa	-8335
abet	-8336
▁119	-8337
▁2.5	-8338
▁Take	-8339
anches	-8340
▁feared	-8341
▁portal	-8342
▁robots	-8343
▁Chamber	-8344
▁Kaesong	-8345
▁affection	-8346
▁destroyed	-8347
▁Del	-8348
▁talented	-8349
▁Broadcast	-8350
▁Republican	-8351
▁goalkeeper	-8352
▁structural	-8353
ago	-8354
aut	-8355
▁lit	-8356
▁draws	-8357
chester	-8358
▁consol	-8359
▁arrival	-8360
▁crowded	-8361
▁USD	-8362
▁accus	-8363
▁voters	-8364
▁Constitution	-8365
▁rains	-8366
▁recur	-8367
▁Holding	-8368
▁liberal	-8369
▁reorgan	-8370
,“	-8371
Sh	-8372
ales	-8373
hong	-8374
rell	-8375
chest	-8376
ryong	-8377
▁Time	-8378
▁belt	-8379
▁Stock	-8380
▁Palace	-8381
▁territ	-8382
▁shutdown	-8383
▁consultations	-8384
▁dy	-8385
meter	-8386
▁fant	-8387
▁nose	-8388
▁Journ	-8389
▁flavor	-8390
▁survive	-8391
▁issuance	-8392
▁understood	-8393
▁Char	-8394
▁Self	-8395
ordinary	-8396
▁Nations	-8397
▁Northern	-8398
▁shortage	-8399
▁partnership	-8400
▁sty	-8401
▁tells	-8402
▁phrase	-8403
▁prayer	-8404
▁preced	-8405
▁scenar	-8406
▁processes	-8407
▁components	-8408
AI	-8409
quet	-8410
▁sle	-8411
▁Bucheon	-8412
▁healing	-8413
▁directed	-8414
▁ownership	-8415
45	-8416
qual	-8417
works	-8418
▁Sand	-8419
▁Rober	-8420
▁harsh	-8421
▁seventh	-8422
90	-8423
TV	-8424
▁8,	-8425
▁Dam	-8426
iders	-8427
▁visa	-8428
porary	-8429
▁pride	-8430
breaking	-8431
▁wireless	-8432
▁integration	-8433
PS	-8434
lands	-8435
▁perpetr	-8436
▁magazine	-8437
▁valuable	-8438
▁automatic	-8439
▁economies	-8440
▁Protection	-8441
IST	-8442
▁unst	-8443
▁riding	-8444
▁painful	-8445
▁branches	-8446
▁cheering	-8447
▁negotiating	-8448
rend	-8449
▁Bay	-8450
▁hub	-8451
orthy	-8452
▁Hank	-8453
▁monetary	-8454
▁definitely	-8455
▁literature	-8456
▁Medium	-8457
▁referred	-8458
▁jur	-8459
▁toile	-8460
▁diesel	-8461
▁floors	-8462
▁typical	-8463
▁container	-8464
▁renewable	-8465
▁implementing	-8466
▁Dod	-8467
deung	-8468
▁edge	-8469
▁edit	-8470
▁Spanish	-8471
▁explosion	-8472
reas	-8473
anies	-8474
▁mathematics	-8475
rog	-8476
aled	-8477
ouds	-8478
▁limits	-8479
▁herself	-8480
▁testing	-8481
▁Criminal	-8482
▁elements	-8483
▁furniture	-8484
▁mountains	-8485
▁tradition	-8486
hou	-8487
▁NC	-8488
alem	-8489
ondo	-8490
▁Consumer	-8491
▁Hi	-8492
▁Jams	-8493
▁Taek	-8494
▁neut	-8495
▁Beach	-8496
▁Ssang	-8497
▁colleagues	-8498
▁observation	-8499
bae	-8500
adow	-8501
ifies	-8502
▁teeth	-8503
▁Various	-8504
▁52-	-8505
ocket	-8506
▁hide	-8507
▁Staff	-8508
▁spoke	-8509
▁Manager	-8510
▁desirable	-8511
▁exception	-8512
▁legislative	-8513
▁acknowledged	-8514
yer	-8515
▁vit	-8516
▁enem	-8517
▁tent	-8518
▁Dokdo	-8519
▁recip	-8520
▁breath	-8521
▁testimony	-8522
▁compromise	-8523
On	-8524
ibr	-8525
▁47	-8526
▁fest	-8527
▁roof	-8528
▁fewer	-8529
▁remote	-8530
▁Baseball	-8531
▁Planning	-8532
▁caut	-8533
▁Steel	-8534
▁essay	-8535
quarter	-8536
through	-8537
▁30,000	-8538
▁heated	-8539
▁switch	-8540
▁weekly	-8541
oyal	-8542
▁Rest	-8543
▁Tell	-8544
▁metal	-8545
▁poured	-8546
▁Gangseo	-8547
▁bicycle	-8548
▁inappropriate	-8549
▁irregularities	-8550
▁grateful	-8551
▁suggests	-8552
▁batteries	-8553
▁agreements	-8554
▁attractions	-8555
ograp	-8556
▁Gimpo	-8557
▁minds	-8558
▁trips	-8559
ulatory	-8560
ortheast	-8561
▁calculation	-8562
▁preferential	-8563
▁lod	-8564
▁isol	-8565
▁challenges	-8566
▁helicopter	-8567
iforn	-8568
igent	-8569
rents	-8570
▁ring	-8571
▁drove	-8572
istical	-8573
▁breast	-8574
▁enters	-8575
▁frozen	-8576
▁cautious	-8577
▁childhood	-8578
dep	-8579
ecut	-8580
▁Non	-8581
track	-8582
▁cher	-8583
earing	-8584
▁skill	-8585
itarian	-8586
▁Golden	-8587
▁lifting	-8588
▁download	-8589
▁exposure	-8590
▁Councilor	-8591
▁competing	-8592
▁restricted	-8593
▁convergence	-8594
BA	-8595
▁6,	-8596
▁Gw	-8597
▁mac	-8598
▁tur	-8599
▁Cath	-8600
▁mini	-8601
▁surpassed	-8602
▁entrepreneurs	-8603
table	-8604
▁Putin	-8605
▁rainy	-8606
▁Electric	-8607
▁friendship	-8608
▁preference	-8609
▁principles	-8610
ado	-8611
▁FI	-8612
▁Sho	-8613
break	-8614
▁unre	-8615
▁wash	-8616
▁maritime	-8617
▁chocolate	-8618
▁Sil	-8619
▁pip	-8620
▁recy	-8621
▁Yonsei	-8622
▁Statistics	-8623
▁completing	-8624
▁NH	-8625
▁USA	-8626
urers	-8627
▁forms	-8628
▁Eastern	-8629
▁muscles	-8630
▁receives	-8631
▁somewhere	-8632
▁relationships	-8633
isd	-8634
▁dad	-8635
▁tail	-8636
ifornia	-8637
▁romance	-8638
▁coverage	-8639
▁machines	-8640
▁ordering	-8641
▁happening	-8642
dis	-8643
▁oblig	-8644
▁prepar	-8645
▁inherit	-8646
▁uploaded	-8647
▁reference	-8648
▁Ri	-8649
▁clar	-8650
▁split	-8651
▁praised	-8652
▁signature	-8653
▁attraction	-8654
iga	-8655
▁Hope	-8656
▁James	-8657
▁volat	-8658
deungpo	-8659
▁broker	-8660
▁unified	-8661
▁Manchester	-8662
PCO	-8663
irty	-8664
wards	-8665
▁midst	-8666
▁nomination	-8667
print	-8668
reced	-8669
▁Lake	-8670
▁grab	-8671
▁lens	-8672
jeongbu	-8673
▁deleted	-8674
▁Previously	-8675
▁playground	-8676
sil	-8677
ache	-8678
▁Jamsil	-8679
▁buried	-8680
▁thinks	-8681
▁walked	-8682
▁critics	-8683
▁Compared	-8684
▁adjusted	-8685
▁depression	-8686
NA	-8687
attle	-8688
▁silver	-8689
▁300,000	-8690
▁networks	-8691
▁enterprise	-8692
▁conglomerates	-8693
urd	-8694
haps	-8695
imal	-8696
▁Such	-8697
mistry	-8698
▁motiv	-8699
▁batting	-8700
lix	-8701
atri	-8702
emen	-8703
▁maj	-8704
▁scr	-8705
▁relig	-8706
▁Italian	-8707
atization	-8708
▁Heritage	-8709
▁distingu	-8710
▁Emergency	-8711
▁provisional	-8712
▁uncertainty	-8713
You	-8714
math	-8715
▁Sokcho	-8716
▁California	-8717
▁eggs	-8718
▁Mount	-8719
▁clause	-8720
▁worries	-8721
▁attorney	-8722
▁colonial	-8723
recedented	-8724
▁Standards	-8725
▁Emb	-8726
▁Along	-8727
▁Urban	-8728
▁synergy	-8729
uma	-8730
▁Kwan	-8731
▁zero	-8732
▁lying	-8733
▁agents	-8734
▁showcase	-8735
▁taxation	-8736
▁framework	-8737
▁buyer	-8738
essions	-8739
▁Journal	-8740
▁Namyang	-8741
▁seasons	-8742
▁organize	-8743
▁Sometimes	-8744
▁offensive	-8745
zens	-8746
hether	-8747
▁roles	-8748
iability	-8749
▁Ob	-8750
woong	-8751
▁potato	-8752
▁nations	-8753
▁pursued	-8754
▁discover	-8755
▁publicly	-8756
Pro	-8757
ibly	-8758
▁Mich	-8759
▁lock	-8760
▁Excuse	-8761
▁courage	-8762
▁fulfill	-8763
▁innings	-8764
▁allegedly	-8765
▁telephone	-8766
▁ambassador	-8767
▁Yeongdeungpo	-8768
At	-8769
oT	-8770
ito	-8771
enders	-8772
▁engage	-8773
▁massage	-8774
▁Ce	-8775
▁GS	-8776
▁10-	-8777
▁ast	-8778
uated	-8779
▁bird	-8780
▁Maybe	-8781
▁alert	-8782
▁drone	-8783
▁stret	-8784
▁midterm	-8785
▁tracking	-8786
▁Uijeongbu	-8787
col	-8788
▁syn	-8789
aught	-8790
pring	-8791
▁2011	-8792
▁loud	-8793
vision	-8794
▁spots	-8795
▁lyrics	-8796
▁faction	-8797
▁lowering	-8798
▁inflation	-8799
▁controlled	-8800
▁extraordinary	-8801
TBC	-8802
icul	-8803
▁files	-8804
▁opens	-8805
▁pizza	-8806
▁captain	-8807
▁judging	-8808
▁attempts	-8809
▁carriers	-8810
▁counties	-8811
▁weakened	-8812
▁graduated	-8813
ami	-8814
▁Gov	-8815
▁Kyo	-8816
▁soy	-8817
▁Sook	-8818
▁shed	-8819
▁Plant	-8820
▁Solid	-8821
▁walls	-8822
▁experim	-8823
▁Building	-8824
MC	-8825
▁grace	-8826
▁asleep	-8827
▁fisher	-8828
▁Bundang	-8829
▁occasion	-8830
▁bold	-8831
▁snacks	-8832
▁Telecom	-8833
▁deposits	-8834
▁preferred	-8835
▁scientific	-8836
TO	-8837
▁Geo	-8838
▁cats	-8839
▁rush	-8840
essert	-8841
finals	-8842
urement	-8843
▁handled	-8844
▁persons	-8845
▁aftermath	-8846
▁systematic	-8847
▁sustainable	-8848
ucky	-8849
▁unn	-8850
▁2007	-8851
▁Franc	-8852
▁stuck	-8853
section	-8854
utation	-8855
▁conversion	-8856
▁II	-8857
▁abund	-8858
ondition	-8859
▁Liberal	-8860
▁Malaysia	-8861
▁advantages	-8862
▁competitions	-8863
anta	-8864
inery	-8865
▁cyber	-8866
▁cheese	-8867
▁shower	-8868
▁refriger	-8869
▁explaining	-8870
▁representation	-8871
flix	-8872
▁Sem	-8873
▁cha	-8874
party	-8875
▁apart	-8876
▁context	-8877
▁homepage	-8878
▁Argentina	-8879
▁exceeding	-8880
FC	-8881
▁54	-8882
▁Mob	-8883
▁Asan	-8884
emporary	-8885
▁belated	-8886
▁fairness	-8887
▁shocking	-8888
▁suspects	-8889
▁variable	-8890
▁PM	-8891
▁Lab	-8892
▁Vlad	-8893
▁jurisd	-8894
▁pitchers	-8895
▁incentives	-8896
▁53	-8897
▁Mong	-8898
▁alive	-8899
▁disasters	-8900
▁calculated	-8901
5.	-8902
ont	-8903
rip	-8904
uit	-8905
fine	-8906
osan	-8907
▁bare	-8908
▁burst	-8909
▁muscle	-8910
▁aggressive	-8911
DS	-8912
▁Choo	-8913
▁horse	-8914
▁Haeundae	-8915
▁presents	-8916
▁disappointed	-8917
nis	-8918
▁7,	-8919
anda	-8920
roke	-8921
▁laid	-8922
▁lung	-8923
stream	-8924
▁2012,	-8925
▁gains	-8926
▁shots	-8927
▁shaking	-8928
▁borrowed	-8929
▁protests	-8930
▁schedules	-8931
▁protecting	-8932
▁criticizing	-8933
▁technological	-8934
12	-8935
▁Seod	-8936
▁label	-8937
▁prest	-8938
▁Product	-8939
▁retired	-8940
▁soul	-8941
▁print	-8942
▁tools	-8943
▁Further	-8944
▁circumst	-8945
▁questioned	-8946
▁unprecedented	-8947
▁KEPCO	-8948
▁ocean	-8949
▁certified	-8950
▁recovered	-8951
▁attributed	-8952
13	-8953
▁73	-8954
igue	-8955
▁gall	-8956
▁Offic	-8957
▁fails	-8958
▁History	-8959
▁Netflix	-8960
▁outlets	-8961
▁homework	-8962
▁resigned	-8963
▁objective	-8964
▁releasing	-8965
▁assistance	-8966
walk	-8967
▁Kyu	-8968
▁cum	-8969
forced	-8970
▁Review	-8971
▁absent	-8972
▁clouds	-8973
▁expend	-8974
▁induce	-8975
▁satell	-8976
▁emotion	-8977
▁encouraged	-8978
▁certificates	-8979
▁qualification	-8980
Mart	-8981
▁ori	-8982
▁genre	-8983
▁abused	-8984
▁initially	-8985
▁confirming	-8986
An	-8987
outs	-8988
▁ther	-8989
▁vent	-8990
▁Space	-8991
▁1.	-8992
▁85	-8993
▁Bie	-8994
▁Ref	-8995
▁uns	-8996
ouses	-8997
▁Phil	-8998
▁evil	-8999
▁gram	-9000
chestra	-9001
▁platforms	-9002
▁directions	-9003
▁laund	-9004
▁beating	-9005
▁touching	-9006
▁dominated	-9007
▁substances	-9008
▁suspicious	-9009
▁Broadcasting	-9010
▁supplementary	-9011
▁simultaneously	-9012
▁Area	-9013
▁Gwan	-9014
▁deployed	-9015
▁quarters	-9016
▁incidents	-9017
▁textbooks	-9018
rible	-9019
active	-9020
atever	-9021
▁exceeds	-9022
▁journey	-9023
”,	-9024
▁Hero	-9025
▁luck	-9026
▁honey	-9027
▁polar	-9028
▁dessert	-9029
MO	-9030
PA	-9031
ini	-9032
izer	-9033
▁Boo	-9034
▁Golf	-9035
▁lies	-9036
▁resh	-9037
▁sells	-9038
▁behalf	-9039
▁Account	-9040
▁auction	-9041
▁suspend	-9042
▁searched	-9043
▁Companies	-9044
▁expecting	-9045
▁democratic	-9046
▁neighboring	-9047
▁Dom	-9048
▁adapt	-9049
▁sport	-9050
▁depict	-9051
▁heavily	-9052
▁firefighters	-9053
▁advertisements	-9054
vis	-9055
▁59	-9056
▁Mean	-9057
▁ongoing	-9058
bl	-9059
zo	-9060
dum	-9061
▁250	-9062
▁Mel	-9063
▁Seog	-9064
▁chef	-9065
finding	-9066
▁congest	-9067
▁disorder	-9068
▁dividend	-9069
▁examples	-9070
▁tendency	-9071
▁unstable	-9072
▁threatening	-9073
▁increasingly	-9074
Is	-9075
ruck	-9076
contin	-9077
season	-9078
▁stagn	-9079
▁proved	-9080
▁designer	-9081
▁Shipbuilding	-9082
drop	-9083
birth	-9084
▁yuan	-9085
▁grass	-9086
▁suits	-9087
▁Private	-9088
▁bulletin	-9089
▁questioning	-9090
▁glo	-9091
asium	-9092
▁Live	-9093
ambling	-9094
amiliar	-9095
general	-9096
▁wallet	-9097
formance	-9098
ymnasium	-9099
▁Exhibition	-9100
PR	-9101
▁1.2	-9102
South	-9103
rones	-9104
▁Navy	-9105
▁soph	-9106
unction	-9107
▁Renault	-9108
▁decades	-9109
regulation	-9110
▁worldwide	-9111
▁transparent	-9112
asp	-9113
▁Spe	-9114
liers	-9115
▁soil	-9116
▁alley	-9117
▁Songdo	-9118
▁taught	-9119
▁update	-9120
▁grandfather	-9121
▁effectiveness	-9122
▁wet	-9123
▁Mission	-9124
▁demonstr	-9125
▁described	-9126
▁everywhere	-9127
▁advantageous	-9128
▁JTBC	-9129
▁bottle	-9130
▁shocked	-9131
▁downward	-9132
▁pregnancy	-9133
▁accurately	-9134
onym	-9135
dered	-9136
▁1980	-9137
▁liver	-9138
▁dating	-9139
▁auditor	-9140
▁highway	-9141
▁specializing	-9142
sam	-9143
▁Bill	-9144
aduate	-9145
▁surve	-9146
▁shorter	-9147
▁pointing	-9148
▁recruiting	-9149
▁broadcaster	-9150
▁representing	-9151
ERS	-9152
▁stops	-9153
▁flying	-9154
▁verify	-9155
▁infring	-9156
▁Solidarity	-9157
▁jurisdiction	-9158
▁Ber	-9159
▁sheet	-9160
▁errors	-9161
▁aspects	-9162
▁Interior	-9163
▁patterns	-9164
▁guarantees	-9165
▁(9	-9166
west	-9167
▁Osaka	-9168
▁Catholic	-9169
▁therefore	-9170
▁commitment	-9171
▁drastically	-9172
roid	-9173
wondo	-9174
▁bloom	-9175
General	-9176
▁flagship	-9177
▁romantic	-9178
▁acquaintances	-9179
▁lift	-9180
▁Anyang	-9181
▁greeting	-9182
▁regularly	-9183
17	-9184
wood	-9185
After	-9186
▁Pass	-9187
▁appa	-9188
▁bact	-9189
▁drag	-9190
▁erup	-9191
▁hobby	-9192
▁malls	-9193
▁removal	-9194
▁singers	-9195
▁basement	-9196
ndrome	-9197
▁dispos	-9198
▁golden	-9199
▁soared	-9200
▁crashed	-9201
▁uniforms	-9202
▁embezzlement	-9203
asy	-9204
oked	-9205
▁hal	-9206
driven	-9207
▁believing	-9208
▁presenting	-9209
▁hospitalized	-9210
omed	-9211
bucks	-9212
erity	-9213
▁outs	-9214
ighting	-9215
▁stored	-9216
▁Resources	-9217
▁wonderful	-9218
▁commemorative	-9219
oline	-9220
▁Miss	-9221
▁vivid	-9222
▁Studies	-9223
24	-9224
bol	-9225
sup	-9226
▁Det	-9227
story	-9228
▁parad	-9229
▁tries	-9230
▁powder	-9231
▁extract	-9232
▁festivals	-9233
fish	-9234
ested	-9235
▁chest	-9236
▁hesit	-9237
18	-9238
kwon	-9239
zing	-9240
▁2018.	-9241
▁Islam	-9242
▁petro	-9243
▁rival	-9244
ecutive	-9245
▁63	-9246
▁Ve	-9247
high	-9248
itory	-9249
▁Their	-9250
▁Treas	-9251
▁alarm	-9252
▁prote	-9253
incerity	-9254
▁focuses	-9255
▁issuing	-9256
▁Startups	-9257
▁featuring	-9258
▁Cooperative	-9259
▁instructors	-9260
▁consistently	-9261
Te	-9262
▁57	-9263
What	-9264
▁Hoe	-9265
▁sole	-9266
▁acquire	-9267
▁Holdings	-9268
▁stabilize	-9269
New	-9270
▁4-	-9271
▁pump	-9272
▁deals	-9273
▁remem	-9274
imeters	-9275
▁Enterpr	-9276
▁engines	-9277
▁evaluate	-9278
▁Meanwhile	-9279
▁emissions	-9280
▁announcing	-9281
▁64	-9282
lash	-9283
▁Ocean	-9284
▁armed	-9285
▁Theater	-9286
▁invitation	-9287
days	-9288
▁Seol	-9289
▁subm	-9290
driving	-9291
▁reluct	-9292
▁welcom	-9293
▁sponsored	-9294
▁determination	-9295
name	-9296
chers	-9297
xygen	-9298
▁Gall	-9299
▁proc	-9300
▁tennis	-9301
▁peaceful	-9302
okesperson	-9303
▁prospects	-9304
▁FA	-9305
ulpt	-9306
▁Est	-9307
▁rub	-9308
▁Dongd	-9309
▁exciting	-9310
▁competitors	-9311
▁conservatives	-9312
Ar	-9313
iny	-9314
moo	-9315
amen	-9316
▁treas	-9317
illance	-9318
▁appeals	-9319
▁locations	-9320
▁identification	-9321
▁56	-9322
▁km	-9323
fire	-9324
uffle	-9325
▁1990	-9326
▁Meas	-9327
▁African	-9328
▁suppliers	-9329
▁surprising	-9330
▁acquaintance	-9331
▁vary	-9332
ifiers	-9333
▁patri	-9334
▁choosing	-9335
▁railroad	-9336
▁secretly	-9337
▁responding	-9338
▁characteristic	-9339
anes	-9340
elly	-9341
▁ties	-9342
▁garbage	-9343
▁innocent	-9344
▁workshop	-9345
▁warehouse	-9346
▁Christians	-9347
roat	-9348
▁195	-9349
▁DSC	-9350
ourse	-9351
speed	-9352
store	-9353
▁2014.	-9354
▁birds	-9355
secution	-9356
▁outbreak	-9357
300	-9358
omi	-9359
▁9,	-9360
peror	-9361
vation	-9362
▁forever	-9363
▁Chungcheongbuk	-9364
EAN	-9365
ael	-9366
aldo	-9367
cies	-9368
▁Kuk	-9369
aseong	-9370
▁Mirae	-9371
▁hikes	-9372
▁habits	-9373
▁consign	-9374
▁speeding	-9375
▁diplomacy	-9376
wear	-9377
isive	-9378
▁chap	-9379
▁lone	-9380
places	-9381
▁laundry	-9382
▁texture	-9383
▁dispatch	-9384
▁moisture	-9385
▁Starbucks	-9386
ta	-9387
▁IC	-9388
▁salt	-9389
▁Hyeon	-9390
▁crowd	-9391
▁decade	-9392
▁hotels	-9393
▁Francis	-9394
▁organic	-9395
▁financing	-9396
▁categories	-9397
▁influenced	-9398
▁84	-9399
Talk	-9400
▁nurt	-9401
orship	-9402
▁piano	-9403
▁assaulting	-9404
▁encouraging	-9405
▁breakthrough	-9406
▁differentiated	-9407
oft	-9408
▁72	-9409
▁mode	-9410
▁Block	-9411
▁David	-9412
▁sweat	-9413
▁fought	-9414
▁lineup	-9415
▁infants	-9416
▁Ssangyong	-9417
▁sincerity	-9418
Let	-9419
▁1-	-9420
▁Ask	-9421
▁Nob	-9422
iques	-9423
▁endu	-9424
▁immun	-9425
▁Bolton	-9426
▁Senate	-9427
▁Reserve	-9428
▁carrier	-9429
▁eastern	-9430
▁forming	-9431
▁striker	-9432
▁supreme	-9433
▁reputation	-9434
mates	-9435
▁Anti	-9436
▁Wood	-9437
▁Gender	-9438
▁breaks	-9439
▁native	-9440
▁pulled	-9441
▁lacking	-9442
▁billions	-9443
▁accepting	-9444
▁discounts	-9445
▁disposable	-9446
HA	-9447
well	-9448
▁NIS	-9449
▁Ret	-9450
plant	-9451
▁Best	-9452
▁trick	-9453
istrust	-9454
▁lifest	-9455
▁defined	-9456
▁designs	-9457
▁federal	-9458
▁stepping	-9459
▁collusion	-9460
▁wondering	-9461
ails	-9462
▁ske	-9463
▁Again	-9464
▁Resear	-9465
▁unfold	-9466
▁marking	-9467
▁advisory	-9468
▁protected	-9469
▁unfamiliar	-9470
▁journalists	-9471
KRW	-9472
▁58	-9473
▁upgr	-9474
istant	-9475
▁parks	-9476
▁shake	-9477
▁coastal	-9478
▁Residents	-9479
▁packaging	-9480
MS	-9481
sect	-9482
▁cow	-9483
owned	-9484
school	-9485
eworthy	-9486
itement	-9487
▁invite	-9488
▁slowed	-9489
▁seafood	-9490
▁Judicial	-9491
▁perfectly	-9492
▁prestigious	-9493
osa	-9494
▁Ms	-9495
▁Eth	-9496
rella	-9497
▁repro	-9498
▁shame	-9499
▁equality	-9500
▁Seodaemun	-9501
▁noteworthy	-9502
She	-9503
rais	-9504
▁Sar	-9505
▁Turk	-9506
▁bail	-9507
▁mock	-9508
▁legit	-9509
▁truly	-9510
▁oxygen	-9511
▁rarely	-9512
▁500,000	-9513
▁inquiry	-9514
▁positively	-9515
▁Fortunately	-9516
▁68	-9517
ella	-9518
▁180	-9519
▁Nat	-9520
▁scar	-9521
lessly	-9522
profit	-9523
▁Floor	-9524
▁Yemen	-9525
▁tuition	-9526
▁installing	-9527
▁redevelopment	-9528
Log	-9529
▁Coin	-9530
▁gang	-9531
▁rear	-9532
▁tiss	-9533
▁Concer	-9534
▁languages	-9535
ules	-9536
▁Room	-9537
urious	-9538
▁demol	-9539
▁Report	-9540
▁aiming	-9541
▁unnecess	-9542
▁Administr	-9543
▁2-	-9544
lings	-9545
▁lapt	-9546
▁rumor	-9547
▁leakage	-9548
▁Prevention	-9549
▁utilization	-9550
▁Hwa	-9551
▁Nov	-9552
front	-9553
▁Step	-9554
▁Index	-9555
▁taxis	-9556
▁upset	-9557
▁Madrid	-9558
▁bribes	-9559
▁quoted	-9560
▁reserved	-9561
▁notification	-9562
▁regeneration	-9563
irts	-9564
sell	-9565
▁sin	-9566
▁grat	-9567
▁Happy	-9568
▁envoy	-9569
▁coexist	-9570
▁inflamm	-9571
▁sincerely	-9572
ipo	-9573
▁MO	-9574
tical	-9575
▁fate	-9576
mented	-9577
obiles	-9578
▁storm	-9579
▁defects	-9580
▁floating	-9581
▁desperate	-9582
▁promotional	-9583
11	-9584
ka	-9585
cur	-9586
imer	-9587
agger	-9588
usive	-9589
▁cope	-9590
tering	-9591
▁Nexon	-9592
▁crude	-9593
▁dozens	-9594
▁disturb	-9595
▁landing	-9596
▁neglected	-9597
▁delivering	-9598
dam	-9599
eness	-9600
liance	-9601
▁overs	-9602
▁pants	-9603
▁valid	-9604
▁statue	-9605
▁grammar	-9606
▁honorary	-9607
▁abolished	-9608
▁apologized	-9609
▁Furthermore	-9610
IL	-9611
▁Fact	-9612
▁Hill	-9613
▁nutr	-9614
▁runner	-9615
▁warnings	-9616
▁frequency	-9617
▁developers	-9618
greg	-9619
▁SUV	-9620
▁Vis	-9621
scious	-9622
▁facial	-9623
aughters	-9624
commerce	-9625
iciently	-9626
▁ceiling	-9627
▁lodging	-9628
▁nominee	-9629
▁objects	-9630
▁autonomy	-9631
▁vitality	-9632
▁initiative	-9633
No	-9634
▁Mt	-9635
oons	-9636
▁slo	-9637
▁bowl	-9638
▁nick	-9639
ealand	-9640
▁merit	-9641
▁cruise	-9642
▁backlash	-9643
▁severely	-9644
▁breathing	-9645
▁businessmen	-9646
▁communications	-9647
▁MC	-9648
rencies	-9649
▁insert	-9650
▁Ronaldo	-9651
zy	-9652
kuk	-9653
nic	-9654
rose	-9655
▁seaw	-9656
▁wrap	-9657
▁conce	-9658
▁drones	-9659
▁revive	-9660
▁serves	-9661
▁compuls	-9662
▁harvest	-9663
▁printing	-9664
▁childbirth	-9665
▁requesting	-9666
▁coordination	-9667
▁tie	-9668
▁knee	-9669
▁juice	-9670
▁Though	-9671
iscrimin	-9672
▁Library	-9673
▁lending	-9674
▁Domestic	-9675
stitutional	-9676
▁consisting	-9677
▁inequality	-9678
▁perf	-9679
▁vari	-9680
inseng	-9681
▁hoped	-9682
▁Biegun	-9683
▁campus	-9684
▁plaint	-9685
▁upward	-9686
▁Equality	-9687
▁confused	-9688
▁scenario	-9689
▁computers	-9690
▁exhibitions	-9691
▁additionally	-9692
▁%	-9693
▁Rob	-9694
inity	-9695
▁crop	-9696
▁worn	-9697
rovers	-9698
▁Ilsan	-9699
▁Prince	-9700
▁poster	-9701
▁toilet	-9702
▁abolish	-9703
▁relieve	-9704
▁brothers	-9705
▁Gwangyang	-9706
▁Pyeongtaek	-9707
▁approached	-9708
rise	-9709
tegr	-9710
▁Bon	-9711
▁consp	-9712
▁spray	-9713
▁Bitcoin	-9714
▁Concert	-9715
▁closure	-9716
▁feedback	-9717
▁persuade	-9718
▁combining	-9719
▁plaintiff	-9720
▁Wi	-9721
ette	-9722
ampion	-9723
sharing	-9724
▁BioLog	-9725
▁harmon	-9726
committee	-9727
▁Shopping	-9728
▁barriers	-9729
▁hardship	-9730
▁prospect	-9731
▁comfortably	-9732
▁transparency	-9733
▁(19	-9734
▁40%	-9735
andom	-9736
▁Hans	-9737
▁Sever	-9738
▁voted	-9739
ivalent	-9740
▁emerge	-9741
▁oppose	-9742
▁praise	-9743
▁desired	-9744
amination	-9745
▁distrust	-9746
▁appearing	-9747
▁chemistry	-9748
▁witnesses	-9749
▁organizing	-9750
equ	-9751
eman	-9752
stop	-9753
▁wore	-9754
abetes	-9755
▁medals	-9756
▁proven	-9757
▁sacrif	-9758
▁trains	-9759
▁Angeles	-9760
▁touched	-9761
▁abundant	-9762
▁missiles	-9763
▁transformed	-9764
Sp	-9765
▁mic	-9766
atisf	-9767
▁Expect	-9768
▁Futures	-9769
▁surveillance	-9770
lass	-9771
▁Wol	-9772
▁guy	-9773
▁umb	-9774
▁ages	-9775
▁pays	-9776
igital	-9777
▁exhib	-9778
itative	-9779
uncheon	-9780
▁Robert	-9781
▁cloudy	-9782
▁lesson	-9783
▁Officer	-9784
sea	-9785
umin	-9786
▁Los	-9787
rowth	-9788
▁acid	-9789
▁stem	-9790
▁Honam	-9791
▁attach	-9792
▁lonely	-9793
▁anytime	-9794
▁capable	-9795
▁Nonghyup	-9796
▁decisive	-9797
▁Wr	-9798
iner	-9799
bered	-9800
▁FIFA	-9801
▁Gree	-9802
▁tooth	-9803
▁vocal	-9804
▁windows	-9805
▁sentences	-9806
▁acceptance	-9807
▁functional	-9808
hu	-9809
wage	-9810
▁Mil	-9811
ribed	-9812
▁Plus	-9813
shaped	-9814
▁ancient	-9815
▁assessed	-9816
▁minority	-9817
▁Venezuela	-9818
▁exhausted	-9819
▁automobiles	-9820
▁embarrassed	-9821
angel	-9822
▁jail	-9823
▁Buddh	-9824
anguage	-9825
▁Indeed	-9826
▁enable	-9827
▁filmed	-9828
▁Embassy	-9829
▁barrier	-9830
▁linking	-9831
▁surplus	-9832
▁decreases	-9833
▁gratitude	-9834
▁substance	-9835
▁admissions	-9836
▁excitement	-9837
▁organizational	-9838
▁tap	-9839
itzer	-9840
seung	-9841
▁2019.	-9842
▁traded	-9843
▁offense	-9844
▁preempt	-9845
▁resumed	-9846
▁appealed	-9847
▁agriculture	-9848
3.	-9849
DI	-9850
Min	-9851
aya	-9852
ura	-9853
▁KA	-9854
city	-9855
▁tox	-9856
▁yen	-9857
▁Cell	-9858
amation	-9859
▁guards	-9860
▁tunnel	-9861
▁obvious	-9862
▁elevator	-9863
▁fisheries	-9864
▁reflection	-9865
▁subsidiaries	-9866
gok	-9867
▁IB	-9868
▁Later	-9869
▁bloss	-9870
▁doors	-9871
▁cooling	-9872
▁recalled	-9873
isor	-9874
▁Ben	-9875
▁Pil	-9876
▁dil	-9877
verty	-9878
▁Jack	-9879
▁Know	-9880
rupted	-9881
▁fined	-9882
▁pursu	-9883
▁Budget	-9884
▁seekers	-9885
▁password	-9886
▁warrants	-9887
▁variables	-9888
▁conversations	-9889
▁Du	-9890
▁blog	-9891
▁erad	-9892
▁pupp	-9893
▁stamp	-9894
▁pocket	-9895
▁glasses	-9896
▁defensive	-9897
▁referring	-9898
▁reluctant	-9899
▁specialty	-9900
▁disadvantage	-9901
▁66	-9902
▁Bro	-9903
▁hin	-9904
▁apps	-9905
phones	-9906
▁makers	-9907
▁attacked	-9908
▁comeback	-9909
▁religion	-9910
▁BioLogics	-9911
▁allowances	-9912
▁suggesting	-9913
▁Cy	-9914
inent	-9915
▁adds	-9916
▁eased	-9917
▁graph	-9918
▁plung	-9919
Pacific	-9920
angible	-9921
▁struck	-9922
▁teaser	-9923
▁camping	-9924
▁quarant	-9925
▁Hwaseong	-9926
▁incorpor	-9927
▁nominated	-9928
▁commemorate	-9929
ON	-9930
▁VR	-9931
xide	-9932
zhou	-9933
▁lip	-9934
▁Data	-9935
▁arose	-9936
▁granted	-9937
▁reveals	-9938
▁dramatic	-9939
▁publishing	-9940
▁Di	-9941
ords	-9942
woon	-9943
▁70%	-9944
otive	-9945
▁Veter	-9946
ainties	-9947
▁fortun	-9948
▁immers	-9949
▁sculpt	-9950
▁hacking	-9951
▁hosting	-9952
▁violate	-9953
▁sessions	-9954
▁traveled	-9955
▁converted	-9956
▁inquiries	-9957
▁techniques	-9958
uts	-9959
▁ank	-9960
▁Call	-9961
▁powers	-9962
▁Venture	-9963
▁fatigue	-9964
▁readers	-9965
▁covering	-9966
▁conventional	-9967
IM	-9968
▁Ice	-9969
berry	-9970
cling	-9971
▁ears	-9972
▁negl	-9973
▁funny	-9974
▁pharm	-9975
▁immune	-9976
▁motion	-9977
▁stairs	-9978
▁leaking	-9979
▁pouring	-9980
▁poverty	-9981
▁workweek	-9982
▁Spokesman	-9983
▁daughters	-9984
”.	-9985
▁Add	-9986
▁Web	-9987
▁onto	-9988
▁lover	-9989
▁Expectations	-9990
ahn	-9991
aid	-9992
ora	-9993
gered	-9994
proof	-9995
▁hurts	-9996
▁Heroes	-9997
▁babies	-9998
▁sensor	-9999
centered	-10000
▁soldier	-10001
▁Chemical	-10002
▁catching	-10003
▁gasoline	-10004
▁compensate	-10005
▁disability	-10006
▁eliminated	-10007
▁unnecessary	-10008
Ex	-10009
stick	-10010
▁cardi	-10011
▁clients	-10012
▁aviation	-10013
▁targeted	-10014
▁celebrity	-10015
▁technique	-10016
▁instability	-10017
oty	-10018
▁Gil	-10019
market	-10020
▁repres	-10021
▁Program	-10022
▁burning	-10023
▁divorce	-10024
▁threats	-10025
▁allegation	-10026
▁immigrants	-10027
)'	-10028
rs	-10029
▁IS	-10030
▁80%	-10031
▁irre	-10032
▁Short	-10033
▁incur	-10034
▁mound	-10035
▁weigh	-10036
▁overhe	-10037
▁emphasizing	-10038
▁cooked	-10039
▁infect	-10040
▁myster	-10041
ographer	-10042
▁writers	-10043
▁Actually	-10044
▁gambling	-10045
▁conditioner	-10046
▁constitution	-10047
▁Ni	-10048
▁(201	-10049
▁bull	-10050
▁pink	-10051
roversy	-10052
▁aspect	-10053
▁doubled	-10054
▁lighting	-10055
▁Mag	-10056
▁rib	-10057
elect	-10058
▁pull	-10059
celona	-10060
▁hiding	-10061
▁Dodgers	-10062
▁constitu	-10063
▁mobilized	-10064
▁strongest	-10065
▁instructions	-10066
▁consciousness	-10067
ID	-10068
▁nin	-10069
▁Make	-10070
▁sees	-10071
▁tone	-10072
manned	-10073
▁Night	-10074
▁aside	-10075
▁Proper	-10076
▁explore	-10077
▁historic	-10078
▁proceeded	-10079
▁exercising	-10080
▁represents	-10081
hang	-10082
▁Den	-10083
▁bub	-10084
minal	-10085
▁Farm	-10086
▁seller	-10087
▁Members	-10088
▁escaped	-10089
▁diabetes	-10090
▁Relations	-10091
▁deduction	-10092
▁workplaces	-10093
4.	-10094
net	-10095
ando	-10096
usal	-10097
▁Presby	-10098
▁propos	-10099
asonable	-10100
▁longest	-10101
▁shuttle	-10102
▁rankings	-10103
),"	-10104
des	-10105
▁Up	-10106
▁Bul	-10107
▁bone	-10108
▁dict	-10109
▁dynam	-10110
▁exped	-10111
▁evasion	-10112
▁ignored	-10113
▁defender	-10114
▁foldable	-10115
▁activists	-10116
▁infection	-10117
400	-10118
don	-10119
▁1.3	-10120
▁900	-10121
▁Mir	-10122
▁Pet	-10123
aning	-10124
ordin	-10125
▁Saem	-10126
▁barg	-10127
attack	-10128
▁aides	-10129
▁menus	-10130
▁Kimchi	-10131
▁outlet	-10132
▁compare	-10133
▁neglect	-10134
▁equivalent	-10135
oid	-10136
▁Guro	-10137
▁scat	-10138
▁till	-10139
ocheon	-10140
▁crying	-10141
▁script	-10142
▁Without	-10143
▁applies	-10144
▁stating	-10145
▁downturn	-10146
▁restored	-10147
▁throwing	-10148
▁belatedly	-10149
▁exercises	-10150
▁exploration	-10151
▁uncertainties	-10152
Go	-10153
gyo	-10154
▁Eul	-10155
▁2009,	-10156
▁Cross	-10157
▁trucks	-10158
▁tenants	-10159
orruption	-10160
▁midnight	-10161
▁deterioration	-10162
▁Superintendent	-10163
gung	-10164
elled	-10165
▁perm	-10166
▁Organ	-10167
▁femin	-10168
▁occas	-10169
▁absurd	-10170
▁crimin	-10171
▁silent	-10172
▁lessons	-10173
▁strictly	-10174
▁Barcelona	-10175
▁cigarettes	-10176
▁inheritance	-10177
16	-10178
To	-10179
ECD	-10180
ste	-10181
▁Sch	-10182
▁Arch	-10183
▁Unit	-10184
▁dual	-10185
▁lady	-10186
ignity	-10187
▁cafes	-10188
▁wholes	-10189
▁capture	-10190
▁renewal	-10191
itzerland	-10192
▁welcomed	-10193
▁consistent	-10194
▁credibility	-10195
How	-10196
pil	-10197
▁2022	-10198
▁bell	-10199
▁Turkish	-10200
ICE	-10201
ille	-10202
▁Set	-10203
▁2020.	-10204
▁tropical	-10205
▁noticeable	-10206
▁resumption	-10207
▁approaching	-10208
rie	-10209
▁62	-10210
ogen	-10211
rait	-10212
▁Ver	-10213
▁pets	-10214
▁lands	-10215
leyball	-10216
▁bureau	-10217
▁format	-10218
▁lovely	-10219
▁propose	-10220
▁connects	-10221
▁mortgage	-10222
▁economics	-10223
▁5-	-10224
▁Ev	-10225
▁Koh	-10226
acent	-10227
▁Mess	-10228
▁maker	-10229
▁virus	-10230
▁plenty	-10231
▁passive	-10232
▁audiences	-10233
▁belonging	-10234
▁satellite	-10235
▁territory	-10236
▁comparison	-10237
▁cumulative	-10238
▁professionals	-10239
▁Administrative	-10240
One	-10241
gypt	-10242
▁Bok	-10243
▁tok	-10244
▁pipe	-10245
▁lucky	-10246
▁trash	-10247
▁Iranian	-10248
▁greatest	-10249
▁journalist	-10250
Don	-10251
▁CNN	-10252
▁pin	-10253
ielder	-10254
▁debts	-10255
▁rushed	-10256
▁dancing	-10257
▁soaring	-10258
▁activist	-10259
▁detection	-10260
▁resolving	-10261
▁distribute	-10262
▁Switzerland	-10263
▁transmission	-10264
azz	-10265
▁Op	-10266
▁Sk	-10267
atin	-10268
▁Five	-10269
▁leap	-10270
▁Corps	-10271
▁disin	-10272
▁exists	-10273
▁notify	-10274
▁wishes	-10275
▁exagger	-10276
▁pursuing	-10277
▁bilateral	-10278
▁prevented	-10279
▁emphasizes	-10280
atar	-10281
▁194	-10282
▁Mod	-10283
chiat	-10284
▁surn	-10285
ensity	-10286
▁2011,	-10287
▁repeat	-10288
▁noticed	-10289
▁Disabled	-10290
▁pensions	-10291
▁terrible	-10292
▁Northeast	-10293
▁constructed	-10294
AC	-10295
fol	-10296
iest	-10297
serv	-10298
▁sequ	-10299
▁ethics	-10300
▁decentral	-10301
▁necessity	-10302
▁operational	-10303
mu	-10304
auty	-10305
depth	-10306
invest	-10307
▁eaten	-10308
▁ideal	-10309
▁moder	-10310
▁shook	-10311
▁Tomorrow	-10312
▁verified	-10313
▁KakaoTalk	-10314
▁classical	-10315
▁producers	-10316
▁proposals	-10317
▁specifically	-10318
gor	-10319
fers	-10320
ounds	-10321
▁OLED	-10322
▁proof	-10323
▁revel	-10324
Samsung	-10325
▁candle	-10326
▁encoun	-10327
▁pedest	-10328
▁reduces	-10329
▁Disaster	-10330
▁bankrupt	-10331
▁summoned	-10332
▁abilities	-10333
▁ecological	-10334
pat	-10335
orge	-10336
▁anch	-10337
▁asks	-10338
▁"2019	-10339
▁Egypt	-10340
▁acted	-10341
▁adopt	-10342
▁aller	-10343
special	-10344
▁incomp	-10345
▁Contest	-10346
▁essence	-10347
▁shelter	-10348
▁airlines	-10349
▁distinct	-10350
▁generate	-10351
▁designate	-10352
nix	-10353
▁Old	-10354
▁evol	-10355
▁fert	-10356
▁arise	-10357
▁flows	-10358
Because	-10359
▁Temple	-10360
▁inflow	-10361
▁Gangbuk	-10362
▁Jecheon	-10363
▁belongs	-10364
▁cabinet	-10365
▁artistic	-10366
▁worsened	-10367
top	-10368
▁Lu	-10369
eline	-10370
useong	-10371
▁gospel	-10372
▁treaty	-10373
▁protein	-10374
▁attracts	-10375
▁instructor	-10376
▁problematic	-10377
itar	-10378
step	-10379
▁rig	-10380
usted	-10381
▁MERS	-10382
▁ASEAN	-10383
▁humid	-10384
▁column	-10385
▁heaven	-10386
▁temple	-10387
▁wooden	-10388
▁Customs	-10389
▁Senator	-10390
▁genetic	-10391
▁repatri	-10392
▁reversed	-10393
▁lifestyle	-10394
▁spotlight	-10395
▁preparations	-10396
sem	-10397
stan	-10398
▁Kon	-10399
organ	-10400
▁crash	-10401
▁salad	-10402
▁cherry	-10403
▁output	-10404
▁besides	-10405
▁pastors	-10406
▁entertain	-10407
▁explosive	-10408
▁inventory	-10409
▁supplying	-10410
▁Scholastic	-10411
▁intentions	-10412
▁prostitution	-10413
eok	-10414
▁vib	-10415
athon	-10416
▁Hoon	-10417
▁seized	-10418
▁forests	-10419
▁reforms	-10420
▁Attorney	-10421
▁volatility	-10422
▁multicultural	-10423
2)	-10424
orr	-10425
▁61	-10426
only	-10427
esity	-10428
▁Spec	-10429
▁twin	-10430
▁dealt	-10431
▁drank	-10432
largest	-10433
▁anxious	-10434
▁partially	-10435
▁expiration	-10436
▁presidents	-10437
▁prohibited	-10438
▁compos	-10439
▁reshuffle	-10440
▁treatments	-10441
▁distributing	-10442
▁intentionally	-10443
Be	-10444
Re	-10445
oves	-10446
pond	-10447
▁Dise	-10448
▁rook	-10449
League	-10450
iaison	-10451
▁edition	-10452
▁reversal	-10453
▁humanities	-10454
35	-10455
▁67	-10456
▁99	-10457
isdom	-10458
▁Autom	-10459
▁Sales	-10460
▁sorrow	-10461
▁tested	-10462
vernight	-10463
▁avoiding	-10464
▁benchmark	-10465
PGA	-10466
▁Rad	-10467
▁Hyuk	-10468
▁Mary	-10469
vereign	-10470
▁Shinzo	-10471
▁traces	-10472
ribution	-10473
▁Terminal	-10474
▁bacteria	-10475
▁emphasis	-10476
▁removing	-10477
▁prominent	-10478
▁mysterious	-10479
star	-10480
▁10,	-10481
▁Spring	-10482
▁brings	-10483
▁Perhaps	-10484
▁enables	-10485
▁discharged	-10486
▁Controversy	-10487
▁celebration	-10488
▁restriction	-10489
▁qualifications	-10490
▁sed	-10491
Seoul	-10492
aebol	-10493
▁yard	-10494
handed	-10495
▁2019,	-10496
▁Season	-10497
▁cleared	-10498
▁persist	-10499
▁precise	-10500
▁Gymnasium	-10501
▁cigarette	-10502
▁sovereign	-10503
▁quarantine	-10504
▁electronics	-10505
▁measurement	-10506
▁reconciliation	-10507
For	-10508
ann	-10509
ulent	-10510
▁folk	-10511
family	-10512
▁Ability	-10513
▁flooded	-10514
▁Gwacheon	-10515
▁spiritual	-10516
▁undergoing	-10517
▁intensified	-10518
cap	-10519
def	-10520
wise	-10521
cript	-10522
▁Byun	-10523
▁aide	-10524
▁swit	-10525
▁2010,	-10526
▁lobby	-10527
inafter	-10528
▁packed	-10529
▁prejud	-10530
▁topics	-10531
▁motorcy	-10532
▁recurrence	-10533
▁substantial	-10534
▁humanitarian	-10535
▁Unf	-10536
▁cul	-10537
▁gym	-10538
▁rac	-10539
▁Patri	-10540
▁donate	-10541
▁shaken	-10542
▁Michael	-10543
▁approve	-10544
▁arriving	-10545
▁predicts	-10546
▁Professional	-10547
▁reservations	-10548
▁Lo	-10549
foot	-10550
lers	-10551
ocks	-10552
▁Fac	-10553
econom	-10554
▁Spirit	-10555
▁Things	-10556
▁overla	-10557
▁caution	-10558
▁Teachers	-10559
▁pleasure	-10560
▁sympathy	-10561
▁welcoming	-10562
▁congestion	-10563
▁photographs	-10564
woom	-10565
▁25%	-10566
▁Men	-10567
▁tip	-10568
▁ramp	-10569
▁marry	-10570
▁outer	-10571
▁scent	-10572
▁concepts	-10573
▁prevents	-10574
▁relative	-10575
▁distribut	-10576
▁malicious	-10577
▁replacing	-10578
800	-10579
▁Gar	-10580
▁Gor	-10581
emocr	-10582
reens	-10583
▁porn	-10584
Americ	-10585
gyeong	-10586
raisal	-10587
▁minus	-10588
▁yield	-10589
▁hungry	-10590
▁imagine	-10591
valuation	-10592
▁Creative	-10593
▁compulsory	-10594
▁Pyeongchang	-10595
▁systematically	-10596
agen	-10597
uber	-10598
▁Yeom	-10599
▁puts	-10600
▁refres	-10601
▁founding	-10602
▁machinery	-10603
▁Statistical	-10604
bow	-10605
▁cab	-10606
rooms	-10607
▁Hand	-10608
▁bless	-10609
▁adoles	-10610
▁eighth	-10611
▁filter	-10612
▁slogan	-10613
▁avoided	-10614
▁crossed	-10615
▁mounting	-10616
▁recruited	-10617
▁obligation	-10618
▁imagination	-10619
▁Commissioner	-10620
▁20-	-10621
▁Ever	-10622
▁Main	-10623
▁rape	-10624
▁craft	-10625
▁enemy	-10626
▁pollut	-10627
chemical	-10628
▁Sharing	-10629
▁Student	-10630
▁examined	-10631
▁produces	-10632
▁rational	-10633
▁unmanned	-10634
▁Judiciary	-10635
dy	-10636
sen	-10637
paid	-10638
▁hip	-10639
▁tag	-10640
▁Syria	-10641
▁Friend	-10642
▁waited	-10643
▁surveyed	-10644
▁adjusting	-10645
▁capability	-10646
jak	-10647
▁pine	-10648
▁depth	-10649
▁resur	-10650
▁comply	-10651
▁coupon	-10652
▁viewed	-10653
▁Nakdong	-10654
▁Parents	-10655
▁Whether	-10656
▁hanging	-10657
▁referee	-10658
▁conclude	-10659
▁criticize	-10660
▁discovery	-10661
▁eliminate	-10662
▁overnight	-10663
▁highlighted	-10664
▁95	-10665
▁Kh	-10666
▁Gas	-10667
▁mol	-10668
kward	-10669
oting	-10670
▁input	-10671
▁Fourth	-10672
▁affiliate	-10673
▁ourselves	-10674
▁repayment	-10675
▁fo	-10676
offs	-10677
iently	-10678
▁airpl	-10679
▁Kiwoom	-10680
▁beings	-10681
▁bitter	-10682
▁eldest	-10683
▁boarding	-10684
▁cultures	-10685
▁sunlight	-10686
▁whatever	-10687
▁estimates	-10688
▁networking	-10689
▁passionate	-10690
▁remembered	-10691
AE	-10692
▁Vict	-10693
▁mere	-10694
▁Arena	-10695
▁imper	-10696
▁swept	-10697
▁slight	-10698
▁champion	-10699
▁relieved	-10700
▁stressing	-10701
▁television	-10702
▁(0	-10703
▁Gye	-10704
Chang	-10705
ocate	-10706
▁neat	-10707
turned	-10708
▁2013.	-10709
▁Jinju	-10710
heastern	-10711
▁reunion	-10712
▁Treasury	-10713
▁Democrats	-10714
▁achieving	-10715
▁certainly	-10716
▁objection	-10717
▁unconscious	-10718
▁alternatives	-10719
▁investigator	-10720
aze	-10721
ulf	-10722
ican	-10723
▁1.1	-10724
▁Oil	-10725
▁ski	-10726
ambur	-10727
elong	-10728
suits	-10729
▁forg	-10730
▁plum	-10731
▁tomb	-10732
▁trib	-10733
owners	-10734
▁steep	-10735
▁Lawyer	-10736
▁awkward	-10737
isticated	-10738
▁Yeongdong	-10739
▁dividends	-10740
car	-10741
wipo	-10742
▁130	-10743
▁Hung	-10744
▁squad	-10745
▁walks	-10746
▁Legisl	-10747
▁choices	-10748
▁fintech	-10749
▁sisters	-10750
▁negotiate	-10751
▁Australian	-10752
Do	-10753
yore	-10754
▁libr	-10755
▁knife	-10756
▁Morning	-10757
▁Property	-10758
▁consolid	-10759
▁sanction	-10760
▁sections	-10761
▁criminals	-10762
▁proceeding	-10763
▁prospective	-10764
▁intersection	-10765
Pe	-10766
7),	-10767
ilt	-10768
▁2.	-10769
▁hygi	-10770
ileged	-10771
▁covers	-10772
▁topped	-10773
▁chaebol	-10774
▁declare	-10775
▁smiling	-10776
▁Geumgang	-10777
▁burdened	-10778
▁listened	-10779
▁Dongdaemun	-10780
28	-10781
600	-10782
uum	-10783
conn	-10784
olen	-10785
view	-10786
▁Nor	-10787
▁Light	-10788
▁notes	-10789
written	-10790
▁jacket	-10791
▁ranging	-10792
▁assignment	-10793
2),	-10794
▁Boy	-10795
▁Dang	-10796
▁toler	-10797
▁rounds	-10798
▁utility	-10799
▁warming	-10800
▁homeless	-10801
▁emphasize	-10802
1),	-10803
▁Ra	-10804
nity	-10805
▁fog	-10806
▁ham	-10807
▁tot	-10808
▁Init	-10809
▁enroll	-10810
▁parked	-10811
▁weakening	-10812
▁ingredient	-10813
▁differently	-10814
▁intensifying	-10815
▁ratification	-10816
GB	-10817
▁11,	-10818
▁Edu	-10819
▁Haw	-10820
chief	-10821
▁2006	-10822
▁Cast	-10823
▁Pang	-10824
▁none	-10825
▁hyper	-10826
▁rooft	-10827
▁simpl	-10828
▁Seogwipo	-10829
▁crossing	-10830
▁infected	-10831
▁fostering	-10832
▁liquidity	-10833
▁reception	-10834
▁creativity	-10835
▁solidarity	-10836
▁complaining	-10837
▁unreasonable	-10838
ida	-10839
igm	-10840
ota	-10841
▁AR	-10842
cost	-10843
emet	-10844
▁1.8	-10845
▁IoT	-10846
▁cou	-10847
▁Pung	-10848
terian	-10849
▁stole	-10850
▁Series	-10851
▁illust	-10852
▁stroke	-10853
▁wrapped	-10854
▁impressed	-10855
▁SW	-10856
▁lacks	-10857
iculous	-10858
▁Garden	-10859
▁permit	-10860
▁depicts	-10861
▁patents	-10862
▁reliable	-10863
▁penalties	-10864
▁reactions	-10865
▁anticipated	-10866
▁challenging	-10867
▁circulation	-10868
▁controlling	-10869
isan	-10870
ueen	-10871
unge	-10872
uter	-10873
▁van	-10874
▁Susp	-10875
makers	-10876
ascular	-10877
▁refuse	-10878
▁raining	-10879
▁intensity	-10880
▁travelers	-10881
▁wholesale	-10882
owed	-10883
▁Mrs	-10884
acles	-10885
▁Holy	-10886
▁reck	-10887
▁tours	-10888
emetery	-10889
▁traged	-10890
▁statute	-10891
▁tensions	-10892
▁Tongyeong	-10893
iot	-10894
▁bin	-10895
gwang	-10896
▁Thai	-10897
▁bike	-10898
▁antib	-10899
▁nurse	-10900
interest	-10901
▁dormitory	-10902
Tr	-10903
▁LED	-10904
▁bra	-10905
▁sli	-10906
▁load	-10907
inated	-10908
▁click	-10909
▁obser	-10910
▁anyway	-10911
▁clinic	-10912
elligent	-10913
▁notable	-10914
▁Investig	-10915
▁radiation	-10916
▁overcoming	-10917
▁exclusively	-10918
TF	-10919
ita	-10920
▁77	-10921
▁Fe	-10922
alog	-10923
hyth	-10924
icism	-10925
▁Cost	-10926
▁enorm	-10927
inition	-10928
ilaterally	-10929
▁decorated	-10930
▁electrical	-10931
▁normalization	-10932
▁AM	-10933
▁Ol	-10934
Star	-10935
yoreh	-10936
▁wand	-10937
▁dried	-10938
▁paint	-10939
▁scared	-10940
▁thrown	-10941
▁urging	-10942
▁Speaker	-10943
▁bottles	-10944
▁dressed	-10945
▁thermal	-10946
▁upgrade	-10947
▁pitching	-10948
▁Executive	-10949
▁deepening	-10950
▁submission	-10951
▁polarization	-10952
▁sophisticated	-10953
▁hospitalization	-10954
▁Yo	-10955
bank	-10956
soft	-10957
▁1.6	-10958
appro	-10959
ashes	-10960
ppers	-10961
sided	-10962
▁Long	-10963
▁woke	-10964
Gyeong	-10965
listed	-10966
▁Canad	-10967
▁bother	-10968
▁infant	-10969
▁outflow	-10970
▁seasonal	-10971
▁steering	-10972
▁expenditure	-10973
▁deregulation	-10974
WS	-10975
▁76	-10976
▁Gyo	-10977
▁hug	-10978
▁fairy	-10979
develop	-10980
ishment	-10981
looking	-10982
▁parcel	-10983
▁stolen	-10984
▁youths	-10985
▁exclude	-10986
▁posture	-10987
▁Gangdong	-10988
▁activated	-10989
▁believers	-10990
▁component	-10991
▁injection	-10992
▁strengths	-10993
▁Presbyterian	-10994
Me	-10995
▁PD	-10996
ulty	-10997
▁(10	-10998
▁ROK	-10999
▁Belg	-11000
▁toll	-11001
▁grasp	-11002
▁Summer	-11003
▁kicked	-11004
▁Besides	-11005
oma	-11006
▁Ec	-11007
etime	-11008
▁obesity	-11009
▁secrets	-11010
▁infringe	-11011
▁luncheon	-11012
▁thankful	-11013
▁Christianity	-11014
▁architecture	-11015
razy	-11016
▁boys	-11017
▁pron	-11018
▁seed	-11019
▁Asked	-11020
▁ninth	-11021
iratory	-11022
▁Digital	-11023
▁neutral	-11024
▁indicates	-11025
▁burdensome	-11026
▁69	-11027
▁Ca	-11028
ford	-11029
gyeom	-11030
▁Disc	-11031
▁Walk	-11032
▁flew	-11033
member	-11034
▁bones	-11035
▁pages	-11036
▁resid	-11037
▁wisdom	-11038
▁filling	-11039
▁keyword	-11040
▁Monetary	-11041
cut	-11042
kind	-11043
umes	-11044
▁Rem	-11045
▁fer	-11046
bally	-11047
itary	-11048
▁Mall	-11049
▁bases	-11050
▁Survey	-11051
▁firmly	-11052
▁Display	-11053
▁carpool	-11054
▁Veterans	-11055
▁maximize	-11056
▁developer	-11057
▁dissatisf	-11058
▁specified	-11059
▁manufactured	-11060
due	-11061
sol	-11062
ests	-11063
▁Inha	-11064
▁cups	-11065
ilians	-11066
▁ramen	-11067
▁anonym	-11068
▁blocks	-11069
▁comedy	-11070
▁favors	-11071
▁vacuum	-11072
minister	-11073
▁fighter	-11074
▁rejection	-11075
▁protesting	-11076
tan	-11077
una	-11078
nsic	-11079
▁1.4	-11080
▁Basic	-11081
▁Wonju	-11082
illiant	-11083
▁palace	-11084
avorable	-11085
▁arguing	-11086
▁Researcher	-11087
▁unilaterally	-11088
hi	-11089
ni	-11090
obb	-11091
opic	-11092
▁(30	-11093
▁Emp	-11094
▁Lar	-11095
▁See	-11096
▁adj	-11097
▁Check	-11098
▁boats	-11099
▁steak	-11100
▁Mobile	-11101
▁staged	-11102
▁vacant	-11103
iverpool	-11104
▁assumed	-11105
▁dignity	-11106
▁Alliance	-11107
▁adoption	-11108
▁syndrome	-11109
alt	-11110
spec	-11111
▁CBS	-11112
▁Had	-11113
amsan	-11114
leung	-11115
▁buck	-11116
▁surf	-11117
▁urge	-11118
omeday	-11119
▁Hynix	-11120
▁Third	-11121
▁guitar	-11122
▁locked	-11123
▁sympath	-11124
▁Concerns	-11125
▁nowadays	-11126
▁umbrella	-11127
▁Pharmaceutical	-11128
bus	-11129
opy	-11130
zes	-11131
sters	-11132
▁2008,	-11133
▁Mongol	-11134
▁remitt	-11135
▁Chungju	-11136
▁expired	-11137
▁flowing	-11138
▁manages	-11139
▁pressed	-11140
▁sensors	-11141
▁viewing	-11142
▁climbing	-11143
▁lawsuits	-11144
▁youngest	-11145
▁instrument	-11146
▁transplant	-11147
▁recommendations	-11148
hui	-11149
tier	-11150
▁16,	-11151
▁Rod	-11152
entle	-11153
▁Trad	-11154
▁subt	-11155
▁ward	-11156
terior	-11157
▁Prior	-11158
fielder	-11159
ilation	-11160
▁freeze	-11161
▁Disease	-11162
▁Graduate	-11163
▁probation	-11164
note	-11165
▁Jew	-11166
▁Log	-11167
▁Pop	-11168
▁sla	-11169
arted	-11170
▁Cold	-11171
▁Viol	-11172
▁barely	-11173
▁combine	-11174
▁messenger	-11175
▁suggestion	-11176
▁calculating	-11177
34	-11178
ogi	-11179
pes	-11180
▁LC	-11181
They	-11182
opsy	-11183
▁tum	-11184
▁vig	-11185
ortium	-11186
▁Newsp	-11187
▁semif	-11188
▁butter	-11189
▁hardly	-11190
▁Islamic	-11191
▁Usually	-11192
▁legally	-11193
▁beverage	-11194
▁worrying	-11195
▁Officials	-11196
▁authentic	-11197
▁inspected	-11198
▁triggered	-11199
hin	-11200
see	-11201
iser	-11202
▁Pak	-11203
▁bron	-11204
▁ranks	-11205
osexual	-11206
▁Stephen	-11207
▁reminds	-11208
▁conveyed	-11209
▁displays	-11210
▁occupied	-11211
▁speakers	-11212
▁detective	-11213
▁transferring	-11214
▁revitalization	-11215
1)	-11216
airy	-11217
▁pity	-11218
Please	-11219
▁loves	-11220
▁overl	-11221
▁verge	-11222
▁caring	-11223
▁plunged	-11224
▁trained	-11225
▁veteran	-11226
▁featured	-11227
▁protocol	-11228
▁measuring	-11229
▁testified	-11230
▁88	-11231
▁TF	-11232
aste	-11233
ungh	-11234
▁ICO	-11235
▁2030	-11236
▁fits	-11237
▁fled	-11238
▁wise	-11239
▁blame	-11240
▁fence	-11241
▁boring	-11242
▁intest	-11243
▁Finally	-11244
▁crucial	-11245
▁weekdays	-11246
▁Unfortunately	-11247
EU	-11248
oupe	-11249
▁Duty	-11250
▁sang	-11251
▁polls	-11252
▁concess	-11253
▁screens	-11254
▁newspapers	-11255
▁occupation	-11256
▁represented	-11257
▁approximately	-11258
HAAD	-11259
▁12,	-11260
▁ginseng	-11261
▁profile	-11262
▁reaches	-11263
▁mobility	-11264
▁comparing	-11265
▁introduces	-11266
▁physically	-11267
▁politician	-11268
▁practicing	-11269
izon	-11270
ribe	-11271
orous	-11272
▁Come	-11273
▁barrel	-11274
▁mirror	-11275
▁measles	-11276
▁portray	-11277
▁privacy	-11278
▁refuted	-11279
▁volunteers	-11280
RE	-11281
rong	-11282
▁GDP	-11283
▁god	-11284
gical	-11285
▁sort	-11286
angers	-11287
▁dates	-11288
▁embro	-11289
▁forth	-11290
▁layer	-11291
▁Having	-11292
▁abusing	-11293
▁rooftop	-11294
▁stopping	-11295
▁Experience	-11296
▁Indonesian	-11297
▁discipline	-11298
▁unfavorable	-11299
▁enthusiastic	-11300
ca	-11301
aik	-11302
aro	-11303
omes	-11304
▁horm	-11305
▁scan	-11306
▁cakes	-11307
▁shell	-11308
▁differ	-11309
▁Hanyang	-11310
▁interim	-11311
president	-11312
▁interpre	-11313
▁discharge	-11314
▁forgotten	-11315
▁intermedi	-11316
▁mediation	-11317
▁accomplish	-11318
▁preservation	-11319
MP	-11320
▁tv	-11321
▁190	-11322
▁Jer	-11323
▁Max	-11324
▁Alex	-11325
iating	-11326
▁Liter	-11327
▁Nowon	-11328
▁chips	-11329
▁reborn	-11330
▁measured	-11331
▁purifiers	-11332
▁Everything	-11333
▁retaliation	-11334
odo	-11335
▁Lou	-11336
▁gro	-11337
▁Assoc	-11338
▁maybe	-11339
▁legend	-11340
▁tragedy	-11341
▁Medicine	-11342
▁enormous	-11343
▁coalition	-11344
▁declining	-11345
▁greenhouse	-11346
▁inconvenient	-11347
iller	-11348
▁Camb	-11349
ittees	-11350
▁Campus	-11351
▁budgets	-11352
▁emission	-11353
▁exploded	-11354
▁brilliant	-11355
▁Parliament	-11356
▁accelerate	-11357
▁dramatically	-11358
Ang	-11359
dan	-11360
▁Too	-11361
▁Uber	-11362
▁logo	-11363
author	-11364
▁wrink	-11365
arantee	-11366
▁ancest	-11367
▁closest	-11368
▁coaches	-11369
▁erupted	-11370
▁modified	-11371
▁prediction	-11372
▁excessively	-11373
can	-11374
sim	-11375
yon	-11376
▁74	-11377
▁ax	-11378
hind	-11379
udes	-11380
▁Bur	-11381
▁mud	-11382
otton	-11383
▁ignore	-11384
▁starter	-11385
▁disorders	-11386
▁occurring	-11387
▁structures	-11388
▁publication	-11389
▁consultative	-11390
▁transformation	-11391
-19	-11392
isk	-11393
rat	-11394
iffe	-11395
▁Hun	-11396
▁Mat	-11397
▁Suh	-11398
▁Seven	-11399
▁march	-11400
▁nutri	-11401
▁waist	-11402
▁boasts	-11403
▁digest	-11404
▁liquor	-11405
▁descend	-11406
▁subordin	-11407
▁indirectly	-11408
▁properties	-11409
14	-11410
8.	-11411
lu	-11412
idem	-11413
oshi	-11414
▁Try	-11415
▁nep	-11416
While	-11417
▁Daes	-11418
hedral	-11419
▁irrit	-11420
▁medic	-11421
▁pitch	-11422
▁Father	-11423
▁mining	-11424
▁newlyw	-11425
▁adverse	-11426
▁imposing	-11427
▁foreigner	-11428
▁prosperity	-11429
hew	-11430
rawn	-11431
▁Bor	-11432
▁Eag	-11433
▁dur	-11434
▁Chic	-11435
▁cave	-11436
▁kiss	-11437
ateral	-11438
▁thres	-11439
factory	-11440
▁affair	-11441
▁rookie	-11442
ientious	-11443
▁decides	-11444
▁intends	-11445
▁vitamin	-11446
▁poisoning	-11447
▁shoulders	-11448
▁submitting	-11449
AP	-11450
rey	-11451
byon	-11452
ials	-11453
song	-11454
▁Top	-11455
onies	-11456
▁Deal	-11457
▁Wind	-11458
▁clip	-11459
▁Story	-11460
▁finds	-11461
▁Pangyo	-11462
▁courts	-11463
▁deduct	-11464
▁insult	-11465
▁laptop	-11466
▁elastic	-11467
▁updated	-11468
▁distorted	-11469
▁intensively	-11470
▁regrettable	-11471
▁accessibility	-11472
irm	-11473
sum	-11474
Moon	-11475
▁Tak	-11476
amine	-11477
▁beds	-11478
▁foul	-11479
▁hoping	-11480
▁enacted	-11481
▁Language	-11482
▁brokerage	-11483
▁Enforcement	-11484
▁Av	-11485
keun	-11486
▁sib	-11487
issan	-11488
mouth	-11489
▁chew	-11490
▁poly	-11491
flight	-11492
▁Battle	-11493
▁Inside	-11494
▁random	-11495
▁surviv	-11496
▁Ulleung	-11497
▁relaxed	-11498
▁totally	-11499
▁Orchestra	-11500
.0%	-11501
lif	-11502
▁Mic	-11503
Palem	-11504
inals	-11505
▁Mobis	-11506
▁brown	-11507
▁chaos	-11508
▁cried	-11509
▁Estate	-11510
▁glance	-11511
▁booking	-11512
▁circuit	-11513
▁remodel	-11514
▁literary	-11515
▁Liverpool	-11516
▁defamation	-11517
▁predicting	-11518
▁inflammation	-11519
Sm	-11520
▁Ku	-11521
▁Bet	-11522
▁Bin	-11523
▁width	-11524
▁Andong	-11525
▁mature	-11526
▁Dongjak	-11527
▁Mexican	-11528
▁embassy	-11529
▁islands	-11530
Palembang	-11531
▁preserve	-11532
▁Hankyoreh	-11533
▁civilians	-11534
▁evacuated	-11535
▁providers	-11536
▁broadcasted	-11537
▁probability	-11538
BI	-11539
Bl	-11540
▁Ae	-11541
imens	-11542
woman	-11543
weight	-11544
▁Harry	-11545
▁Messi	-11546
▁Cambod	-11547
▁endure	-11548
▁Traffic	-11549
▁athlete	-11550
▁observers	-11551
▁specialist	-11552
3)	-11553
Russ	-11554
▁Bum	-11555
child	-11556
ector	-11557
▁Nether	-11558
▁doubts	-11559
▁Challen	-11560
▁Canadian	-11561
▁treating	-11562
▁qualified	-11563
▁sacrifice	-11564
▁commissioned	-11565
Cons	-11566
apes	-11567
geuk	-11568
gyun	-11569
▁15,	-11570
▁aer	-11571
leges	-11572
shore	-11573
▁Wage	-11574
▁Obama	-11575
▁excuse	-11576
▁baggage	-11577
▁enhanced	-11578
▁apparently	-11579
▁perpetrator	-11580
mn	-11581
▁.	-11582
9),	-11583
rich	-11584
▁LNG	-11585
▁Tor	-11586
▁Expo	-11587
▁Note	-11588
▁sung	-11589
angeum	-11590
▁masks	-11591
▁toxic	-11592
▁Integr	-11593
▁insect	-11594
▁noodle	-11595
▁panels	-11596
▁shadow	-11597
▁tissue	-11598
▁worsen	-11599
▁painted	-11600
▁revived	-11601
▁undergo	-11602
▁paradigm	-11603
▁substitute	-11604
38	-11605
yi	-11606
cul	-11607
▁78	-11608
▁Cert	-11609
gorith	-11610
lisher	-11611
▁allev	-11612
▁housew	-11613
▁lasted	-11614
▁Namyangju	-11615
▁collateral	-11616
▁committing	-11617
▁Prosecution	-11618
▁confidential	-11619
▁conveniently	-11620
▁prescription	-11621
7.	-11622
PO	-11623
aki	-11624
pread	-11625
stery	-11626
▁Soft	-11627
▁balls	-11628
▁Master	-11629
National	-11630
▁trusted	-11631
▁Railroad	-11632
▁scattered	-11633
▁witnessed	-11634
▁spokesperson	-11635
lor	-11636
▁71	-11637
alle	-11638
▁Coal	-11639
▁holes	-11640
▁magic	-11641
▁Origin	-11642
▁Secret	-11643
▁lovers	-11644
▁Donghae	-11645
▁servant	-11646
▁Partners	-11647
▁heritage	-11648
▁Francisco	-11649
▁Guarantee	-11650
▁excavation	-11651
26	-11652
gap	-11653
zed	-11654
inqu	-11655
▁Ten	-11656
▁yog	-11657
imbap	-11658
▁CEOs	-11659
▁Didn	-11660
irates	-11661
▁Resort	-11662
▁nerves	-11663
▁printed	-11664
▁amounted	-11665
▁reserves	-11666
▁upgraded	-11667
▁frustrated	-11668
▁accordingly	-11669
▁instruments	-11670
▁disadvantages	-11671
gar	-11672
▁Gate	-11673
▁chip	-11674
▁tort	-11675
ulsion	-11676
▁ghost	-11677
▁greed	-11678
▁wides	-11679
▁Chicago	-11680
▁subsidy	-11681
▁withdrew	-11682
▁applicant	-11683
▁breakdown	-11684
▁Commercial	-11685
▁documentary	-11686
Che	-11687
mig	-11688
illy	-11689
inema	-11690
oviet	-11691
▁Rich	-11692
▁pose	-11693
atches	-11694
▁Woong	-11695
▁spare	-11696
▁lately	-11697
▁faculty	-11698
▁liaison	-11699
▁Standard	-11700
▁nutrition	-11701
▁Participants	-11702
▁disappearance	-11703
zb	-11704
▁90%	-11705
arded	-11706
joong	-11707
ranked	-11708
itivity	-11709
▁Maduro	-11710
▁delete	-11711
▁Typhoon	-11712
▁ideology	-11713
▁salaries	-11714
▁Taekwondo	-11715
▁reservoir	-11716
▁contractor	-11717
▁translated	-11718
▁experiments	-11719
PC	-11720
▁COE	-11721
▁Sir	-11722
-2019	-11723
shine	-11724
▁adap	-11725
▁webt	-11726
played	-11727
▁2020,	-11728
▁4,000	-11729
▁Hydro	-11730
▁fatal	-11731
▁soybe	-11732
▁weird	-11733
▁gentle	-11734
▁presum	-11735
▁improves	-11736
▁lifetime	-11737
▁considers	-11738
▁luxurious	-11739
▁threshold	-11740
▁vocational	-11741
▁widespread	-11742
▁requirement	-11743
▁DM	-11744
▁hill	-11745
▁odds	-11746
▁Chair	-11747
ptitude	-11748
usement	-11749
▁Respon	-11750
▁autopsy	-11751
▁observe	-11752
▁renewed	-11753
▁Sookmyung	-11754
▁answering	-11755
▁struggled	-11756
▁chairperson	-11757
kyo	-11758
▁CO	-11759
▁je	-11760
▁(18	-11761
▁1.7	-11762
▁Inv	-11763
▁Tex	-11764
▁tor	-11765
▁cust	-11766
▁pion	-11767
▁Shimb	-11768
▁Treat	-11769
▁belly	-11770
working	-11771
▁Around	-11772
▁nephew	-11773
▁shrimp	-11774
▁sunset	-11775
▁executed	-11776
▁matching	-11777
▁phishing	-11778
▁indicator	-11779
▁tightening	-11780
va	-11781
oche	-11782
rows	-11783
▁Kol	-11784
igers	-11785
lower	-11786
▁trem	-11787
▁Bears	-11788
▁Nobel	-11789
▁dying	-11790
ologist	-11791
▁hitter	-11792
▁valley	-11793
▁Shimbun	-11794
▁happily	-11795
▁shouted	-11796
▁skating	-11797
▁colleges	-11798
▁troubles	-11799
▁dependent	-11800
▁fantastic	-11801
▁prejudice	-11802
▁realizing	-11803
32	-11804
ST	-11805
arao	-11806
▁inh	-11807
irmed	-11808
direct	-11809
hosted	-11810
▁recre	-11811
rection	-11812
▁Living	-11813
ographic	-11814
▁psychiat	-11815
▁socially	-11816
▁negligence	-11817
▁Netherlands	-11818
▁broadcasters	-11819
▁improvements	-11820
▁circumstantial	-11821
Dae	-11822
will	-11823
▁60%	-11824
▁Far	-11825
▁Kaz	-11826
▁Tes	-11827
hyang	-11828
▁rely	-11829
▁beans	-11830
▁depri	-11831
▁boiler	-11832
▁Kingdom	-11833
▁confisc	-11834
▁moistur	-11835
▁contacting	-11836
▁healthcare	-11837
36	-11838
▁112	-11839
▁Cat	-11840
▁Ira	-11841
▁abd	-11842
▁lev	-11843
▁stew	-11844
araoke	-11845
esters	-11846
▁resting	-11847
▁stabbed	-11848
▁engineer	-11849
▁episodes	-11850
▁maturity	-11851
▁monopoly	-11852
▁stealing	-11853
▁unemployed	-11854
▁congratulatory	-11855
55	-11856
7)	-11857
9.	-11858
▁pair	-11859
▁Geoje	-11860
▁copies	-11861
▁Citizen	-11862
▁adolesc	-11863
▁affects	-11864
▁disrupt	-11865
▁forcing	-11866
▁refrain	-11867
▁Together	-11868
▁virtuous	-11869
▁animation	-11870
▁musicians	-11871
▁withdrawn	-11872
▁correspond	-11873
May	-11874
▁CG	-11875
priv	-11876
ushi	-11877
▁110	-11878
▁1970	-11879
▁2012.	-11880
appiness	-11881
▁keynote	-11882
▁moments	-11883
▁someday	-11884
▁dominant	-11885
▁suppress	-11886
▁accusation	-11887
▁refreshing	-11888
▁practically	-11889
▁subcommittee	-11890
▁YG	-11891
uros	-11892
▁kne	-11893
lywood	-11894
▁moral	-11895
▁wider	-11896
▁argues	-11897
▁nurses	-11898
▁rivers	-11899
▁wounds	-11900
▁trapped	-11901
▁vaccine	-11902
▁adjacent	-11903
▁promises	-11904
imensional	-11905
▁acquitted	-11906
▁requiring	-11907
▁retailers	-11908
▁stipulates	-11909
▁candlelight	-11910
▁contributions	-11911
imi	-11912
▁Po	-11913
leum	-11914
eland	-11915
▁Fine	-11916
▁Soul	-11917
▁poem	-11918
iatory	-11919
▁Event	-11920
▁probe	-11921
▁radar	-11922
▁Gochang	-11923
▁sparked	-11924
▁Whenever	-11925
▁commerce	-11926
▁fiercely	-11927
▁freezing	-11928
▁attacking	-11929
▁intervene	-11930
▁mechanism	-11931
▁volleyball	-11932
ba	-11933
isa	-11934
▁vo	-11935
baek	-11936
▁Duk	-11937
eries	-11938
▁Rock	-11939
▁Sign	-11940
▁bean	-11941
essment	-11942
verning	-11943
▁Subway	-11944
▁dermat	-11945
▁viewer	-11946
economic	-11947
▁periods	-11948
▁narrowed	-11949
▁ballistic	-11950
▁collision	-11951
▁Saemangeum	-11952
▁concerning	-11953
3),	-11954
▁Daed	-11955
▁Week	-11956
▁Texas	-11957
inction	-11958
▁Colomb	-11959
▁Daniel	-11960
▁briefly	-11961
▁convert	-11962
▁deciding	-11963
▁delivers	-11964
▁findings	-11965
▁proceeds	-11966
▁helicopters	-11967
▁denuclearize	-11968
bor	-11969
abul	-11970
onic	-11971
▁Iraq	-11972
▁Matt	-11973
▁coinc	-11974
▁rhyth	-11975
▁yours	-11976
▁Growth	-11977
▁Travel	-11978
American	-11979
▁Yongbyon	-11980
▁cellphone	-11981
▁successor	-11982
▁surrounded	-11983
▁procurement	-11984
▁counterattack	-11985
▁investigators	-11986
asm	-11987
▁Id	-11988
▁dio	-11989
tress	-11990
▁Kids	-11991
eeping	-11992
people	-11993
▁cotton	-11994
▁parade	-11995
▁Minimum	-11996
▁spreads	-11997
▁2018-2019	-11998
▁allocated	-11999
▁correctly	-12000
▁headquarter	-12001
RS	-12002
Our	-12003
isy	-12004
koo	-12005
rav	-12006
urp	-12007
▁5%	-12008
zbek	-12009
▁3.5	-12010
▁Use	-12011
ceans	-12012
▁noon	-12013
▁ambul	-12014
mination	-12015
▁Railway	-12016
▁airplane	-12017
▁contacts	-12018
▁innocence	-12019
▁possession	-12020
▁contributing	-12021
DB	-12022
yan	-12023
▁160	-12024
▁Kun	-12025
▁Ord	-12026
▁hun	-12027
eller	-12028
heric	-12029
astics	-12030
▁cliff	-12031
lements	-12032
limited	-12033
▁Decree	-12034
▁booths	-12035
▁blowing	-12036
developed	-12037
▁Buddhist	-12038
▁mentally	-12039
▁unfairly	-12040
privileged	-12041
▁Depending	-12042
▁Enterprise	-12043
▁bargaining	-12044
▁faithfully	-12045
ss	-12046
5),	-12047
ows	-12048
avan	-12049
▁2.2	-12050
▁Tech	-12051
▁flaw	-12052
sports	-12053
▁1,500	-12054
▁Guang	-12055
▁unity	-12056
western	-12057
▁Measures	-12058
▁commonly	-12059
▁railways	-12060
▁stagnant	-12061
.)	-12062
▁82	-12063
burg	-12064
▁Ken	-12065
added	-12066
▁Clin	-12067
▁shoe	-12068
omfort	-12069
▁Impro	-12070
▁crops	-12071
▁infer	-12072
▁paste	-12073
▁pipes	-12074
▁radon	-12075
▁Nissan	-12076
▁routine	-12077
isfactory	-12078
▁delaying	-12079
▁develops	-12080
▁Newspaper	-12081
▁recognizes	-12082
▁reorganized	-12083
Fi	-12084
Hy	-12085
▁AP	-12086
▁Hen	-12087
▁Nan	-12088
aping	-12089
ragon	-12090
▁fing	-12091
▁sued	-12092
ieties	-12093
▁Front	-12094
▁adequ	-12095
▁Soviet	-12096
▁Vision	-12097
▁cataly	-12098
▁oldest	-12099
▁arrives	-12100
▁cluster	-12101
▁delinqu	-12102
▁fastest	-12103
▁detained	-12104
▁immunity	-12105
▁incorrect	-12106
▁practiced	-12107
▁associated	-12108
▁influential	-12109
▁intelligent	-12110
▁refrigerator	-12111
All	-12112
eff	-12113
sub	-12114
▁bom	-12115
▁lane	-12116
▁2007,	-12117
▁Tesla	-12118
▁intake	-12119
▁orange	-12120
▁cheered	-12121
▁packing	-12122
▁algorith	-12123
elve	-12124
▁Stan	-12125
▁boyc	-12126
▁admit	-12127
▁drops	-12128
private	-12129
▁Sexual	-12130
▁Stream	-12131
▁pepper	-12132
▁lottery	-12133
▁expresses	-12134
▁mentioning	-12135
▁communicating	-12136
hop	-12137
eous	-12138
▁Sul	-12139
▁Chil	-12140
▁Give	-12141
▁diam	-12142
angled	-12143
▁Santa	-12144
▁dense	-12145
▁loyal	-12146
▁gotten	-12147
▁consequ	-12148
▁contrad	-12149
▁pledges	-12150
▁revival	-12151
▁delicate	-12152
▁guardian	-12153
▁isolated	-12154
▁calculate	-12155
▁beneficial	-12156
▁medication	-12157
▁pollutants	-12158
bye	-12159
fly	-12160
rum	-12161
▁0.0	-12162
▁1,0	-12163
▁KIA	-12164
▁Shi	-12165
▁zoo	-12166
▁carc	-12167
▁cock	-12168
▁crab	-12169
▁mush	-12170
▁Metro	-12171
▁Truth	-12172
▁Uzbek	-12173
▁giant	-12174
▁Animal	-12175
▁Modern	-12176
▁kidney	-12177
▁spouse	-12178
▁Kangwon	-12179
▁unchang	-12180
▁duration	-12181
▁veterans	-12182
▁corrected	-12183
▁memorable	-12184
▁respected	-12185
▁universal	-12186
▁Gwangmyeong	-12187
▁underprivileged	-12188
HO	-12189
hon	-12190
▁hyp	-12191
roads	-12192
third	-12193
▁Rain	-12194
▁fool	-12195
▁genres	-12196
▁varies	-12197
▁satisfy	-12198
▁shifted	-12199
▁pressing	-12200
▁rainfall	-12201
▁commented	-12202
▁counterpart	-12203
37	-12204
▁5.1	-12205
chair	-12206
▁buff	-12207
forming	-12208
▁desert	-12209
▁verbal	-12210
vergence	-12211
▁earning	-12212
▁hygiene	-12213
▁flooding	-12214
▁employers	-12215
istribution	-12216
▁fraudulent	-12217
▁Bad	-12218
▁Tri	-12219
▁sne	-12220
▁Mult	-12221
▁gene	-12222
public	-12223
▁clock	-12224
▁juniors	-12225
▁appliance	-12226
▁commuting	-12227
▁inspector	-12228
▁committees	-12229
▁comprehens	-12230
▁mechanical	-12231
▁efficiently	-12232
▁significance	-12233
8),	-12234
pow	-12235
umni	-12236
▁DNA	-12237
▁slept	-12238
isional	-12239
wardship	-12240
▁Against	-12241
▁leather	-12242
▁Americans	-12243
▁copyright	-12244
▁maintains	-12245
▁biological	-12246
▁demolition	-12247
▁desperately	-12248
▁distinguish	-12249
bel	-12250
pack	-12251
unte	-12252
yard	-12253
▁(20	-12254
▁18,	-12255
▁Ram	-12256
ariat	-12257
▁tear	-12258
abouts	-12259
taking	-12260
▁alien	-12261
▁crazy	-12262
▁perce	-12263
chnology	-12264
▁signals	-12265
▁coaching	-12266
▁mattress	-12267
▁revenues	-12268
▁symbolic	-12269
▁arrangement	-12270
▁meaningless	-12271
ila	-12272
nae	-12273
rye	-12274
two	-12275
whe	-12276
imir	-12277
prin	-12278
ulus	-12279
▁Chu	-12280
ipple	-12281
stone	-12282
▁Kane	-12283
▁Mosc	-12284
▁carp	-12285
ounced	-12286
▁Shall	-12287
▁angle	-12288
▁theft	-12289
ployees	-12290
▁Castle	-12291
▁Disney	-12292
▁bullpen	-12293
▁catches	-12294
▁refusal	-12295
▁obstacle	-12296
▁refusing	-12297
▁embroiled	-12298
▁indicated	-12299
▁shipments	-12300
▁commentary	-12301
▁exchanging	-12302
▁disagreement	-12303
▁commercialized	-12304
4),	-12305
Man	-12306
duk	-12307
hoe	-12308
iar	-12309
▁86	-12310
▁Dub	-12311
▁cra	-12312
▁dim	-12313
▁mild	-12314
▁soap	-12315
second	-12316
▁ankle	-12317
▁inval	-12318
▁landl	-12319
▁vague	-12320
▁Centers	-12321
▁dioxide	-12322
▁vacancy	-12323
▁entirely	-12324
▁exterior	-12325
▁depressed	-12326
▁discontin	-12327
▁internally	-12328
▁disposition	-12329
▁revitalizing	-12330
▁Championships	-12331
PM	-12332
Han	-12333
away	-12334
zone	-12335
▁Bab	-12336
▁TVs	-12337
▁VIP	-12338
▁List	-12339
▁Thus	-12340
lusive	-12341
▁Cheil	-12342
▁exert	-12343
▁portfol	-12344
▁sellers	-12345
▁vicious	-12346
▁backdrop	-12347
▁libraries	-12348
▁opponents	-12349
▁workforce	-12350
▁confession	-12351
▁indicating	-12352
▁occurrence	-12353
▁photographer	-12354
Cho	-12355
base	-12356
rams	-12357
▁2.0	-12358
▁appet	-12359
▁majors	-12360
▁speaks	-12361
▁tenant	-12362
olitical	-12363
ortunate	-12364
▁stalled	-12365
▁bleeding	-12366
▁finances	-12367
▁emergence	-12368
▁encounter	-12369
▁automotive	-12370
▁motivation	-12371
▁deteriorated	-12372
▁specifications	-12373
5)	-12374
dec	-12375
supp	-12376
▁30,	-12377
osaur	-12378
▁lake	-12379
urpose	-12380
▁Peter	-12381
▁Trust	-12382
▁united	-12383
▁custody	-12384
▁picking	-12385
▁subsequ	-12386
▁controls	-12387
▁merchant	-12388
▁oriental	-12389
vironments	-12390
▁addiction	-12391
▁diversity	-12392
▁extending	-12393
▁whereabouts	-12394
new	-12395
dict	-12396
utch	-12397
▁Sae	-12398
▁ash	-12399
▁impl	-12400
ometer	-12401
▁naked	-12402
▁relay	-12403
▁lacked	-12404
▁possess	-12405
▁Vladimir	-12406
▁fighters	-12407
▁petitions	-12408
▁reforming	-12409
▁terrorist	-12410
▁Provisional	-12411
▁inconveniences	-12412
obo	-12413
▁Run	-12414
▁Doct	-12415
▁ampl	-12416
▁crus	-12417
▁2022.	-12418
conduct	-12419
ifiable	-12420
▁Macron	-12421
▁Muslim	-12422
▁conjun	-12423
▁trauma	-12424
▁cleaner	-12425
including	-12426
▁Interest	-12427
▁Products	-12428
▁Corporate	-12429
dimensional	-12430
▁Legislation	-12431
27	-12432
▁Ba	-12433
acco	-12434
▁mos	-12435
Gwang	-12436
first	-12437
▁Ball	-12438
ashing	-12439
rating	-12440
semble	-12441
▁bored	-12442
▁flock	-12443
▁condem	-12444
▁timely	-12445
▁Autonom	-12446
▁revenge	-12447
▁packages	-12448
▁defending	-12449
▁forefront	-12450
▁guideline	-12451
▁publicity	-12452
▁mainstream	-12453
▁recovering	-12454
▁appreciation	-12455
bul	-12456
ira	-12457
▁mad	-12458
aints	-12459
▁Sach	-12460
▁loses	-12461
▁naval	-12462
▁evangel	-12463
▁lightly	-12464
▁optimal	-12465
▁amusement	-12466
▁arguments	-12467
▁enhancing	-12468
▁normalize	-12469
▁definition	-12470
▁installment	-12471
▁realization	-12472
▁missionaries	-12473
▁conscientious	-12474
kin	-12475
haul	-12476
▁rup	-12477
akery	-12478
▁Beom	-12479
▁owns	-12480
▁coins	-12481
▁pasta	-12482
▁Eagles	-12483
▁compat	-12484
▁dental	-12485
▁divide	-12486
▁Taegeuk	-12487
▁drastic	-12488
▁element	-12489
▁falsely	-12490
▁faithful	-12491
▁environments	-12492
▁countermeasure	-12493
auc	-12494
▁79	-12495
▁PO	-12496
onel	-12497
with	-12498
▁bars	-12499
▁Hawai	-12500
▁Using	-12501
▁seeks	-12502
abulary	-12503
▁40,000	-12504
▁Seosan	-12505
▁Techno	-12506
▁cleans	-12507
▁evenly	-12508
▁rented	-12509
▁Volunte	-12510
▁neither	-12511
▁silence	-12512
▁surveys	-12513
▁enforced	-12514
▁Eunpyeong	-12515
▁commentator	-12516
oper	-12517
▁SAT	-12518
asket	-12519
cedes	-12520
▁Coup	-12521
▁Mass	-12522
▁Sent	-12523
▁cere	-12524
▁Dance	-12525
▁shirt	-12526
verages	-12527
▁pyeong	-12528
▁triple	-12529
▁Consult	-12530
▁dreamed	-12531
▁pursuit	-12532
▁audition	-12533
▁collided	-12534
▁reinvest	-12535
ordination	-12536
▁bookstore	-12537
▁designers	-12538
▁arbitration	-12539
▁infringement	-12540
▁reinforcement	-12541
48	-12542
6),	-12543
▁IM	-12544
warm	-12545
▁Six	-12546
▁jam	-12547
▁lamp	-12548
▁eager	-12549
▁scary	-12550
▁texts	-12551
▁Moscow	-12552
▁Shilla	-12553
▁allies	-12554
▁guided	-12555
▁regain	-12556
▁competed	-12557
▁interrog	-12558
▁undermin	-12559
▁integrity	-12560
▁homosexual	-12561
▁provisions	-12562
▁dismantling	-12563
21	-12564
39	-12565
EN	-12566
-20	-12567
▁0.1	-12568
▁sou	-12569
▁cous	-12570
iliary	-12571
▁Armed	-12572
▁Still	-12573
▁culpr	-12574
▁dolls	-12575
▁advisor	-12576
▁facilit	-12577
▁mystery	-12578
▁Overseas	-12579
▁purifier	-12580
▁approaches	-12581
▁evaluations	-12582
▁economically	-12583
CS	-12584
agu	-12585
from	-12586
▁14,	-12587
▁Tim	-12588
▁lad	-12589
cheok	-12590
itors	-12591
▁prog	-12592
ablish	-12593
▁15,000	-12594
▁Berlin	-12595
▁Ethics	-12596
▁dining	-12597
gressive	-12598
▁clarify	-12599
▁exported	-12600
▁supplier	-12601
▁behaviors	-12602
▁altogether	-12603
▁remarkable	-12604
▁respective	-12605
▁simultaneous	-12606
RAM	-12607
aba	-12608
ania	-12609
▁Fan	-12610
▁Get	-12611
ebook	-12612
▁insist	-12613
▁reiter	-12614
▁hardships	-12615
hereinafter	-12616
▁motorcycle	-12617
▁unilateral	-12618
▁flexibility	-12619
▁manufacture	-12620
▁98	-12621
▁han	-12622
▁Cook	-12623
▁mold	-12624
ailing	-12625
ilitar	-12626
▁Crime	-12627
▁Frank	-12628
▁fears	-12629
▁seeds	-12630
▁Beauty	-12631
▁surely	-12632
daughter	-12633
▁Conserv	-12634
▁newborn	-12635
▁Advanced	-12636
▁Jincheon	-12637
▁engineers	-12638
▁broadcasts	-12639
▁scientists	-12640
▁appointments	-12641
ras	-12642
ref	-12643
check	-12644
piece	-12645
▁Recon	-12646
▁grave	-12647
▁captiv	-12648
▁surged	-12649
▁taxpay	-12650
atorship	-12651
▁dynamic	-12652
▁karaoke	-12653
▁pleased	-12654
▁Cambodia	-12655
▁analyzes	-12656
▁licenses	-12657
▁validity	-12658
▁colleague	-12659
▁regulated	-12660
▁vegetable	-12661
performance	-12662
▁Assessment	-12663
▁deployment	-12664
▁discomfort	-12665
▁franchises	-12666
▁unfortunate	-12667
LO	-12668
ola	-12669
pol	-12670
▁mm	-12671
ESCO	-12672
onia	-12673
▁31,	-12674
oding	-12675
photo	-12676
▁Hwan	-12677
▁eleg	-12678
▁Order	-12679
▁blamed	-12680
▁bronze	-12681
▁hiking	-12682
▁tables	-12683
▁forecasts	-12684
▁Uzbekistan	-12685
▁complement	-12686
▁destroying	-12687
▁litigation	-12688
▁vocabulary	-12689
▁6-	-12690
owon	-12691
▁30-	-12692
▁Ant	-12693
▁Jam	-12694
▁Rom	-12695
▁vou	-12696
venir	-12697
▁Willi	-12698
▁plunge	-12699
▁propag	-12700
▁Kumgang	-12701
▁Natural	-12702
▁bonuses	-12703
▁climbed	-12704
▁Ceremony	-12705
▁accuracy	-12706
▁nickname	-12707
▁receipts	-12708
▁starring	-12709
authorized	-12710
▁Challenge	-12711
▁acquiring	-12712
▁liberation	-12713
▁progressed	-12714
▁consignment	-12715
▁quarterfinals	-12716
DC	-12717
GA	-12718
Acc	-12719
gal	-12720
iat	-12721
enes	-12722
▁13,	-12723
▁17,	-12724
▁Opp	-12725
▁hem	-12726
kwang	-12727
umber	-12728
▁View	-12729
gments	-12730
▁Woods	-12731
▁bonus	-12732
▁compl	-12733
▁gross	-12734
▁meter	-12735
▁reaff	-12736
▁villa	-12737
▁filing	-12738
catching	-12739
▁carries	-12740
▁Sciences	-12741
▁Hollywood	-12742
▁Seongdong	-12743
▁offenders	-12744
▁administrator	-12745
oro	-12746
home	-12747
▁Nav	-12748
fried	-12749
▁2002	-12750
▁leaf	-12751
▁penc	-12752
▁sexy	-12753
▁soju	-12754
▁tire	-12755
▁Khash	-12756
▁fairly	-12757
restrial	-12758
▁aptitude	-12759
▁departed	-12760
▁detached	-12761
▁exempted	-12762
▁theaters	-12763
▁Apartment	-12764
▁countless	-12765
▁unchanged	-12766
▁semifinals	-12767
dig	-12768
ims	-12769
Tech	-12770
adae	-12771
asia	-12772
gies	-12773
oust	-12774
▁Sug	-12775
▁haz	-12776
ields	-12777
▁coat	-12778
▁dent	-12779
▁Cloud	-12780
▁apple	-12781
▁brush	-12782
▁sandw	-12783
▁trail	-12784
raction	-12785
upyeong	-12786
▁hambur	-12787
▁landsl	-12788
tication	-12789
▁Goldman	-12790
▁default	-12791
▁freight	-12792
▁selects	-12793
represent	-12794
▁appropri	-12795
▁handsome	-12796
▁Yeongjong	-12797
▁challenged	-12798
▁consortium	-12799
occ	-12800
urt	-12801
emia	-12802
teok	-12803
▁Atl	-12804
▁Wom	-12805
▁jew	-12806
▁Myan	-12807
▁bump	-12808
▁pigs	-12809
▁Ahead	-12810
▁CCTVs	-12811
▁THAAD	-12812
▁Taean	-12813
▁insol	-12814
▁piled	-12815
▁weren	-12816
▁Mercedes	-12817
▁headlines	-12818
▁Evaluation	-12819
▁Convergence	-12820
▁congressman	-12821
▁intentional	-12822
▁retaliatory	-12823
▁commemoration	-12824
dot	-12825
non	-12826
empl	-12827
inch	-12828
ugal	-12829
▁Psy	-12830
▁Fort	-12831
▁Mill	-12832
▁sake	-12833
▁torn	-12834
▁Never	-12835
▁Sachs	-12836
▁fract	-12837
▁Suspic	-12838
▁chairs	-12839
▁Chicken	-12840
▁airports	-12841
▁provider	-12842
▁convicted	-12843
▁publisher	-12844
▁evaluating	-12845
▁remittance	-12846
▁Traditional	-12847
▁celebrating	-12848
▁fingerprint	-12849
pre	-12850
▁ace	-12851
▁bib	-12852
alent	-12853
eling	-12854
▁Mang	-12855
▁Phot	-12856
▁deny	-12857
asting	-12858
former	-12859
▁kilog	-12860
earning	-12861
▁Sangju	-12862
▁preview	-12863
▁strikes	-12864
▁obstacles	-12865
▁navigation	-12866
▁profitable	-12867
▁spectators	-12868
▁terminated	-12869
▁manipulated	-12870
▁sponsorship	-12871
▁petrochemical	-12872
ixt	-12873
main	-12874
oggi	-12875
requ	-12876
▁FTA	-12877
hetic	-12878
ounge	-12879
▁OECD	-12880
▁mile	-12881
▁sink	-12882
▁sour	-12883
▁skept	-12884
▁Little	-12885
▁biased	-12886
▁string	-12887
▁summar	-12888
▁adviser	-12889
▁hearings	-12890
▁justices	-12891
▁violates	-12892
▁companion	-12893
▁creditors	-12894
▁absolutely	-12895
▁sovereignty	-12896
▁Intellectual	-12897
▁deliberately	-12898
700	-12899
Con	-12900
eem	-12901
▁7-	-12902
gans	-12903
ideo	-12904
▁24-	-12905
▁3.3	-12906
▁Sri	-12907
▁Cafe	-12908
▁Rose	-12909
▁stere	-12910
▁Coffee	-12911
ensation	-12912
▁Belgium	-12913
▁quietly	-12914
▁headache	-12915
▁Employees	-12916
▁nutrients	-12917
▁allocation	-12918
▁containers	-12919
▁PyeongChang	-12920
▁acknowledge	-12921
▁determining	-12922
IF	-12923
apy	-12924
uis	-12925
▁97	-12926
▁LH	-12927
brid	-12928
laim	-12929
yeom	-12930
▁28,	-12931
▁3.1	-12932
▁350	-12933
▁Hom	-12934
▁Kor	-12935
▁rall	-12936
▁sons	-12937
▁vend	-12938
houses	-12939
itudes	-12940
uality	-12941
▁Cyber	-12942
▁Study	-12943
▁euros	-12944
▁Action	-12945
▁UNESCO	-12946
▁assert	-12947
▁careers	-12948
▁confron	-12949
▁nurture	-12950
▁regards	-12951
▁hesitate	-12952
▁offshore	-12953
▁shrinking	-12954
▁atmospheric	-12955
map	-12956
▁140	-12957
▁cogn	-12958
▁wing	-12959
seeing	-12960
▁cloth	-12961
▁fusion	-12962
▁cleaned	-12963
▁gallery	-12964
▁Seongsan	-12965
▁cosmetic	-12966
▁restroom	-12967
▁souvenir	-12968
▁Assistant	-12969
▁recycling	-12970
▁extinguished	-12971
▁firefighting	-12972
▁Ep	-12973
acon	-12974
risk	-12975
▁Cle	-12976
▁Pun	-12977
▁Toy	-12978
▁ads	-12979
▁abst	-12980
▁forc	-12981
▁scal	-12982
▁ambig	-12983
▁cough	-12984
▁dirty	-12985
▁steam	-12986
▁blanket	-12987
▁jumping	-12988
▁sadness	-12989
▁tactics	-12990
▁verdict	-12991
▁Economics	-12992
▁attachment	-12993
▁subcontractors	-12994
ET	-12995
OT	-12996
rot	-12997
ders	-12998
idal	-12999
yeop	-13000
▁tvN	-13001
andum	-13002
cover	-13003
ument	-13004
▁gray	-13005
▁nail	-13006
▁tape	-13007
▁Hanam	-13008
▁laser	-13009
▁Except	-13010
▁Myanmar	-13011
▁attends	-13012
▁devoted	-13013
▁officet	-13014
▁Khashoggi	-13015
▁Microsoft	-13016
▁lightning	-13017
▁conscience	-13018
▁revelation	-13019
▁obstruction	-13020
▁associations	-13021
22	-13022
ollar	-13023
▁intim	-13024
▁opera	-13025
▁Minjoo	-13026
▁audits	-13027
▁hinted	-13028
▁provoc	-13029
▁empathy	-13030
▁fitness	-13031
▁legitimate	-13032
idel	-13033
lace	-13034
▁Rome	-13035
▁Tire	-13036
▁fasc	-13037
▁Latin	-13038
▁cheek	-13039
▁retro	-13040
▁Hadong	-13041
▁calmly	-13042
▁synthe	-13043
▁delight	-13044
▁endless	-13045
▁Blockchain	-13046
▁midfielder	-13047
▁conditioners	-13048
▁Reconciliation	-13049
5%	-13050
sin	-13051
▁AT	-13052
Some	-13053
uine	-13054
▁Has	-13055
▁Liu	-13056
▁Sav	-13057
inter	-13058
intro	-13059
overs	-13060
▁assume	-13061
▁drills	-13062
▁indeed	-13063
▁loaded	-13064
▁unpaid	-13065
▁courier	-13066
▁minimal	-13067
▁rolling	-13068
▁surgical	-13069
▁Appraisal	-13070
▁reinforce	-13071
▁transfers	-13072
▁ultrafine	-13073
▁extinguish	-13074
▁advancement	-13075
▁identifying	-13076
App	-13077
▁DS	-13078
▁Ta	-13079
press	-13080
shirt	-13081
▁Site	-13082
▁gest	-13083
▁intr	-13084
▁plot	-13085
▁Kolon	-13086
▁Wanna	-13087
▁annoy	-13088
▁imbal	-13089
▁nerve	-13090
▁sizes	-13091
▁Biolog	-13092
▁Mother	-13093
▁sprink	-13094
▁cartoon	-13095
▁slavery	-13096
▁useless	-13097
▁Reporter	-13098
▁trainees	-13099
▁insisting	-13100
▁conglomerate	-13101
▁dictatorship	-13102
▁ok	-13103
RAIL	-13104
eram	-13105
▁cam	-13106
▁jet	-13107
▁rab	-13108
lined	-13109
oston	-13110
▁helm	-13111
▁Money	-13112
▁sends	-13113
selling	-13114
▁condol	-13115
▁Factory	-13116
▁briquet	-13117
▁electro	-13118
▁sponsor	-13119
▁Gapyeong	-13120
▁disagree	-13121
▁utilized	-13122
▁candidacy	-13123
▁fishermen	-13124
▁beforehand	-13125
▁accidentally	-13126
▁authentication	-13127
▁democratization	-13128
4)	-13129
8)	-13130
SA	-13131
pm	-13132
uki	-13133
▁96	-13134
▁21,	-13135
acter	-13136
▁myth	-13137
redict	-13138
▁chore	-13139
▁Direct	-13140
▁chiefs	-13141
▁staffs	-13142
▁plummet	-13143
migration	-13144
▁missions	-13145
▁potatoes	-13146
▁basically	-13147
▁competent	-13148
▁newlyweds	-13149
▁suggestions	-13150
▁observations	-13151
ially	-13152
▁toys	-13153
▁Comed	-13154
▁Early	-13155
▁Paulo	-13156
▁Tigers	-13157
▁joints	-13158
▁module	-13159
▁penetr	-13160
▁disband	-13161
▁disqual	-13162
▁drunken	-13163
▁servers	-13164
▁breeding	-13165
▁websites	-13166
▁Liberation	-13167
▁quantities	-13168
▁indiscrimin	-13169
▁reliability	-13170
Art	-13171
▁DJ	-13172
Yong	-13173
best	-13174
bled	-13175
geum	-13176
omic	-13177
▁Dog	-13178
▁dye	-13179
emark	-13180
▁tong	-13181
idency	-13182
▁reapp	-13183
▁uncle	-13184
raising	-13185
▁paraly	-13186
lication	-13187
▁editing	-13188
▁fingers	-13189
▁Pakistan	-13190
Corruption	-13191
▁borrowing	-13192
▁examining	-13193
▁Generation	-13194
▁Congressman	-13195
▁photography	-13196
▁respiratory	-13197
LL	-13198
Why	-13199
Jung	-13200
tles	-13201
uten	-13202
▁Din	-13203
▁Fox	-13204
▁oct	-13205
build	-13206
▁Pract	-13207
▁flash	-13208
▁kidna	-13209
efinite	-13210
▁chapter	-13211
▁commute	-13212
▁grilled	-13213
▁Guardian	-13214
▁Yeongnam	-13215
▁activate	-13216
▁blossoms	-13217
▁sanitary	-13218
▁trademark	-13219
▁instructed	-13220
▁businessman	-13221
▁millimeters	-13222
▁individually	-13223
▁disappointing	-13224
▁independently	-13225
bn	-13226
omy	-13227
▁87	-13228
▁1.9	-13229
▁Tun	-13230
emale	-13231
▁Mach	-13232
▁flour	-13233
▁labore	-13234
▁Counsel	-13235
▁colored	-13236
▁confess	-13237
▁symptom	-13238
▁Nowadays	-13239
▁humidity	-13240
▁Customers	-13241
▁attaching	-13242
▁disinfect	-13243
▁perpetrators	-13244
9)	-13245
PRK	-13246
sale	-13247
▁Kar	-13248
▁Circ	-13249
▁vast	-13250
▁Mater	-13251
▁vowed	-13252
fecture	-13253
▁Studio	-13254
▁astron	-13255
▁killer	-13256
▁priced	-13257
▁prizes	-13258
▁moderate	-13259
▁shouting	-13260
▁vertical	-13261
▁Happiness	-13262
▁intensify	-13263
▁obtaining	-13264
▁preemptive	-13265
▁accelerating	-13266
▁demonstrated	-13267
Def	-13268
boy	-13269
▁3.	-13270
Gang	-13271
ctic	-13272
▁tut	-13273
ritis	-13274
▁DPRK	-13275
▁acute	-13276
▁downs	-13277
▁pione	-13278
▁stern	-13279
▁Export	-13280
▁Giants	-13281
▁Oceans	-13282
▁breach	-13283
▁deeper	-13284
▁organs	-13285
▁washed	-13286
▁150,000	-13287
▁cheerful	-13288
▁harassed	-13289
▁authorized	-13290
▁contemporary	-13291
gio	-13292
oli	-13293
unc	-13294
conf	-13295
oken	-13296
pros	-13297
▁Cub	-13298
▁Sud	-13299
▁twe	-13300
▁mour	-13301
▁panc	-13302
▁unav	-13303
▁Anyone	-13304
▁Hannam	-13305
▁Hawaii	-13306
▁culprit	-13307
According	-13308
▁Bupyeong	-13309
▁Forensic	-13310
▁conducts	-13311
▁revising	-13312
▁negatively	-13313
▁commissioner	-13314
▁intermediate	-13315
▁possibilities	-13316
Mr	-13317
▁Wy	-13318
open	-13319
stal	-13320
▁20,	-13321
▁Fuk	-13322
▁Gam	-13323
▁Bing	-13324
andong	-13325
minent	-13326
▁Basket	-13327
▁Gospel	-13328
▁Hanbok	-13329
▁advise	-13330
▁bubble	-13331
▁openly	-13332
▁Shortly	-13333
▁referen	-13334
▁trailer	-13335
▁handmade	-13336
▁Biologics	-13337
▁Yangcheon	-13338
▁medicines	-13339
▁translate	-13340
▁descendants	-13341
▁description	-13342
▁speculative	-13343
▁unauthorized	-13344
jeom	-13345
onna	-13346
they	-13347
▁170	-13348
▁spin	-13349
▁Watch	-13350
▁Behind	-13351
▁KORAIL	-13352
▁posing	-13353
▁baseman	-13354
▁rushing	-13355
▁summits	-13356
▁Samcheok	-13357
▁comedian	-13358
▁Personnel	-13359
▁ambulance	-13360
▁beverages	-13361
▁excellence	-13362
▁graduating	-13363
▁necessarily	-13364
CG	-13365
ymph	-13366
▁Bob	-13367
▁Way	-13368
anded	-13369
esome	-13370
▁Bush	-13371
▁Lank	-13372
▁Wave	-13373
▁dizz	-13374
▁fiber	-13375
▁penet	-13376
▁smugg	-13377
▁stiff	-13378
▁wrist	-13379
▁Namhae	-13380
▁hunger	-13381
▁tablet	-13382
▁Country	-13383
▁abusive	-13384
▁leagues	-13385
▁rewards	-13386
▁seaweed	-13387
▁forcibly	-13388
▁lifelong	-13389
▁tailored	-13390
▁precedent	-13391
▁Literature	-13392
▁infectious	-13393
▁psychology	-13394
▁ultimately	-13395
▁Coordination	-13396
▁anticipation	-13397
hap	-13398
kil	-13399
Life	-13400
dang	-13401
ghan	-13402
tail	-13403
▁0.3	-13404
▁gri	-13405
5,000	-13406
three	-13407
▁bure	-13408
around	-13409
▁Being	-13410
▁amate	-13411
▁bears	-13412
▁sushi	-13413
▁Boston	-13414
▁poetry	-13415
▁raided	-13416
ifferent	-13417
▁breathe	-13418
▁genuine	-13419
▁widened	-13420
▁deposited	-13421
▁exercised	-13422
▁Telecommun	-13423
▁attempting	-13424
▁indefinite	-13425
▁prescribed	-13426
▁exceptional	-13427
▁obligations	-13428
▁sensitivity	-13429
▁repatriation	-13430
▁stabilization	-13431
▁1%	-13432
▁LA	-13433
Dong	-13434
rypt	-13435
▁KCC	-13436
▁KEB	-13437
▁Ori	-13438
named	-13439
▁Mars	-13440
▁grav	-13441
▁narr	-13442
▁rupt	-13443
igraph	-13444
marble	-13445
prints	-13446
▁Large	-13447
▁Lions	-13448
▁Gwanak	-13449
▁horizon	-13450
▁tremend	-13451
▁announcer	-13452
▁dismantlement	-13453
LB	-13454
iti	-13455
▁83	-13456
rang	-13457
▁Eff	-13458
▁Nep	-13459
▁pod	-13460
ivost	-13461
licit	-13462
ellate	-13463
▁mosqu	-13464
▁packs	-13465
▁scrap	-13466
ividual	-13467
ivostok	-13468
▁Boeing	-13469
▁aggreg	-13470
▁calend	-13471
▁latter	-13472
national	-13473
▁400,000	-13474
▁Brother	-13475
▁sandbox	-13476
▁Gimcheon	-13477
▁Violence	-13478
▁insurers	-13479
▁invasion	-13480
▁widening	-13481
▁Coalition	-13482
▁chemicals	-13483
▁predecess	-13484
▁auditorium	-13485
▁overlapping	-13486
▁specializes	-13487
▁conservation	-13488
Gu	-13489
alm	-13490
eto	-13491
▁CC	-13492
▁Uk	-13493
mate	-13494
▁Ext	-13495
▁lag	-13496
▁brut	-13497
People	-13498
charge	-13499
utable	-13500
▁Royal	-13501
prising	-13502
▁boiled	-13503
▁loving	-13504
▁shrink	-13505
▁stones	-13506
▁undert	-13507
▁charism	-13508
▁emperor	-13509
▁fantasy	-13510
▁greeted	-13511
▁rampant	-13512
▁concerts	-13513
▁presided	-13514
▁incentive	-13515
▁criticisms	-13516
▁terrestrial	-13517
▁satisfactory	-13518
AM	-13519
akh	-13520
mok	-13521
▁KF	-13522
Comp	-13523
▁ABC	-13524
▁Ire	-13525
arest	-13526
▁lips	-13527
esteem	-13528
respon	-13529
▁leaks	-13530
▁puppy	-13531
▁wings	-13532
▁elders	-13533
▁epidem	-13534
▁kindly	-13535
▁troupe	-13536
Director	-13537
▁Anseong	-13538
▁dragged	-13539
▁suffers	-13540
▁thunder	-13541
▁councils	-13542
▁failures	-13543
▁imminent	-13544
▁interact	-13545
▁landmark	-13546
▁Taiwanese	-13547
▁underwear	-13548
▁determines	-13549
▁optimistic	-13550
▁promotions	-13551
▁accelerated	-13552
▁disappointment	-13553
6.	-13554
ias	-13555
rin	-13556
chae	-13557
▁Dri	-13558
▁toy	-13559
▁Jord	-13560
▁desp	-13561
▁disg	-13562
▁drain	-13563
▁lined	-13564
▁Namsan	-13565
▁expands	-13566
▁imperial	-13567
▁reckless	-13568
▁Brazilian	-13569
▁Communist	-13570
hys	-13571
oren	-13572
▁Aven	-13573
▁Carl	-13574
▁Meng	-13575
▁guns	-13576
▁idle	-13577
▁orth	-13578
▁ster	-13579
▁Color	-13580
colored	-13581
▁Yangju	-13582
▁microp	-13583
▁catcher	-13584
▁Emirates	-13585
▁academia	-13586
▁portfolio	-13587
▁Vladivostok	-13588
▁demonstrate	-13589
▁developmental	-13590
▁GT	-13591
▁24,	-13592
▁27,	-13593
▁Key	-13594
▁Pot	-13595
ingly	-13596
ocial	-13597
▁Chel	-13598
▁Merch	-13599
▁macro	-13600
▁token	-13601
Special	-13602
▁bakery	-13603
▁combat	-13604
▁rhythm	-13605
▁Ireland	-13606
▁Leaders	-13607
▁omitted	-13608
▁sinking	-13609
▁streaming	-13610
▁nationality	-13611
▁politically	-13612
▁constituency	-13613
▁encouragement	-13614
▁,	-13615
hoo	-13616
hyo	-13617
▁Gl	-13618
▁Code	-13619
▁rude	-13620
▁confe	-13621
▁George	-13622
▁assail	-13623
▁betray	-13624
▁delays	-13625
▁tracks	-13626
▁boycott	-13627
▁premise	-13628
▁surname	-13629
▁Colombia	-13630
▁Moreover	-13631
▁overhaul	-13632
▁teamwork	-13633
▁enactment	-13634
▁entrusted	-13635
▁magnitude	-13636
▁Basketball	-13637
▁accessories	-13638
▁concessions	-13639
▁cultivation	-13640
▁Comprehensive	-13641
hem	-13642
hill	-13643
opia	-13644
essim	-13645
liest	-13646
otalk	-13647
rogen	-13648
uthan	-13649
▁deem	-13650
▁scra	-13651
▁tide	-13652
▁2005,	-13653
▁chick	-13654
hearted	-13655
▁alumni	-13656
▁poorly	-13657
▁Chelsea	-13658
▁banning	-13659
▁invalid	-13660
▁letting	-13661
▁wondered	-13662
▁Netmarble	-13663
▁dismantle	-13664
▁controversies	-13665
6)	-13666
FI	-13667
▁x	-13668
900	-13669
bral	-13670
rock	-13671
▁4.5	-13672
▁Yan	-13673
allel	-13674
enses	-13675
▁Back	-13676
▁Shop	-13677
▁lend	-13678
▁lump	-13679
▁plain	-13680
▁roots	-13681
▁resemb	-13682
▁themes	-13683
▁Siheung	-13684
▁drought	-13685
▁dominate	-13686
▁ignoring	-13687
▁inviting	-13688
▁occasions	-13689
▁celebrated	-13690
▁disruption	-13691
▁Independent	-13692
▁fundamentally	-13693
RC	-13694
UN	-13695
py	-13696
ala	-13697
osi	-13698
ichi	-13699
teen	-13700
urry	-13701
▁Ent	-13702
▁Wel	-13703
▁Laos	-13704
▁Metal	-13705
▁Lastly	-13706
▁plates	-13707
▁thesis	-13708
▁warmth	-13709
▁gateway	-13710
▁optical	-13711
▁rallies	-13712
▁spotted	-13713
▁generous	-13714
▁threaten	-13715
iconductor	-13716
▁initiated	-13717
▁presidency	-13718
▁conjunction	-13719
▁explanations	-13720
FP	-13721
CTU	-13722
▁89	-13723
edge	-13724
gree	-13725
▁0.2	-13726
▁Gae	-13727
▁Lib	-13728
▁Yul	-13729
▁bes	-13730
▁ups	-13731
trion	-13732
▁Chon	-13733
▁Lady	-13734
▁Taxi	-13735
20,000	-13736
abling	-13737
▁loose	-13738
▁metab	-13739
idering	-13740
▁novels	-13741
▁unjust	-13742
business	-13743
uxiliary	-13744
▁pledged	-13745
▁Patriots	-13746
▁mistaken	-13747
▁ambiguous	-13748
▁stipulated	-13749
▁adolescents	-13750
▁disturbance	-13751
▁termination	-13752
▁manipulating	-13753
acc	-13754
arc	-13755
ige	-13756
indo	-13757
▁2.3	-13758
▁25,	-13759
▁Nae	-13760
▁tob	-13761
after	-13762
claim	-13763
▁tsun	-13764
▁Croat	-13765
▁Sport	-13766
▁camps	-13767
▁outsid	-13768
▁rubber	-13769
▁salmon	-13770
▁wheels	-13771
directed	-13772
▁miracle	-13773
▁nursery	-13774
▁scholar	-13775
▁catalyst	-13776
▁describe	-13777
▁rotation	-13778
▁wrinkles	-13779
▁sculpture	-13780
▁accumulate	-13781
▁coordinate	-13782
▁enthusiasm	-13783
▁capitalization	-13784
RI	-13785
VR	-13786
gwan	-13787
▁fet	-13788
▁ric	-13789
▁sav	-13790
▁spy	-13791
iracy	-13792
▁agon	-13793
Russia	-13794
▁lanes	-13795
ardless	-13796
▁Confuc	-13797
▁Jordan	-13798
▁tobacco	-13799
▁Gwangjin	-13800
▁presumed	-13801
▁connections	-13802
29	-13803
47	-13804
gas	-13805
lder	-13806
▁Moh	-13807
▁Ewha	-13808
▁Liga	-13809
▁sail	-13810
▁seas	-13811
▁grabbed	-13812
▁overdue	-13813
▁Celltrion	-13814
▁imprisoned	-13815
▁overheated	-13816
▁protesters	-13817
▁Assemblyman	-13818
▁centimeters	-13819
▁postponement	-13820
uzz	-13821
opus	-13822
uing	-13823
▁2-0	-13824
▁Age	-13825
▁Mae	-13826
▁Pope	-13827
▁axis	-13828
nyeong	-13829
▁8,000	-13830
▁Eulji	-13831
▁jewel	-13832
▁Junior	-13833
▁Konkuk	-13834
▁trophy	-13835
▁majored	-13836
▁planted	-13837
▁polling	-13838
▁pulling	-13839
▁dinosaur	-13840
▁injected	-13841
▁marathon	-13842
▁Participatory	-13843
aru	-13844
▁19,	-13845
▁Ell	-13846
▁Glo	-13847
▁Pow	-13848
ouble	-13849
▁2005	-13850
▁Band	-13851
▁Comb	-13852
▁Nine	-13853
▁arom	-13854
▁icon	-13855
▁spir	-13856
aneous	-13857
scenes	-13858
▁Price	-13859
▁elite	-13860
▁renow	-13861
▁swift	-13862
ocating	-13863
▁Method	-13864
▁retrie	-13865
▁streak	-13866
▁Content	-13867
▁Restaur	-13868
▁chasing	-13869
▁mileage	-13870
▁privile	-13871
▁Mongolia	-13872
▁enabling	-13873
▁parental	-13874
▁licensing	-13875
▁pressured	-13876
▁bankruptcy	-13877
▁discounted	-13878
esy	-13879
eted	-13880
test	-13881
▁wip	-13882
Chief	-13883
▁Pink	-13884
▁butt	-13885
▁Chong	-13886
▁Petro	-13887
▁halls	-13888
▁sunny	-13889
▁carcin	-13890
▁editor	-13891
▁recons	-13892
▁vested	-13893
▁specify	-13894
▁Advisory	-13895
▁chairmen	-13896
▁earliest	-13897
▁hardware	-13898
▁Severance	-13899
▁survivors	-13900
▁corrective	-13901
▁pedestrian	-13902
▁reiterated	-13903
▁subsequent	-13904
▁appreciated	-13905
uest	-13906
▁(15	-13907
▁2.4	-13908
▁IPO	-13909
▁Obs	-13910
▁Pur	-13911
rying	-13912
▁Flor	-13913
▁Jobs	-13914
▁meth	-13915
▁tube	-13916
retion	-13917
▁disgu	-13918
▁rocks	-13919
▁timet	-13920
▁Afghan	-13921
▁Kyeong	-13922
▁influx	-13923
▁styles	-13924
▁twenty	-13925
▁Austria	-13926
ovascular	-13927
▁humanity	-13928
▁currencies	-13929
▁overturned	-13930
▁recommends	-13931
▁registering	-13932
Ms	-13933
udy	-13934
park	-13935
rama	-13936
▁(-0	-13937
▁laug	-13938
▁seal	-13939
embang	-13940
▁tasty	-13941
content	-13942
▁absorb	-13943
▁drying	-13944
▁titles	-13945
justment	-13946
▁accepts	-13947
▁kindness	-13948
▁limiting	-13949
▁Palembang	-13950
▁appellate	-13951
▁auxiliary	-13952
▁optimized	-13953
▁Prefecture	-13954
▁protective	-13955
▁remodeling	-13956
▁conflicting	-13957
▁seriousness	-13958
De	-13959
eck	-13960
King	-13961
asis	-13962
inho	-13963
▁1.0	-13964
▁2.6	-13965
▁26,	-13966
▁nan	-13967
▁Alib	-13968
▁slim	-13969
icular	-13970
rooted	-13971
▁reign	-13972
▁Sungky	-13973
▁Yellow	-13974
▁Gallery	-13975
▁Univers	-13976
▁handing	-13977
▁hurried	-13978
emocratic	-13979
▁auditors	-13980
▁consumed	-13981
▁affecting	-13982
▁unpredict	-13983
▁conferences	-13984
▁cooperating	-13985
approximately	-13986
nat	-13987
▁81	-13988
▁Iv	-13989
▁Occ	-13990
▁Ven	-13991
loved	-13992
verns	-13993
▁wars	-13994
urated	-13995
▁audio	-13996
▁Income	-13997
▁pessim	-13998
▁prince	-13999
▁Android	-14000
▁Sanders	-14001
ictionary	-14002
▁majoring	-14003
▁overlook	-14004
▁renowned	-14005
▁sparking	-14006
prosperity	-14007
▁attendees	-14008
▁defective	-14009
▁fortunate	-14010
▁accommodate	-14011
▁predictions	-14012
fere	-14013
gate	-14014
▁Ath	-14015
▁Mur	-14016
▁Sad	-14017
ander	-14018
oming	-14019
▁Okin	-14020
▁plug	-14021
unkwan	-14022
▁2021.	-14023
▁Brand	-14024
▁Roman	-14025
▁curve	-14026
▁salty	-14027
▁Syrian	-14028
▁laughed	-14029
▁placing	-14030
▁patience	-14031
▁survived	-14032
▁universe	-14033
▁advancing	-14034
▁anonymous	-14035
▁appealing	-14036
outheastern	-14037
▁Punishment	-14038
▁Pyeongyang	-14039
▁memorandum	-14040
▁referendum	-14041
▁recognizing	-14042
bar	-14043
uke	-14044
▁OK	-14045
omas	-14046
▁CGV	-14047
▁Dal	-14048
being	-14049
enuri	-14050
inced	-14051
wadae	-14052
▁'201	-14053
▁Tree	-14054
▁whis	-14055
▁milit	-14056
▁trace	-14057
powered	-14058
▁Citing	-14059
▁Mattis	-14060
▁Online	-14061
▁beaten	-14062
▁euthan	-14063
versible	-14064
▁roadmap	-14065
▁declaring	-14066
▁eradicate	-14067
▁taxpayers	-14068
▁unlimited	-14069
Considering	-14070
▁disappears	-14071
▁intervened	-14072
▁earthquakes	-14073
▁cooperatives	-14074
▁comprehensively	-14075
wer	-14076
▁4.	-14077
Shin	-14078
epis	-14079
▁Hor	-14080
▁dat	-14081
▁fal	-14082
istle	-14083
▁Host	-14084
▁oral	-14085
acious	-14086
ospace	-14087
▁fragr	-14088
▁poses	-14089
▁tomato	-14090
▁coating	-14091
▁compact	-14092
▁fortune	-14093
▁dividing	-14094
▁parallel	-14095
▁clearance	-14096
▁designing	-14097
▁exporting	-14098
▁applicable	-14099
▁frustration	-14100
▁civilization	-14101
67	-14102
hea	-14103
ums	-14104
yel	-14105
▁Fu	-14106
jing	-14107
mans	-14108
▁0.5	-14109
▁Ari	-14110
▁Kev	-14111
adequ	-14112
asant	-14113
ennale	-14114
minton	-14115
▁2006,	-14116
▁diary	-14117
▁quota	-14118
▁60,000	-14119
▁melody	-14120
▁beliefs	-14121
▁dealers	-14122
▁pharmac	-14123
▁radical	-14124
▁teaches	-14125
▁compiled	-14126
▁dressing	-14127
▁wrapping	-14128
▁disciples	-14129
▁deliberate	-14130
▁specialists	-14131
▁destinations	-14132
▁scholarships	-14133
AND	-14134
doo	-14135
tem	-14136
▁Aj	-14137
hors	-14138
llor	-14139
▁(11	-14140
▁Pub	-14141
▁sir	-14142
daero	-14143
ennis	-14144
▁Kaka	-14145
▁Send	-14146
▁Yout	-14147
▁corn	-14148
▁drow	-14149
arship	-14150
orious	-14151
▁Dalse	-14152
▁codes	-14153
▁rides	-14154
angered	-14155
▁Nature	-14156
▁flames	-14157
▁Several	-14158
▁bureauc	-14159
▁equally	-14160
▁overlap	-14161
▁writings	-14162
▁cognitive	-14163
▁stimulate	-14164
▁humidifier	-14165
▁limitation	-14166
▁experimental	-14167
NP	-14168
ule	-14169
Hyun	-14170
acks	-14171
▁16.	-14172
▁2.1	-14173
▁BBC	-14174
▁End	-14175
eered	-14176
▁1000	-14177
▁flav	-14178
▁ports	-14179
▁deemed	-14180
▁extrem	-14181
endation	-14182
▁Startup	-14183
▁alright	-14184
▁elegant	-14185
▁opposes	-14186
ilization	-14187
▁Existing	-14188
▁farewell	-14189
▁incurred	-14190
▁repaired	-14191
▁Logistics	-14192
▁greetings	-14193
▁inherited	-14194
▁demonstrations	-14195
57	-14196
Hye	-14197
eui	-14198
acts	-14199
grad	-14200
ouch	-14201
▁Equ	-14202
▁UAE	-14203
▁sch	-14204
▁shy	-14205
digit	-14206
final	-14207
▁Chen	-14208
uminum	-14209
▁Louis	-14210
▁engra	-14211
▁pills	-14212
▁steal	-14213
▁incred	-14214
▁lively	-14215
▁planes	-14216
▁subtit	-14217
distance	-14218
novative	-14219
▁Pocheon	-14220
▁Wyverns	-14221
▁classic	-14222
▁density	-14223
▁creators	-14224
▁protects	-14225
▁appearances	-14226
▁distributor	-14227
▁Sungkyunkwan	-14228
▁misunderstand	-14229
oop	-14230
rer	-14231
tra	-14232
▁DB	-14233
▁du	-14234
plan	-14235
▁Eug	-14236
▁Hit	-14237
▁dub	-14238
▁Dome	-14239
▁Full	-14240
▁gast	-14241
▁joke	-14242
▁pier	-14243
letion	-14244
▁Scient	-14245
▁farmer	-14246
▁flowed	-14247
▁runway	-14248
▁Advisor	-14249
▁honored	-14250
▁proving	-14251
▁dropping	-14252
▁friction	-14253
▁notebook	-14254
▁cultivate	-14255
▁evacuation	-14256
▁imposition	-14257
▁internship	-14258
▁tremendous	-14259
▁Performance	-14260
▁supermarket	-14261
SK	-14262
rac	-14263
size	-14264
▁101	-14265
▁15%	-14266
▁2.7	-14267
▁ink	-14268
ockey	-14269
osung	-14270
otype	-14271
▁Disp	-14272
agraph	-14273
giving	-14274
▁Civic	-14275
▁Iksan	-14276
▁KAIST	-14277
▁clash	-14278
▁queen	-14279
▁strap	-14280
▁addict	-14281
▁modify	-14282
▁blessing	-14283
▁counting	-14284
▁planting	-14285
▁regulate	-14286
▁convinced	-14287
▁disrupted	-14288
▁exclusion	-14289
▁tightened	-14290
▁sentencing	-14291
▁resurrection	-14292
▁dissatisfaction	-14293
49	-14294
VP	-14295
fu	-14296
...	-14297
esc	-14298
▁91	-14299
harm	-14300
▁Jim	-14301
▁Low	-14302
kyeom	-14303
▁Days	-14304
▁bent	-14305
▁dong	-14306
▁heal	-14307
design	-14308
▁Dubai	-14309
▁Round	-14310
▁broth	-14311
▁swall	-14312
thritis	-14313
▁arbitr	-14314
▁assemb	-14315
▁guides	-14316
▁nobody	-14317
▁serial	-14318
▁tongue	-14319
▁Silicon	-14320
▁favored	-14321
▁sticker	-14322
▁Everland	-14323
▁Portugal	-14324
▁engaging	-14325
▁protagon	-14326
▁rebounds	-14327
▁ancestors	-14328
▁campaigns	-14329
▁timetable	-14330
▁contradict	-14331
▁interviewed	-14332
uclearization	-14333
▁justification	-14334
GO	-14335
pan	-14336
anti	-14337
mons	-14338
vard	-14339
weet	-14340
▁mil	-14341
▁til	-14342
trans	-14343
▁aunt	-14344
▁cuis	-14345
▁tips	-14346
icking	-14347
▁Kevin	-14348
▁Place	-14349
▁tense	-14350
writing	-14351
▁80,000	-14352
▁ethnic	-14353
▁subtle	-14354
▁takers	-14355
▁coupons	-14356
▁tribute	-14357
▁Learning	-14358
▁Platform	-14359
▁ambition	-14360
▁defended	-14361
▁Missionary	-14362
▁strawberry	-14363
▁eligibility	-14364
▁surroundings	-14365
▁volunteering	-14366
earl	-14367
isite	-14368
▁Barun	-14369
▁fares	-14370
Defense	-14371
culosis	-14372
▁Greece	-14373
▁Yester	-14374
▁banner	-14375
▁landed	-14376
▁rocket	-14377
▁throat	-14378
▁Florida	-14379
▁fasting	-14380
▁hostile	-14381
▁painter	-14382
▁reminis	-14383
▁webtoon	-14384
▁mosquito	-14385
▁releases	-14386
▁extensive	-14387
▁honeymoon	-14388
▁inclusive	-14389
▁Accounting	-14390
▁misconduct	-14391
▁circumstance	-14392
▁unpredictable	-14393
EF	-14394
Sun	-14395
hard	-14396
pret	-14397
▁bik	-14398
▁clue	-14399
boards	-14400
ptions	-14401
▁2009.	-14402
▁Crown	-14403
smoking	-14404
▁Goryeo	-14405
▁Really	-14406
▁Ukrain	-14407
▁beside	-14408
▁charms	-14409
▁casting	-14410
▁Manufact	-14411
▁laughing	-14412
▁sometime	-14413
▁Yesterday	-14414
▁centering	-14415
▁dominance	-14416
▁lecturers	-14417
▁soundness	-14418
▁Regardless	-14419
▁conviction	-14420
▁developments	-14421
▁examinations	-14422
▁quantitative	-14423
EFA	-14424
Sup	-14425
sey	-14426
▁GP	-14427
Benz	-14428
▁agg	-14429
ducer	-14430
▁Upon	-14431
▁damp	-14432
▁Nepal	-14433
▁algae	-14434
▁tanks	-14435
▁Employ	-14436
▁rolled	-14437
▁earners	-14438
▁envelop	-14439
▁insists	-14440
▁kingdom	-14441
▁rumored	-14442
▁absorbed	-14443
▁contamin	-14444
▁Operation	-14445
▁Volunteer	-14446
▁immersion	-14447
▁sensation	-14448
▁undermine	-14449
▁valuation	-14450
▁wandering	-14451
▁boundaries	-14452
▁translator	-14453
▁underwater	-14454
kel	-14455
▁92	-14456
▁93	-14457
▁Ir	-14458
esis	-14459
▁(12	-14460
▁Bot	-14461
▁Nik	-14462
▁Sog	-14463
▁bug	-14464
osium	-14465
ounce	-14466
▁DRAM	-14467
ademic	-14468
closed	-14469
▁tires	-14470
▁Poland	-14471
▁merely	-14472
▁precip	-14473
▁splend	-14474
▁Friends	-14475
▁Saenuri	-14476
▁inadequ	-14477
▁inferior	-14478
▁midfield	-14479
▁overflow	-14480
▁promptly	-14481
▁treasure	-14482
▁preserved	-14483
▁Corruption	-14484
▁Restaurant	-14485
▁compliance	-14486
▁Cheongwadae	-14487
KMA	-14488
kok	-14489
Many	-14490
fold	-14491
▁Deb	-14492
▁Die	-14493
▁Fam	-14494
▁MOU	-14495
large	-14496
oxide	-14497
▁Guri	-14498
▁cure	-14499
venile	-14500
▁Chile	-14501
▁Kyobo	-14502
▁chewy	-14503
▁invis	-14504
issance	-14505
ussions	-14506
▁Empire	-14507
▁Marvel	-14508
▁cheers	-14509
▁recipe	-14510
▁voiced	-14511
▁Alibaba	-14512
▁Someone	-14513
▁costume	-14514
▁existed	-14515
▁thereby	-14516
▁evacuate	-14517
▁portable	-14518
▁portrait	-14519
▁tactical	-14520
▁tangible	-14521
▁restoring	-14522
▁forecasted	-14523
▁questionable	-14524
Am	-14525
Im	-14526
MI	-14527
RT	-14528
di	-14529
ahi	-14530
Love	-14531
link	-14532
yers	-14533
▁29,	-14534
▁Vir	-14535
▁nit	-14536
irang	-14537
obong	-14538
▁Musk	-14539
▁Opin	-14540
▁Turn	-14541
footed	-14542
▁Greek	-14543
▁knees	-14544
▁poems	-14545
▁towns	-14546
uctions	-14547
specific	-14548
▁Emperor	-14549
▁amateur	-14550
▁nearest	-14551
▁Campaign	-14552
▁pharmacy	-14553
ographical	-14554
▁petroleum	-14555
▁repeating	-14556
▁elasticity	-14557
▁endangered	-14558
▁minorities	-14559
▁speculated	-14560
▁sympathize	-14561
▁ventilation	-14562
▁reunification	-14563
▁94	-14564
elim	-14565
orus	-14566
▁Dar	-14567
▁Mam	-14568
ilion	-14569
stein	-14570
▁Prin	-14571
degree	-14572
▁6,000	-14573
▁noisy	-14574
▁cousin	-14575
▁hybrid	-14576
▁saints	-14577
▁intimid	-14578
▁mankind	-14579
▁retrial	-14580
▁appetite	-14581
▁divorced	-14582
▁finalize	-14583
▁innovate	-14584
[...]
