<unk>	0
<s>	0
</s>	0
▁이	-0
▁있	-1
으로	-2
▁대	-3
▁수	-4
에서	-5
▁사	-6
니다	-7
▁지	-8
▁것	-9
▁가	-10
▁그	-11
했다	-12
▁전	-13
▁기	-14
▁1	-15
하는	-16
▁시	-17
▁한	-18
▁보	-19
▁나	-20
▁2	-21
▁정	-22
▁있다	-23
▁아	-24
▁제	-25
▁경	-26
▁주	-27
▁등	-28
하고	-29
▁중	-30
▁자	-31
▁다	-32
▁‘	-33
▁공	-34
습니다	-35
▁일	-36
▁부	-37
▁내	-38
▁인	-39
▁위	-40
이다	-41
▁국	-42
▁상	-43
▁“	-44
▁관	-45
▁하	-46
▁오	-47
▁해	-48
▁않	-49
▁조	-50
▁비	-51
▁미	-52
▁우	-53
▁모	-54
▁여	-55
▁어	-56
▁당	-57
▁고	-58
▁있는	-59
들이	-60
▁의	-61
▁유	-62
▁없	-63
▁소	-64
▁선	-65
▁때	-66
▁서	-67
▁연	-68
▁3	-69
▁만	-70
▁발	-71
▁최	-72
▁개	-73
▁마	-74
▁신	-75
지만	-76
▁저	-77
▁문	-78
▁방	-79
▁말	-80
▁구	-81
▁거	-82
▁안	-83
다는	-84
▁예	-85
▁김	-86
▁생	-87
▁도	-88
이라	-89
▁바	-90
▁강	-91
▁통	-92
▁영	-93
▁진	-94
에게	-95
▁20	-96
▁동	-97
▁무	-98
▁지난	-99
▁성	-100
▁실	-101
▁많	-102
▁결	-103
▁현	-104
까지	-105
어요	-106
▁것으로	-107
▁확	-108
▁불	-109
면서	-110
▁교	-111
▁세	-112
다고	-113
▁받	-114
에는	-115
▁더	-116
▁장	-117
▁분	-118
▁우리	-119
▁같	-120
▁스	-121
▁추	-122
▁5	-123
▁남	-124
▁알	-125
▁재	-126
▁차	-127
▁원	-128
▁노	-129
▁계	-130
▁4	-131
▁대한	-132
▁따	-133
▁한국	-134
▁감	-135
▁회	-136
▁당신	-137
부터	-138
▁반	-139
적인	-140
▁특	-141
적으로	-142
입니다	-143
▁되	-144
▁위해	-145
▁건	-146
▁매	-147
▁적	-148
▁좋	-149
▁올	-150
▁입	-151
▁배	-152
하게	-153
00	-154
▁밝	-155
▁후	-156
▁설	-157
었다	-158
▁과	-159
▁출	-160
하기	-161
합니다	-162
▁학	-163
▁들	-164
▁열	-165
된다	-166
▁때문	-167
한다	-168
▁직	-169
▁요	-170
▁참	-171
▁사람	-172
▁할	-173
됐다	-174
▁필	-175
▁단	-176
▁가능	-177
▁나는	-178
▁미국	-179
▁서울	-180
들의	-181
▁금	-182
▁포	-183
▁북	-184
▁행	-185
들은	-186
▁집	-187
▁달	-188
▁두	-189
▁게	-190
▁못	-191
▁청	-192
▁높	-193
▁것이	-194
▁평	-195
▁피	-196
▁점	-197
장이	-198
▁6	-199
하지	-200
▁작	-201
▁물	-202
▁밝혔	-203
▁운	-204
▁검	-205
통령	-206
▁앞	-207
▁판	-208
▁함	-209
도록	-210
▁대통령	-211
는데	-212
▁문제	-213
▁있습니다	-214
▁밝혔다	-215
▁외	-216
▁대해	-217
▁경우	-218
▁201	-219
▁너	-220
이라고	-221
▁필요	-222
▁증	-223
▁투	-224
▁하는	-225
▁10	-226
▁통해	-227
▁파	-228
▁역	-229
▁이번	-230
▁정부	-231
▁활	-232
▁새	-233
▁생각	-234
▁저는	-235
세요	-236
▁화	-237
기를	-238
▁함께	-239
▁프	-240
▁잘	-241
▁7	-242
▁맞	-243
▁드	-244
▁산	-245
▁처	-246
자가	-247
▁박	-248
▁관련	-249
▁목	-250
▁법	-251
에서는	-252
위원	-253
▁변	-254
▁했다	-255
▁업	-256
성이	-257
▁진행	-258
장을	-259
▁아니	-260
되는	-261
▁중국	-262
▁양	-263
▁있어	-264
▁간	-265
사를	-266
▁심	-267
▁데	-268
▁말했다	-269
▁초	-270
▁8	-271
하다	-272
보다	-273
▁지역	-274
▁명	-275
▁뒤	-276
사가	-277
원이	-278
▁싶	-279
▁사용	-280
▁대표	-281
▁취	-282
▁환	-283
▁임	-284
▁이어	-285
▁총	-286
▁시간	-287
▁경찰	-288
았다	-289
▁경기	-290
나요	-291
들을	-292
▁민	-293
▁들어	-294
에도	-295
▁다른	-296
▁살	-297
▁협	-298
▁가장	-299
졌다	-300
▁손	-301
▁및	-302
▁기업	-303
▁확인	-304
▁같은	-305
▁것은	-306
자는	-307
지는	-308
▁종	-309
▁사업	-310
▁이상	-311
하면	-312
▁치	-313
▁본	-314
▁각	-315
▁관계	-316
장은	-317
▁규	-318
해야	-319
▁9	-320
리는	-321
▁그는	-322
▁네	-323
대로	-324
▁크	-325
라고	-326
▁상황	-327
▁번	-328
▁친	-329
▁체	-330
▁근	-331
▁담	-332
▁또	-333
▁줄	-334
지고	-335
▁걸	-336
▁시작	-337
시간	-338
▁많은	-339
▁타	-340
▁것이다	-341
▁찾	-342
▁언	-343
▁트	-344
▁약	-345
▁호	-346
▁한다	-347
리가	-348
▁위한	-349
▁음	-350
▁국내	-351
▁논	-352
하며	-353
▁카	-354
▁광	-355
▁것을	-356
▁했	-357
▁지금	-358
기가	-359
▁자신	-360
▁합	-361
리를	-362
리고	-363
▁아이	-364
이나	-365
▁돌	-366
▁제품	-367
▁알려	-368
라는	-369
이라는	-370
▁큰	-371
▁넘	-372
▁때문에	-373
▁이후	-374
운데	-375
▁따라	-376
▁메	-377
▁속	-378
▁채	-379
▁발생	-380
▁충	-381
▁지원	-382
▁결과	-383
지를	-384
▁최근	-385
▁지난해	-386
에요	-387
▁A	-388
▁북한	-389
▁경제	-390
▁삼	-391
▁등을	-392
▁될	-393
▁만들	-394
으며	-395
▁가운데	-396
▁완	-397
▁내가	-398
▁사실	-399
▁준	-400
▁보고	-401
▁편	-402
으면	-403
▁설명	-404
▁폭	-405
▁제가	-406
니까	-407
▁날	-408
되고	-409
▁있을	-410
▁먹	-411
▁오늘	-412
하면서	-413
비스	-414
▁곳	-415
▁늘	-416
▁하고	-417
▁있다는	-418
▁모두	-419
▁하나	-420
▁다시	-421
▁표	-422
명이	-423
▁리	-424
▁이용	-425
해서	-426
기에	-427
▁이유	-428
▁승	-429
▁예정	-430
▁올해	-431
▁세계	-432
▁많이	-433
▁복	-434
▁커	-435
▁프로	-436
기업	-437
스트	-438
▁독	-439
성을	-440
겠습니다	-441
였다	-442
▁온	-443
▁등이	-444
▁현재	-445
▁일본	-446
▁누	-447
▁식	-448
▁이날	-449
000	-450
화를	-451
▁11	-452
▁항	-453
▁19	-454
력을	-455
거나	-456
▁난	-457
정을	-458
▁책	-459
▁창	-460
▁정도	-461
▁사회	-462
르면	-463
▁눈	-464
▁있었	-465
▁국가	-466
시아	-467
▁교육	-468
▁12	-469
▁없는	-470
▁학생	-471
▁코	-472
상을	-473
▁참여	-474
서는	-475
▁에	-476
▁기대	-477
▁힘	-478
해요	-479
▁다양	-480
인이	-481
▁특히	-482
▁시장	-483
원을	-484
▁접	-485
▁얼	-486
▁우리는	-487
▁다음	-488
▁내용	-489
▁공개	-490
들에게	-491
회의	-492
로운	-493
▁갈	-494
▁절	-495
▁태	-496
이고	-497
▁벌	-498
▁전문	-499
▁피해	-500
▁버	-501
▁30	-502
▁국민	-503
▁조사	-504
▁토	-505
▁사건	-506
▁투자	-507
▁너무	-508
▁계획	-509
▁운영	-510
▁따르면	-511
▁글	-512
▁형	-513
▁끝	-514
▁사이	-515
도가	-516
원은	-517
▁향	-518
은행	-519
▁금융	-520
▁모습	-521
▁않는	-522
▁있도록	-523
레이	-524
▁디	-525
▁순	-526
▁기술	-527
▁보내	-528
▁축	-529
부가	-530
▁모든	-531
▁연구	-532
력이	-533
처럼	-534
▁빠	-535
사는	-536
▁정상	-537
▁직접	-538
▁첫	-539
위원회	-540
▁전망	-541
▁분석	-542
학교	-543
▁좋아	-544
▁처음	-545
▁권	-546
▁없다	-547
▁사진	-548
▁오후	-549
왔다	-550
▁합니다	-551
▁발표	-552
▁관심	-553
했다고	-554
▁좋은	-555
▁당신은	-556
▁친구	-557
▁측	-558
▁검찰	-559
씨가	-560
▁어떤	-561
▁로	-562
▁다양한	-563
▁당시	-564
럼프	-565
▁선수	-566
▁베	-567
들과	-568
▁지적	-569
▁군	-570
지가	-571
▁질	-572
▁나타	-573
▁어려	-574
▁추가	-575
▁당신이	-576
▁농	-577
▁느	-578
▁서비스	-579
하여	-580
▁때문이다	-581
▁중요	-582
▁브	-583
▁효	-584
20	-585
▁급	-586
▁갖	-587
인다	-588
▁대상	-589
했던	-590
▁추진	-591
이는	-592
자의	-593
▁개발	-594
▁있다고	-595
▁병	-596
했습니다	-597
▁S	-598
가요	-599
▁트럼프	-600
▁제공	-601
원의	-602
▁있어요	-603
▁허	-604
▁삼성	-605
▁포함	-606
▁준비	-607
▁부산	-608
혐의	-609
주시	-610
에서도	-611
▁평가	-612
사업	-613
▁증가	-614
▁된	-615
▁않은	-616
센터	-617
관이	-618
▁가격	-619
▁어떻	-620
겠다	-621
▁열린	-622
기도	-623
식을	-624
▁학교	-625
▁아니라	-626
사의	-627
▁정책	-628
▁200	-629
▁영향	-630
▁만큼	-631
▁쓰	-632
정이	-633
▁같아	-634
▁어떻게	-635
▁15	-636
▁볼	-637
▁막	-638
었습니다	-639
대표	-640
▁정보	-641
▁사고	-642
▁면	-643
▁혐의	-644
▁않았	-645
▁고객	-646
기는	-647
▁이런	-648
▁낮	-649
▁방문	-650
▁예상	-651
▁라	-652
까요	-653
▁판매	-654
장의	-655
▁잡	-656
▁길	-657
▁기록	-658
▁홍	-659
▁동안	-660
▁산업	-661
▁대통령이	-662
▁이를	-663
▁골	-664
페이	-665
▁않아	-666
났다	-667
부는	-668
▁국회	-669
자를	-670
▁새로운	-671
이에요	-672
기로	-673
▁주장	-674
▁이미	-675
▁나온	-676
▁관계자는	-677
▁후보	-678
▁오전	-679
▁요구	-680
가는	-681
▁용	-682
수가	-683
회담	-684
도를	-685
▁좀	-686
▁자유	-687
▁최대	-688
▁애	-689
▁확대	-690
▁그것	-691
▁마음	-692
▁참석	-693
▁여러	-694
▁실제	-695
▁잠	-696
▁기준	-697
▁않고	-698
▁수사	-699
▁패	-700
▁기존	-701
어서	-702
▁마련	-703
▁결정	-704
상이	-705
▁안전	-706
▁위원	-707
▁나오	-708
랜드	-709
▁감독	-710
▁높은	-711
어나	-712
▁우려	-713
▁야	-714
▁활동	-715
▁떨	-716
▁일부	-717
▁철	-718
▁백	-719
▁국제	-720
▁여성	-721
▁송	-722
▁계속	-723
▁시민	-724
▁최고	-725
▁보인다	-726
▁배우	-727
▁보여	-728
▁해당	-729
으나	-730
▁이뤄	-731
그램	-732
▁월	-733
됩니다	-734
▁과정	-735
▁된다	-736
▁그녀	-737
▁노동	-738
▁가족	-739
▁아직	-740
▁그렇	-741
장에서	-742
▁범	-743
▁상태	-744
▁C	-745
억원	-746
▁등의	-747
치를	-748
▁몰	-749
▁받아	-750
화가	-751
자들이	-752
▁테	-753
와대	-754
▁가능성이	-755
▁대학	-756
한국	-757
▁강조	-758
▁휴	-759
체가	-760
안을	-761
▁그러	-762
▁수도	-763
▁팀	-764
▁판단	-765
주세요	-766
▁이야	-767
▁정말	-768
▁전국	-769
▁것입니다	-770
교육	-771
▁극	-772
▁오는	-773
마트	-774
했고	-775
▁블	-776
인을	-777
되지	-778
▁청와대	-779
주의	-780
제를	-781
▁그런	-782
▁중심	-783
▁핵	-784
▁정부가	-785
주당	-786
동안	-787
▁떠	-788
▁떨어	-789
금을	-790
▁찾아	-791
스를	-792
회를	-793
▁의혹	-794
▁남북	-795
▁당신의	-796
장에	-797
▁부분	-798
시는	-799
하려	-800
▁설명했다	-801
위를	-802
네요	-803
▁경쟁	-804
▁K	-805
▁플	-806
▁개선	-807
이터	-808
▁인터	-809
▁먼	-810
▁소비	-811
▁주문	-812
회가	-813
▁규모	-814
▁답	-815
▁적용	-816
▁활용	-817
이트	-818
▁생산	-819
▁사람이	-820
렸다	-821
▁귀	-822
▁개인	-823
▁문제가	-824
▁왜	-825
▁무엇	-826
▁응	-827
료를	-828
라도	-829
▁100	-830
▁바로	-831
▁돌아	-832
▁몇	-833
▁환경	-834
▁공동	-835
▁영화	-836
지역	-837
▁수준	-838
▁사랑	-839
▁여행	-840
▁없이	-841
▁방송	-842
▁만나	-843
▁정치	-844
▁특별	-845
씨는	-846
▁만들어	-847
▁얼마	-848
되어	-849
▁회사	-850
▁돈	-851
▁즐	-852
▁요청	-853
▁그래	-854
▁있었다	-855
▁논란	-856
했어요	-857
▁폐	-858
▁엄	-859
▁있지만	-860
▁악	-861
▁드러	-862
▁18	-863
▁의미	-864
▁주요	-865
스가	-866
▁있고	-867
명을	-868
▁있나요	-869
▁주민	-870
스템	-871
▁감사	-872
▁이것	-873
기관	-874
▁상품	-875
▁해외	-876
▁집중	-877
▁우리가	-878
▁별	-879
주는	-880
▁저희	-881
요일	-882
다면	-883
리에	-884
▁그리고	-885
▁제기	-886
▁효과	-887
▁성장	-888
▁13	-889
▁기간	-890
재인	-891
▁같이	-892
▁맡	-893
▁지속	-894
▁이해	-895
▁머	-896
이가	-897
했지만	-898
점을	-899
는지	-900
▁돼	-901
의를	-902
▁업무	-903
▁자동	-904
시에	-905
▁받고	-906
▁보도	-907
▁다만	-908
▁건강	-909
▁놓	-910
▁차량	-911
▁시간이	-912
▁해결	-913
▁재판	-914
▁의원	-915
개월	-916
▁방법	-917
업을	-918
▁16	-919
▁거래	-920
▁풀	-921
▁존	-922
로벌	-923
▁쉽	-924
▁내년	-925
▁아닌	-926
▁B	-927
▁분야	-928
▁25	-929
▁문화	-930
▁필요한	-931
▁전체	-932
▁14	-933
▁의견	-934
장과	-935
▁자신의	-936
인데	-937
예요	-938
부를	-939
,000	-940
적이	-941
명의	-942
▁맛	-943
▁키	-944
▁구매	-945
▁여기	-946
▁해요	-947
시가	-948
▁프로그램	-949
혁신	-950
▁현대	-951
부분	-952
만원	-953
전을	-954
연구	-955
▁먼저	-956
▁인천	-957
했다는	-958
▁교수	-959
▁비롯	-960
서를	-961
도로	-962
▁강화	-963
리아	-964
임을	-965
▁외국	-966
▁몸	-967
▁압	-968
▁됐다	-969
기술	-970
▁클	-971
▁혹	-972
제가	-973
▁선택	-974
▁침	-975
▁조금	-976
▁전했다	-977
치는	-978
밖에	-979
▁일이	-980
▁숨	-981
▁부담	-982
▁더욱	-983
▁지방	-984
▁관리	-985
▁매우	-986
▁경험	-987
산업	-988
▁글로벌	-989
정부	-990
▁설치	-991
▁탄	-992
식이	-993
▁긴	-994
▁혼	-995
하다는	-996
▁성공	-997
▁상승	-998
▁문재인	-999
세를	-1000
▁받은	-1001
▁와	-1002
▁고용	-1003
대가	-1004
인지	-1005
▁천	-1006
케이	-1007
물을	-1008
라인	-1009
▁않을	-1010
▁스마트	-1011
▁국무	-1012
▁경찰은	-1013
움을	-1014
▁고려	-1015
▁되는	-1016
▁구성	-1017
▁앞으로	-1018
▁유지	-1019
동을	-1020
되면	-1021
▁영어	-1022
▁신청	-1023
▁황	-1024
▁역할	-1025
▁이름	-1026
감을	-1027
대를	-1028
▁17	-1029
▁크게	-1030
선을	-1031
▁일반	-1032
진다	-1033
▁예정이다	-1034
가가	-1035
▁나온다	-1036
▁윤	-1037
원에	-1038
▁과거	-1039
수를	-1040
▁가능한	-1041
겠다는	-1042
▁보면	-1043
▁그의	-1044
▁탈	-1045
▁터	-1046
▁스타	-1047
▁지난달	-1048
게요	-1049
▁얻	-1050
파트	-1051
▁그가	-1052
자인	-1053
▁도입	-1054
마다	-1055
▁러	-1056
▁합의	-1057
정은	-1058
하지만	-1059
▁콘	-1060
▁하지만	-1061
▁연락	-1062
▁언제	-1063
었던	-1064
시설	-1065
▁하루	-1066
▁대부분	-1067
▁뉴	-1068
0%	-1069
▁높아	-1070
▁I	-1071
▁등에	-1072
드는	-1073
▁이제	-1074
▁장관	-1075
▁생활	-1076
▁대비	-1077
▁확보	-1078
▁한다는	-1079
르는	-1080
▁희	-1081
▁제주	-1082
▁경기도	-1083
▁캐	-1084
▁대법	-1085
▁발견	-1086
▁구조	-1087
▁앞서	-1088
립니다	-1089
▁펼	-1090
),	-1091
▁비판	-1092
▁따른	-1093
한다는	-1094
사에	-1095
▁해야	-1096
▁밀	-1097
▁어디	-1098
▁일자	-1099
▁계약	-1100
▁논의	-1101
▁빨	-1102
▁어렵	-1103
치가	-1104
▁업체	-1105
하도록	-1106
▁부족	-1107
▁알고	-1108
인의	-1109
▁비용	-1110
시면	-1111
전히	-1112
정보	-1113
▁적극	-1114
▁정상회담	-1115
▁L	-1116
자로	-1117
단체	-1118
그룹	-1119
▁그동안	-1120
▁것도	-1121
▁내일	-1122
▁만에	-1123
▁레	-1124
전에	-1125
▁선거	-1126
▁과정에서	-1127
▁역시	-1128
▁암	-1129
▁있는데	-1130
▁관광	-1131
▁인정	-1132
▁무역	-1133
▁24	-1134
▁어린	-1135
▁시행	-1136
▁둘	-1137
▁개최	-1138
음을	-1139
▁선정	-1140
점이	-1141
▁하지	-1142
▁놀	-1143
사와	-1144
계를	-1145
▁수출	-1146
▁육	-1147
되면서	-1148
▁직원	-1149
▁신고	-1150
▁관심이	-1151
▁아무	-1152
201	-1153
▁보이	-1154
과의	-1155
▁미래	-1156
시키	-1157
▁도시	-1158
▁않았다	-1159
한다고	-1160
▁울	-1161
이었다	-1162
▁뜻	-1163
습니까	-1164
▁등으로	-1165
스로	-1166
▁공공	-1167
지에	-1168
▁노력	-1169
하기로	-1170
움이	-1171
▁공급	-1172
▁예산	-1173
▁삶	-1174
▁물론	-1175
▁가지	-1176
▁없어	-1177
▁검토	-1178
▁인사	-1179
▁전문가	-1180
소를	-1181
권을	-1182
보고	-1183
▁중인	-1184
트를	-1185
▁전에	-1186
▁정확	-1187
한국당	-1188
인은	-1189
▁이렇	-1190
업체	-1191
▁받는	-1192
▁주목	-1193
경제	-1194
위가	-1195
▁올라	-1196
▁번째	-1197
계가	-1198
▁풍	-1199
원에서	-1200
▁23	-1201
▁영향을	-1202
시장	-1203
▁네가	-1204
▁이에	-1205
▁것이라는	-1206
▁도착	-1207
▁소속	-1208
▁기다	-1209
▁어느	-1210
정책	-1211
▁우선	-1212
▁21	-1213
▁착	-1214
▁뛰	-1215
▁경영	-1216
▁행정	-1217
▁알려졌다	-1218
▁아파트	-1219
(1	-1220
▁광주	-1221
▁자리	-1222
▁전달	-1223
지로	-1224
리스	-1225
▁목표	-1226
▁인상	-1227
▁제작	-1228
▁강조했다	-1229
▁방식	-1230
▁비핵	-1231
일을	-1232
▁위험	-1233
냈다	-1234
사회	-1235
▁M	-1236
▁최저	-1237
▁감소	-1238
)’	-1239
▁얘	-1240
▁밤	-1241
▁이동	-1242
▁나서	-1243
안이	-1244
하다고	-1245
▁주변	-1246
▁러시아	-1247
▁시스템	-1248
▁상대	-1249
▁지나	-1250
년간	-1251
▁공간	-1252
개발	-1253
▁가지고	-1254
▁27	-1255
▁불가	-1256
구가	-1257
▁게임	-1258
조사	-1259
▁행복	-1260
랍니다	-1261
▁됩니다	-1262
려고	-1263
문화	-1264
▁끌	-1265
▁거예요	-1266
단이	-1267
지면서	-1268
▁택	-1269
스는	-1270
▁시험	-1271
일부터	-1272
▁찍	-1273
▁겪	-1274
물이	-1275
▁숙	-1276
▁품	-1277
에선	-1278
▁핵심	-1279
▁붙	-1280
▁부탁	-1281
▁전해	-1282
▁갑	-1283
▁그럼	-1284
▁최종	-1285
▁늦	-1286
▁호텔	-1287
었어요	-1288
자들의	-1289
▁받을	-1290
▁자동차	-1291
▁50	-1292
▁언론	-1293
임금	-1294
▁각각	-1295
▁싶은	-1296
▁혁신	-1297
업이	-1298
지막	-1299
▁지급	-1300
▁바랍니다	-1301
자와	-1302
▁두고	-1303
▁자유한국당	-1304
▁제출	-1305
촬영	-1306
통신	-1307
▁있기	-1308
제로	-1309
머니	-1310
▁22	-1311
▁중소	-1312
▁제대로	-1313
량이	-1314
▁견	-1315
겠어요	-1316
▁받았	-1317
▁나왔다	-1318
▁행사	-1319
▁유럽	-1320
▁기능	-1321
▁작품	-1322
▁공연	-1323
▁현실	-1324
불어	-1325
▁퇴	-1326
▁일을	-1327
▁하락	-1328
▁대응	-1329
하던	-1330
르게	-1331
동산	-1332
▁왔	-1333
환경	-1334
▁넘어	-1335
▁내려	-1336
▁마지막	-1337
▁대통령은	-1338
▁죽	-1339
▁예약	-1340
▁거야	-1341
▁서로	-1342
▁죄	-1343
드를	-1344
▁2018	-1345
▁점을	-1346
▁혹시	-1347
▁조성	-1348
▁대상으로	-1349
▁불법	-1350
▁공정	-1351
▁P	-1352
일까지	-1353
관리	-1354
▁팔	-1355
▁나라	-1356
TV	-1357
▁은행	-1358
▁상당	-1359
가를	-1360
있는	-1361
지지	-1362
▁부모	-1363
▁촉	-1364
▁대구	-1365
거래	-1366
▁있게	-1367
▁쪽	-1368
스타	-1369
어난	-1370
▁28	-1371
▁관련해	-1372
문을	-1373
▁분위	-1374
▁반영	-1375
▁이렇게	-1376
▁보호	-1377
현지	-1378
▁기자	-1379
하자	-1380
▁홈	-1381
▁같아요	-1382
▁구속	-1383
겠다고	-1384
▁사람들이	-1385
이를	-1386
▁나타났다	-1387
▁사례	-1388
▁브랜드	-1389
▁석	-1390
▁꾸	-1391
▁뿐	-1392
나라	-1393
으니	-1394
▁이는	-1395
▁음식	-1396
▁인터넷	-1397
▁또한	-1398
감이	-1399
▁근로	-1400
▁26	-1401
▁건설	-1402
다가	-1403
▁수요	-1404
▁소개	-1405
▁발전	-1406
소년	-1407
▁믿	-1408
▁청년	-1409
▁내부	-1410
▁매출	-1411
두고	-1412
▁가까	-1413
대에	-1414
▁말씀	-1415
▁인해	-1416
(2	-1417
▁더불어	-1418
▁상황에서	-1419
율이	-1420
학생	-1421
▁많아	-1422
▁대신	-1423
▁징	-1424
세먼	-1425
▁주택	-1426
▁꿈	-1427
세가	-1428
▁연결	-1429
▁얼마나	-1430
▁목소	-1431
▁있으며	-1432
▁모델	-1433
▁넣	-1434
▁가는	-1435
비를	-1436
▁개정	-1437
▁겨	-1438
라이	-1439
드리	-1440
▁있어서	-1441
하거나	-1442
▁또는	-1443
▁본격	-1444
▁없습니다	-1445
▁문제를	-1446
▁궁	-1447
차가	-1448
달러	-1449
▁아래	-1450
▁회의	-1451
섰다	-1452
▁색	-1453
국이	-1454
▁책임	-1455
도의	-1456
▁주세요	-1457
▁차지	-1458
▁중요한	-1459
▁전화	-1460
▁제시	-1461
들도	-1462
▁2016	-1463
금이	-1464
▁힘들	-1465
주택	-1466
지원	-1467
로부터	-1468
건을	-1469
▁40	-1470
▁사무	-1471
▁유명	-1472
▁비핵화	-1473
▁공격	-1474
▁반대	-1475
▁자연	-1476
▁소득	-1477
▁보유	-1478
▁됐	-1479
이며	-1480
▁참가	-1481
▁팬	-1482
더라도	-1483
▁중심으로	-1484
▁평균	-1485
▁의료	-1486
▁워	-1487
지도	-1488
▁시즌	-1489
분이	-1490
▁보험	-1491
▁삼성전	-1492
▁격	-1493
한테	-1494
디어	-1495
소가	-1496
▁음악	-1497
는다	-1498
▁기본	-1499
리그	-1500
.5	-1501
▁(	-1502
구를	-1503
▁변경	-1504
▁교통	-1505
▁사망	-1506
스크	-1507
▁깊	-1508
▁공식	-1509
행을	-1510
▁혐의로	-1511
▁인근	-1512
▁치료	-1513
▁여자	-1514
▁인도	-1515
▁대통령의	-1516
▁실시	-1517
▁정부의	-1518
▁구축	-1519
▁장애	-1520
▁강원	-1521
▁중앙	-1522
▁컨	-1523
차를	-1524
▁은	-1525
▁출신	-1526
▁담당	-1527
▁가져	-1528
스터	-1529
▁모습을	-1530
▁전략	-1531
▁역할을	-1532
▁원내	-1533
▁것이라고	-1534
▁부동산	-1535
▁자신이	-1536
▁성과	-1537
민주당	-1538
▁능	-1539
▁수익	-1540
▁운동	-1541
▁읽	-1542
훈련	-1543
▁항공	-1544
▁운전	-1545
로는	-1546
▁각종	-1547
경찰	-1548
회에서	-1549
▁보도했다	-1550
▁있던	-1551
▁달리	-1552
▁알아	-1553
▁되어	-1554
▁만든	-1555
▁충분	-1556
▁모르	-1557
나는	-1558
▁기반	-1559
▁걱	-1560
▁규제	-1561
▁움	-1562
당이	-1563
롯데	-1564
▁북미	-1565
도시	-1566
▁민주당	-1567
씨의	-1568
교통	-1569
▁나의	-1570
▁위치	-1571
▁흐	-1572
▁기념	-1573
▁괜	-1574
▁깨	-1575
이오	-1576
▁제한	-1577
▁논란이	-1578
▁아침	-1579
▁안정	-1580
▁하면	-1581
▁꼭	-1582
▁어제	-1583
▁방향	-1584
▁이루	-1585
▁시간을	-1586
▁처리	-1587
▁온라인	-1588
▁봐	-1589
▁선보	-1590
▁하는데	-1591
트남	-1592
했을	-1593
없이	-1594
▁잘못	-1595
하세요	-1596
▁갖고	-1597
▁국토	-1598
수록	-1599
▁협력	-1600
부에	-1601
▁조직	-1602
▁듣	-1603
▁영국	-1604
▁E	-1605
▁출시	-1606
▁미국의	-1607
▁살아	-1608
▁촬영	-1609
운동	-1610
기간	-1611
▁29	-1612
▁되고	-1613
원으로	-1614
▁흔	-1615
가지	-1616
▁기획	-1617
▁이러	-1618
▁파악	-1619
▁공유	-1620
이라며	-1621
했는데	-1622
▁못한	-1623
▁표현	-1624
▁바람	-1625
▁데이터	-1626
이어	-1627
▁현지	-1628
현지시간	-1629
▁수가	-1630
증을	-1631
▁잇	-1632
규모	-1633
▁그룹	-1634
▁그녀는	-1635
▁누구	-1636
▁페이	-1637
▁봤	-1638
▁전환	-1639
▁변호	-1640
▁기억	-1641
▁대형	-1642
드립니다	-1643
회는	-1644
▁티	-1645
노동	-1646
성과	-1647
▁한다고	-1648
와의	-1649
▁이야기	-1650
일이	-1651
▁시설	-1652
▁제품을	-1653
도는	-1654
스러	-1655
위에	-1656
%)	-1657
▁괜찮	-1658
▁구체	-1659
진이	-1660
▁경남	-1661
치고	-1662
널드	-1663
▁빈	-1664
장으로	-1665
▁정도로	-1666
안전	-1667
▁싶습니다	-1668
▁민간	-1669
▁이곳	-1670
리지	-1671
▁수입	-1672
▁이전	-1673
▁저녁	-1674
▁0	-1675
▁제외	-1676
▁미세먼	-1677
▁싱	-1678
▁사실을	-1679
▁움직	-1680
▁남자	-1681
▁비교	-1682
▁안에	-1683
선거	-1684
▁최초	-1685
▁추천	-1686
▁계획이다	-1687
등학교	-1688
▁빌	-1689
▁대책	-1690
▁일정	-1691
▁봉	-1692
▁모습이	-1693
▁언급	-1694
▁평화	-1695
▁갔	-1696
▁앞두고	-1697
▁적이	-1698
▁항상	-1699
▁낙	-1700
▁쇼	-1701
▁의원이	-1702
하겠다	-1703
▁업계	-1704
었고	-1705
▁첨	-1706
▁롯데	-1707
▁제조	-1708
보험	-1709
▁변화	-1710
▁대해서	-1711
▁제재	-1712
▁전망이다	-1713
반도	-1714
▁발언	-1715
▁필요가	-1716
▁아시아	-1717
▁확정	-1718
▁근무	-1719
만큼	-1720
▁베트남	-1721
님이	-1722
▁국방	-1723
▁2017	-1724
▁잔	-1725
롭게	-1726
▁전기	-1727
▁어려운	-1728
▁도널드	-1729
▁진출	-1730
품을	-1731
’(	-1732
텐츠	-1733
▁지하	-1734
▁줄어	-1735
량을	-1736
전이	-1737
.1	-1738
▁자체	-1739
이크	-1740
▁유치	-1741
▁기관	-1742
▁D	-1743
▁존재	-1744
▁그래서	-1745
▁위반	-1746
금융	-1747
▁가진	-1748
이기	-1749
▁스마트폰	-1750
▁결혼	-1751
▁영상	-1752
너지	-1753
▁시청	-1754
▁입장	-1755
▁사회적	-1756
▁여전히	-1757
▁최저임금	-1758
▁공부	-1759
▁소방	-1760
▁의원은	-1761
들에	-1762
사고	-1763
▁말을	-1764
▁웃	-1765
▁김정은	-1766
30	-1767
▁지적했다	-1768
일에	-1769
▁딸	-1770
투자	-1771
포츠	-1772
▁지지	-1773
▁건물	-1774
▁배송	-1775
▁외교	-1776
▁F	-1777
스의	-1778
해주	-1779
▁대출	-1780
▁페	-1781
▁우리나라	-1782
▁작성	-1783
▁퍼	-1784
▁곧	-1785
▁제안	-1786
▁것에	-1787
▁찬	-1788
▁좌	-1789
▁그렇게	-1790
▁어린이	-1791
▁이러한	-1792
▁더불어민주당	-1793
▁프로젝	-1794
▁과학	-1795
▁결국	-1796
▁필요하다	-1797
▁일자리	-1798
▁많다	-1799
▁나와	-1800
▁외국인	-1801
청은	-1802
▁옷	-1803
▁협상	-1804
▁전시	-1805
▁가능하다	-1806
▁고민	-1807
▁이유로	-1808
▁방침	-1809
▁녹	-1810
▁작업	-1811
▁활성	-1812
▁듯	-1813
▁이것은	-1814
▁내놓	-1815
▁출연	-1816
자에게	-1817
▁중단	-1818
▁겁	-1819
률이	-1820
▁원내대표	-1821
▁오른	-1822
위는	-1823
▁현장	-1824
▁불편	-1825
▁가입	-1826
▁나선	-1827
▁집에	-1828
▁지도	-1829
▁최소	-1830
하는데	-1831
▁같습니다	-1832
소득	-1833
▁민주	-1834
스럽	-1835
▁없다는	-1836
▁갈등	-1837
▁스스로	-1838
▁죄송	-1839
▁해서	-1840
▁지정	-1841
▁달러	-1842
국의	-1843
라마	-1844
사로	-1845
▁타고	-1846
▁맞아	-1847
▁독일	-1848
▁화재	-1849
서비스	-1850
▁잃	-1851
▁궁금	-1852
▁너는	-1853
▁노래	-1854
▁실제로	-1855
대한	-1856
술을	-1857
건이	-1858
▁설립	-1859
▁즉	-1860
▁31	-1861
▁요즘	-1862
부의	-1863
▁바라	-1864
▁여름	-1865
▁왕	-1866
거리	-1867
▁사진을	-1868
▁작은	-1869
·1	-1870
▁꼽	-1871
보는	-1872
▁약속	-1873
▁솔	-1874
▁선고	-1875
▁취소	-1876
년부터	-1877
▁받았다	-1878
▁입장을	-1879
▁2015	-1880
▁경우가	-1881
▁달라	-1882
▁관심을	-1883
▁비해	-1884
생활	-1885
▁축구	-1886
반기	-1887
▁않다	-1888
관계	-1889
르고	-1890
약을	-1891
▁아마	-1892
▁상황이	-1893
▁빨리	-1894
▁경찰이	-1895
비가	-1896
▁도움이	-1897
정상	-1898
▁경북	-1899
▁자료	-1900
▁정보를	-1901
겼다	-1902
하겠습니다	-1903
▁벌어	-1904
▁수밖에	-1905
▁한번	-1906
▁채용	-1907
▁통과	-1908
▁돈을	-1909
▁헌	-1910
▁헤	-1911
▁얘기	-1912
▁주장했다	-1913
▁오래	-1914
▁있는지	-1915
회에	-1916
▁단체	-1917
▁비롯해	-1918
▁내용을	-1919
▁통신	-1920
▁자기	-1921
▁정신	-1922
어야	-1923
▁메시	-1924
▁등록	-1925
▁않습니다	-1926
▁카드	-1927
리의	-1928
복지	-1929
▁이유는	-1930
▁얼굴	-1931
▁블록	-1932
▁G	-1933
▁가능성	-1934
▁쉽게	-1935
▁판결	-1936
▁끊	-1937
실을	-1938
▁대화	-1939
항공	-1940
▁서울시	-1941
대의	-1942
▁대체	-1943
트가	-1944
▁납	-1945
▁덧	-1946
분을	-1947
▁둔	-1948
▁케이	-1949
적을	-1950
▁신규	-1951
▁보는	-1952
▁질문	-1953
▁강남	-1954
▁선발	-1955
▁가수	-1956
▁등장	-1957
▁그것은	-1958
▁쉬	-1959
관은	-1960
사에서	-1961
▁향후	-1962
▁원하는	-1963
▁거의	-1964
▁종합	-1965
단을	-1966
▁대법원	-1967
▁발생한	-1968
▁우수	-1969
었어	-1970
▁전반	-1971
인가요	-1972
▁서비스를	-1973
하기도	-1974
km	-1975
개의	-1976
심을	-1977
▁해도	-1978
▁위해서는	-1979
▁희망	-1980
▁우리의	-1981
▁대해서는	-1982
▁엄마	-1983
쳤다	-1984
▁인간	-1985
▁비슷	-1986
▁이사	-1987
관을	-1988
▁우려가	-1989
▁형태	-1990
▁도와	-1991
▁부정	-1992
▁프랑	-1993
.2	-1994
셔서	-1995
▁반응	-1996
자들은	-1997
▁위해서	-1998
▁결제	-1999
▁중소기업	-2000
▁남아	-2001
랫폼	-2002
▁시절	-2003
▁컴	-2004
보다는	-2005
해도	-2006
▁확산	-2007
▁덧붙	-2008
수의	-2009
▁싶어요	-2010
▁조선	-2011
▁관한	-2012
▁도로	-2013
어를	-2014
었지만	-2015
▁대표가	-2016
지방	-2017
▁자주	-2018
▁나섰다	-2019
▁비중	-2020
▁사실이	-2021
▁전통	-2022
▁상대로	-2023
격을	-2024
▁체험	-2025
수는	-2026
▁금액	-2027
▁이하	-2028
▁엔	-2029
▁우승	-2030
▁해석	-2031
▁대전	-2032
▁싸	-2033
▁회담	-2034
▁혜	-2035
가고	-2036
▁소송	-2037
▁디자인	-2038
▁장기	-2039
▁독립	-2040
▁결과를	-2041
▁흥	-2042
계획	-2043
▁것과	-2044
▁동시에	-2045
▁노조	-2046
▁콘텐츠	-2047
▁것이에요	-2048
었는데	-2049
▁당신에게	-2050
▁범죄	-2051
▁이끌	-2052
▁그들은	-2053
▁남성	-2054
▁반도	-2055
정에	-2056
▁맥	-2057
▁아름	-2058
▁차례	-2059
인으로	-2060
▁긍	-2061
▁아주	-2062
▁그림	-2063
미래	-2064
▁광고	-2065
▁곳이	-2066
▁내용이	-2067
▁씨	-2068
▁마무	-2069
▁화장	-2070
▁때는	-2071
(3	-2072
▁없을	-2073
였습니다	-2074
지의	-2075
▁주는	-2076
▁연기	-2077
▁졸	-2078
▁걱정	-2079
체인	-2080
▁옮	-2081
▁이상의	-2082
주가	-2083
50	-2084
▁있으면	-2085
▁비행	-2086
▁나에게	-2087
선이	-2088
권이	-2089
▁대중	-2090
월부터	-2091
▁창업	-2092
▁검찰은	-2093
▁공무	-2094
.3	-2095
▁국정	-2096
▁만약	-2097
함을	-2098
▁싶어	-2099
▁경찰에	-2100
분기	-2101
▁긍정	-2102
년이	-2103
공항	-2104
▁완료	-2105
▁2019	-2106
▁넘는	-2107
▁지켜	-2108
▁아니다	-2109
▁스트	-2110
▁했습니다	-2111
상에	-2112
▁아버	-2113
부와	-2114
▁대표는	-2115
▁특징	-2116
▁제도	-2117
▁취업	-2118
▁기업이	-2119
▁없었다	-2120
▁단계	-2121
▁이들이	-2122
▁사람은	-2123
▁뜨	-2124
별로	-2125
▁벗	-2126
▁옆	-2127
드가	-2128
▁쏟	-2129
▁못하고	-2130
국은	-2131
정한	-2132
▁여론	-2133
▁프리	-2134
▁국회의	-2135
▁하나님	-2136
게임	-2137
▁공항	-2138
▁정부는	-2139
▁캠	-2140
기의	-2141
▁덧붙였다	-2142
▁빼	-2143
하신	-2144
▁한국의	-2145
상의	-2146
▁자녀	-2147
멤버	-2148
린다	-2149
▁점검	-2150
냐는	-2151
▁나도	-2152
이자	-2153
일로	-2154
▁낸	-2155
내는	-2156
BS	-2157
▁셈	-2158
인들이	-2159
▁수업	-2160
▁반도체	-2161
중앙	-2162
▁심각	-2163
오는	-2164
▁건가요	-2165
▁둘러	-2166
▁주도	-2167
▁감독이	-2168
▁되면	-2169
길을	-2170
이야	-2171
▁염	-2172
화폐	-2173
스코	-2174
▁놓고	-2175
▁마무리	-2176
▁강력	-2177
▁조정	-2178
과학	-2179
▁상황을	-2180
연합	-2181
▁시도	-2182
▁북한이	-2183
▁전자	-2184
’,	-2185
개를	-2186
▁선생	-2187
▁발표한	-2188
▁뭐	-2189
▁장면	-2190
랐다	-2191
▁신뢰	-2192
▁플랫폼	-2193
▁중에	-2194
기와	-2195
▁벤	-2196
▁전남	-2197
▁뇌	-2198
▁망	-2199
▁주말	-2200
드컵	-2201
으로는	-2202
려면	-2203
세대	-2204
▁관측	-2205
▁순간	-2206
▁한반도	-2207
▁대북	-2208
▁들어가	-2209
▁겁니다	-2210
▁겸	-2211
년에	-2212
▁수행	-2213
▁역사	-2214
하시	-2215
▁N	-2216
▁사법	-2217
구의	-2218
▁배경	-2219
▁접근	-2220
▁분명	-2221
▁홍보	-2222
드릴	-2223
▁있을까요	-2224
▁덕	-2225
▁사실상	-2226
▁예상된다	-2227
자에	-2228
▁이번에	-2229
▁회복	-2230
▁드라마	-2231
경기	-2232
문이	-2233
▁정확한	-2234
▁했어요	-2235
▁않는다	-2236
▁인한	-2237
▁성폭	-2238
▁‘201	-2239
▁처음으로	-2240
▁젊	-2241
▁행동	-2242
▁있으	-2243
▁고양	-2244
▁국무위원	-2245
▁재미	-2246
▁바른	-2247
▁청구	-2248
히려	-2249
▁멤버	-2250
▁보다	-2251
▁혼자	-2252
심히	-2253
▁열리는	-2254
▁사는	-2255
인과	-2256
▁거쳐	-2257
▁택시	-2258
▁투입	-2259
▁199	-2260
▁가격이	-2261
▁사업을	-2262
▁이들	-2263
▁문제는	-2264
▁탑	-2265
▁높다	-2266
▁그대로	-2267
받은	-2268
발전	-2269
▁끼	-2270
스에	-2271
▁미국이	-2272
회사	-2273
되며	-2274
므로	-2275
▁협의	-2276
▁쌓	-2277
▁통한	-2278
년을	-2279
▁슬	-2280
안에	-2281
▁사라	-2282
▁유통	-2283
▁추정	-2284
▁출발	-2285
▁60	-2286
여명이	-2287
활동	-2288
전쟁	-2289
▁늘어나	-2290
▁같다	-2291
▁이재	-2292
다운	-2293
▁반발	-2294
디오	-2295
▁불가능	-2296
어가	-2297
▁나가	-2298
▁묻	-2299
▁대변	-2300
▁여기에	-2301
▁넓	-2302
▁주로	-2303
▁신용	-2304
메라	-2305
▁서류	-2306
▁겨울	-2307
▁효과가	-2308
▁아시	-2309
하겠다는	-2310
이지만	-2311
리와	-2312
운드	-2313
▁동물	-2314
▁연속	-2315
▁의견을	-2316
였던	-2317
▁강한	-2318
화된	-2319
서에	-2320
.4	-2321
▁증거	-2322
▁오히려	-2323
했으며	-2324
해주세요	-2325
▁좋아하는	-2326
▁통합	-2327
학과	-2328
▁느끼	-2329
▁푸	-2330
▁밝혀	-2331
▁부과	-2332
BC	-2333
▁보수	-2334
▁중이다	-2335
갔다	-2336
행정	-2337
▁보니	-2338
원들이	-2339
▁나를	-2340
▁당신을	-2341
서가	-2342
▁방안을	-2343
▁비롯한	-2344
성에	-2345
▁1,	-2346
▁새로	-2347
지와	-2348
▁인터뷰	-2349
NS	-2350
▁되지	-2351
▁예술	-2352
거운	-2353
형을	-2354
원과	-2355
▁냉	-2356
도에	-2357
만이	-2358
▁이른	-2359
▁평양	-2360
▁보이는	-2361
▁익	-2362
.7	-2363
▁조치	-2364
▁교체	-2365
▁소통	-2366
▁커피	-2367
▁사항	-2368
▁수상	-2369
점에서	-2370
한다면	-2371
격이	-2372
▁이야기를	-2373
▁펼쳐	-2374
겠지만	-2375
▁만드는	-2376
▁점에서	-2377
▁무슨	-2378
평가	-2379
▁예방	-2380
.8	-2381
단은	-2382
▁오늘은	-2383
▁대한민	-2384
아가	-2385
▁안내	-2386
부모	-2387
▁영업	-2388
▁없어요	-2389
▁멀	-2390
▁맞춰	-2391
성장	-2392
▁휴대	-2393
해보	-2394
호를	-2395
▁측은	-2396
만의	-2397
▁개혁	-2398
▁끝나	-2399
관광	-2400
%,	-2401
▁하기	-2402
▁특정	-2403
▁학습	-2404
.6	-2405
▁대통령과	-2406
▁답변	-2407
▁크다	-2408
▁낮은	-2409
▁불안	-2410
▁처벌	-2411
중에	-2412
진을	-2413
으면서	-2414
관에서	-2415
▁T	-2416
▁마을	-2417
▁의무	-2418
대학	-2419
▁명이	-2420
▁쏟아	-2421
화에	-2422
▁청소년	-2423
er	-2424
▁사태	-2425
▁학생들이	-2426
▁열심히	-2427
자기	-2428
▁선물	-2429
▁전날	-2430
우는	-2431
.9	-2432
▁프로젝트	-2433
▁선언	-2434
▁전혀	-2435
었다고	-2436
청이	-2437
명으로	-2438
포르	-2439
리로	-2440
▁제일	-2441
▁훈련	-2442
▁정의	-2443
리기	-2444
▁버스	-2445
았습니다	-2446
이드	-2447
▁앉	-2448
병원	-2449
▁근거	-2450
▁없다고	-2451
▁촉구	-2452
▁슈	-2453
▁외부	-2454
같이	-2455
▁가정	-2456
▁나오는	-2457
▁2014	-2458
▁미리	-2459
▁완성	-2460
프로	-2461
▁단순	-2462
▁주고	-2463
10	-2464
연금	-2465
▁SK	-2466
▁장소	-2467
▁소재	-2468
▁후에	-2469
됐다고	-2470
▁지금까지	-2471
▁혜택	-2472
▁힘을	-2473
▁의심	-2474
▁주시	-2475
리카	-2476
장애	-2477
되기	-2478
▁활동을	-2479
▁북한의	-2480
▁꾸준	-2481
▁그냥	-2482
(5	-2483
지털	-2484
호가	-2485
대는	-2486
하려고	-2487
▁앞에서	-2488
▁않도록	-2489
(4	-2490
▁가서	-2491
사들이	-2492
▁재정	-2493
▁맞는	-2494
▁바탕	-2495
드시	-2496
▁남편	-2497
▁담긴	-2498
법을	-2499
어도	-2500
▁섬	-2501
▁대규모	-2502
▁혐의를	-2503
▁기초	-2504
▁루	-2505
▁매년	-2506
▁것처럼	-2507
▁오랜	-2508
▁셈이다	-2509
▁중국의	-2510
▁뒷	-2511
씨를	-2512
▁스포츠	-2513
▁고위	-2514
▁전해졌다	-2515
▁빠르게	-2516
▁너의	-2517
▁않으면	-2518
▁젊은	-2519
▁잇따	-2520
▁바뀌	-2521
대책	-2522
증이	-2523
▁밝힌	-2524
▁액	-2525
역을	-2526
▁대회	-2527
▁마음을	-2528
▁한국에	-2529
회견	-2530
차례	-2531
▁창출	-2532
행이	-2533
▁매일	-2534
▁탓	-2535
가포르	-2536
▁점이	-2537
▁쿠	-2538
실에서	-2539
워크	-2540
카오	-2541
▁접수	-2542
산을	-2543
▁신경	-2544
▁지적이	-2545
위로	-2546
▁땅	-2547
스러운	-2548
▁인식	-2549
▁확실	-2550
대학교	-2551
이지	-2552
▁사전	-2553
▁회장이	-2554
체육	-2555
▁폭염	-2556
스와	-2557
▁있다면	-2558
▁부문	-2559
▁중간	-2560
내고	-2561
퓨터	-2562
▁검찰이	-2563
▁202	-2564
단의	-2565
▁늘어	-2566
▁있었던	-2567
▁국립	-2568
려는	-2569
▁불과	-2570
▁교수는	-2571
구조	-2572
협력	-2573
▁비가	-2574
▁할인	-2575
석이	-2576
정상회담	-2577
바일	-2578
▁흘	-2579
▁만족	-2580
▁엘	-2581
▁한국당	-2582
목을	-2583
케팅	-2584
▁페이스	-2585
▁암호	-2586
▁불이	-2587
▁술	-2588
국제	-2589
제품	-2590
웨이	-2591
▁강제	-2592
실이	-2593
▁이들은	-2594
주고	-2595
▁불러	-2596
▁뉴욕	-2597
지면	-2598
in	-2599
선언	-2600
리한	-2601
▁따로	-2602
▁받지	-2603
▁울산	-2604
▁못했다	-2605
▁체결	-2606
▁결과가	-2607
▁기자회견	-2608
보가	-2609
▁의사	-2610
▁방식으로	-2611
▁빅	-2612
▁아동	-2613
▁블록체인	-2614
▁수정	-2615
▁완화	-2616
▁일어나	-2617
업계	-2618
▁이달	-2619
▁먹고	-2620
▁소비자	-2621
▁이벤	-2622
▁쏠	-2623
으로부터	-2624
민이	-2625
▁사과	-2626
▁인공	-2627
지자	-2628
으로써	-2629
▁측면	-2630
▁금지	-2631
▁의해	-2632
▁토론	-2633
▁미세먼지	-2634
▁편의	-2635
▁장관이	-2636
▁사고가	-2637
▁생각이	-2638
군요	-2639
▁주식	-2640
▁기상	-2641
▁이탈	-2642
았던	-2643
▁그것을	-2644
구는	-2645
질이	-2646
학년	-2647
▁상담	-2648
▁쉽지	-2649
▁군사	-2650
▁공모	-2651
▁라이	-2652
▁싱가포르	-2653
▁써	-2654
▁말고	-2655
했으나	-2656
▁빚	-2657
▁분양	-2658
▁사용할	-2659
요일에	-2660
기고	-2661
▁지시	-2662
만을	-2663
▁조사를	-2664
▁꽃	-2665
▁아프	-2666
▁위원장이	-2667
▁시장이	-2668
전문	-2669
제는	-2670
자동	-2671
▁평소	-2672
수수	-2673
▁무료	-2674
상으로	-2675
▁사람의	-2676
어진	-2677
▁있습니까	-2678
▁시각	-2679
점으로	-2680
▁빛	-2681
표를	-2682
▁못하는	-2683
감독	-2684
해를	-2685
▁빠른	-2686
▁수술	-2687
▁반드시	-2688
▁실적	-2689
▁대기업	-2690
라며	-2691
시스템	-2692
▁임대	-2693
▁어머니	-2694
율을	-2695
▁있었습니다	-2696
▁거부	-2697
하려는	-2698
▁바른미래	-2699
고를	-2700
▁차이가	-2701
분에	-2702
▁LG	-2703
▁프랑스	-2704
▁때문입니다	-2705
▁의혹을	-2706
▁했지만	-2707
방을	-2708
세계	-2709
▁비상	-2710
었다는	-2711
▁해소	-2712
당한	-2713
있다	-2714
▁불구	-2715
▁압박	-2716
▁가야	-2717
▁베이	-2718
▁피해를	-2719
▁통화	-2720
받고	-2721
▁실패	-2722
▁아시안	-2723
유치	-2724
▁여야	-2725
림픽	-2726
▁개편	-2727
▁다가	-2728
▁법원	-2729
▁컴퓨터	-2730
on	-2731
억원을	-2732
▁대표팀	-2733
프라	-2734
▁기소	-2735
▁반복	-2736
▁충남	-2737
▁일으	-2738
▁앱	-2739
▁수는	-2740
상은	-2741
▁활성화	-2742
▁일단	-2743
▁500	-2744
▁도움을	-2745
▁때까지	-2746
▁카페	-2747
사항	-2748
▁졸업	-2749
▁직후	-2750
수로	-2751
점에	-2752
▁있지	-2753
▁페이스북	-2754
가의	-2755
▁생각합니다	-2756
▁동의	-2757
▁메뉴	-2758
플레이	-2759
▁디지털	-2760
▁수도권	-2761
▁욕	-2762
▁나왔	-2763
방송	-2764
카드	-2765
▁기회를	-2766
▁추가로	-2767
▁하겠습니다	-2768
▁틀	-2769
전에서	-2770
▁70	-2771
▁유일	-2772
▁전년	-2773
▁꺼	-2774
께서	-2775
느냐	-2776
▁없고	-2777
▁주인	-2778
▁주차	-2779
▁사건을	-2780
션을	-2781
년까지	-2782
릭터	-2783
▁나올	-2784
▁쇼핑	-2785
▁폭행	-2786
▁통일	-2787
▁허용	-2788
▁한국에서	-2789
프트	-2790
▁대기	-2791
라면	-2792
▁부인	-2793
▁앞에	-2794
▁연장	-2795
▁차별	-2796
상공	-2797
▁지하철	-2798
▁인생	-2799
▁이상이	-2800
적이고	-2801
▁찾는	-2802
▁바탕으로	-2803
▁건축	-2804
▁느낌	-2805
▁O	-2806
대회	-2807
▁다니	-2808
▁혈	-2809
▁자율	-2810
▁밖	-2811
▁그때	-2812
▁짧	-2813
명에	-2814
▁규모의	-2815
▁열고	-2816
▁위협	-2817
▁지자	-2818
바이오	-2819
▁관광객	-2820
▁나오고	-2821
실에	-2822
▁모바일	-2823
▁억	-2824
공사	-2825
▁미안	-2826
▁이익	-2827
적이다	-2828
▁탐	-2829
▁훨	-2830
▁카메라	-2831
다른	-2832
▁특별한	-2833
▁소유	-2834
시오	-2835
▁살펴	-2836
▁부탁드립니다	-2837
▁명의	-2838
▁예측	-2839
▁자리를	-2840
▁말이	-2841
▁캐릭터	-2842
레스	-2843
▁절반	-2844
▁눈에	-2845
▁다르	-2846
▁R	-2847
펀드	-2848
▁검사	-2849
▁기여	-2850
▁모양	-2851
▁전용	-2852
▁훨씬	-2853
▁돕	-2854
니스	-2855
▁샘	-2856
▁보장	-2857
▁김영	-2858
▁수사를	-2859
하겠다고	-2860
제도	-2861
해진	-2862
▁충분히	-2863
됐고	-2864
▁바꾸	-2865
▁공개된	-2866
▁휘	-2867
의회	-2868
▁TV	-2869
▁좋을	-2870
▁애플	-2871
▁최고의	-2872
시켜	-2873
▁최대한	-2874
▁암호화폐	-2875
▁챙	-2876
▁않아요	-2877
력과	-2878
▁보였다	-2879
▁여기서	-2880
겠어	-2881
란다	-2882
로를	-2883
▁사람을	-2884
▁눈길을	-2885
▁밝히	-2886
▁여부를	-2887
▁대한민국	-2888
▁그곳	-2889
▁에너지	-2890
산이	-2891
▁나누	-2892
▁갑자기	-2893
료가	-2894
▁설계	-2895
▁같은데	-2896
▁인수	-2897
▁콜	-2898
▁기술을	-2899
▁작용	-2900
목이	-2901
▁사람들은	-2902
협회	-2903
▁태풍	-2904
▁자세	-2905
본부	-2906
이에	-2907
▁무엇보다	-2908
▁가고	-2909
▁들고	-2910
▁책을	-2911
▁마케팅	-2912
▁모여	-2913
▁이름을	-2914
▁하나요	-2915
▁회계	-2916
▁코스	-2917
▁회원	-2918
▁근처	-2919
▁피부	-2920
▁카카오	-2921
▁미국과	-2922
▁지금은	-2923
가족	-2924
▁사건이	-2925
드리겠습니다	-2926
▁복지	-2927
명은	-2928
▁저에게	-2929
▁끌어	-2930
월에	-2931
받는	-2932
만원을	-2933
▁마음이	-2934
함이	-2935
▁수수	-2936
▁마이크	-2937
▁드리	-2938
▁수용	-2939
▁전면	-2940
▁전쟁	-2941
▁밥	-2942
▁결론	-2943
▁흐름	-2944
▁정리	-2945
▁식당	-2946
▁쓴	-2947
어로	-2948
▁세종	-2949
▁SNS	-2950
▁가득	-2951
음이	-2952
인트	-2953
▁긴급	-2954
▁기업의	-2955
▁학부모	-2956
▁싫	-2957
▁느껴	-2958
▁300	-2959
관의	-2960
▁사용하는	-2961
▁가게	-2962
▁했던	-2963
▁방침이다	-2964
▁포함한	-2965
▁2013	-2966
▁보이고	-2967
▁빠져	-2968
건설	-2969
스토	-2970
▁가치	-2971
▁멋	-2972
▁법무	-2973
▁종류	-2974
점은	-2975
▁보건	-2976
▁관련된	-2977
절한	-2978
▁커지고	-2979
분쯤	-2980
자치	-2981
▁하다	-2982
개혁	-2983
▁바른미래당	-2984
교회	-2985
셔야	-2986
▁새벽	-2987
▁목소리가	-2988
▁만난	-2989
▁되나요	-2990
▁이용해	-2991
▁폼	-2992
단에	-2993
▁주최	-2994
구에	-2995
▁거주	-2996
▁비슷한	-2997
상에서	-2998
▁지원을	-2999
▁지키	-3000
▁맺	-3001
보를	-3002
액이	-3003
▁대로	-3004
▁음식을	-3005
규직	-3006
▁금리	-3007
▁참석한	-3008
▁병원	-3009
▁보통	-3010
까지는	-3011
▁설명이다	-3012
▁객	-3013
▁헬	-3014
▁다소	-3015
처가	-3016
▁유엔	-3017
▁곡	-3018
페인	-3019
▁예고	-3020
▁임시	-3021
▁응답	-3022
▁균	-3023
주를	-3024
∼2	-3025
▁나머	-3026
▁물어	-3027
▁운영하는	-3028
▁걷	-3029
이스	-3030
▁이메	-3031
▁뽑	-3032
리핀	-3033
▁자료를	-3034
해온	-3035
▁중국이	-3036
▁케	-3037
▁악화	-3038
▁특수	-3039
▁기온	-3040
▁던	-3041
잖아	-3042
▁법률	-3043
했기	-3044
미가	-3045
▁상황이다	-3046
▁U	-3047
▁떠나	-3048
신을	-3049
▁뛰어	-3050
▁아내	-3051
▁왔다	-3052
▁하며	-3053
▁바다	-3054
▁생태	-3055
▁싶은데	-3056
▁흡	-3057
스럽게	-3058
에만	-3059
의가	-3060
▁자본	-3061
▁옥	-3062
번째	-3063
▁도전	-3064
▁동일	-3065
로서	-3066
위원회가	-3067
▁회장	-3068
▁드러났다	-3069
이너	-3070
▁부회	-3071
용이	-3072
▁속에	-3073
질을	-3074
▁방안	-3075
▁후반	-3076
기준	-3077
▁광주시	-3078
같은	-3079
결과	-3080
▁따뜻	-3081
▁임금	-3082
수사	-3083
▁첨부	-3084
▁개입	-3085
▁사이에	-3086
트워크	-3087
웠다	-3088
▁풀이	-3089
시키는	-3090
▁때마다	-3091
페이오	-3092
▁길을	-3093
▁사상	-3094
이번	-3095
▁등은	-3096
∼1	-3097
▁J	-3098
팀이	-3099
개가	-3100
▁폭발	-3101
재가	-3102
에서의	-3103
▁뿌	-3104
▁모아	-3105
▁최초로	-3106
고가	-3107
▁연간	-3108
▁과정을	-3109
▁크리스	-3110
범죄	-3111
식품	-3112
이라도	-3113
▁곳곳	-3114
▁의혹이	-3115
▁집에서	-3116
▁열어	-3117
▁위에	-3118
▁뮤	-3119
임이	-3120
▁될까요	-3121
▁속에서	-3122
▁장관은	-3123
▁하면서	-3124
▁잊	-3125
조합	-3126
준다	-3127
▁게시	-3128
▁주거	-3129
되었습니다	-3130
▁흔들	-3131
▁그러면	-3132
심이	-3133
체를	-3134
▁실질	-3135
무를	-3136
▁보낸	-3137
▁선호	-3138
▁형성	-3139
▁드릴	-3140
▁가까운	-3141
관에	-3142
▁계산	-3143
▁전북	-3144
▁꾸준히	-3145
▁수요가	-3146
▁위치한	-3147
▁월드컵	-3148
▁히	-3149
▁처음이다	-3150
명과	-3151
▁고발	-3152
▁나타나	-3153
마을	-3154
▁단지	-3155
▁했는데	-3156
▁유출	-3157
▁먹을	-3158
▁진입	-3159
▁손을	-3160
▁저희가	-3161
예술	-3162
▁이슈	-3163
대에서	-3164
▁득	-3165
시킨	-3166
▁폴	-3167
an	-3168
졌습니다	-3169
▁적극적으로	-3170
▁어려워	-3171
▁든	-3172
지기	-3173
▁불거	-3174
▁비난	-3175
▁국토교통	-3176
▁시작한	-3177
▁씨가	-3178
▁이루어	-3179
시고	-3180
▁절대	-3181
▁경험이	-3182
▁자체가	-3183
▁류	-3184
▁좋다	-3185
▁<	-3186
▁쓸	-3187
시켰	-3188
줍니다	-3189
▁인권	-3190
▁잠시	-3191
▁계획을	-3192
▁V	-3193
▁이건	-3194
▁입주	-3195
▁통계	-3196
▁이어질	-3197
▁이와	-3198
▁주관	-3199
만으로	-3200
도와	-3201
▁골프	-3202
주시면	-3203
▁완전히	-3204
▁시장에	-3205
▁출석	-3206
▁에어	-3207
경을	-3208
▁그러나	-3209
동이	-3210
지게	-3211
▁습	-3212
▁자금	-3213
▁동영	-3214
▁반면	-3215
▁좋지	-3216
▁폼페이오	-3217
우고	-3218
▁교회	-3219
▁끝난	-3220
▁그래도	-3221
▁기회가	-3222
▁자신을	-3223
▁진행된	-3224
▁문을	-3225
▁삼성전자	-3226
▁덜	-3227
▁인기	-3228
▁여의	-3229
만에	-3230
재판	-3231
▁바란다	-3232
▁있어야	-3233
▁줄어들	-3234
▁짐	-3235
▁포기	-3236
▁손흥	-3237
▁완벽	-3238
▁진술	-3239
▁기준으로	-3240
▁음주	-3241
▁효율	-3242
▁규정	-3243
위원장	-3244
▁선수들이	-3245
▁부총	-3246
▁자산	-3247
(6	-3248
▁샘플	-3249
▁등에서	-3250
▁감안	-3251
▁감사합니다	-3252
신이	-3253
▁증권	-3254
▁확인해	-3255
▁보안	-3256
▁먹는	-3257
기구	-3258
증권	-3259
▁환자	-3260
라우	-3261
식에	-3262
▁수비	-3263
하우	-3264
▁당연	-3265
▁상대적으로	-3266
▁그를	-3267
▁관람	-3268
▁이내	-3269
▁담겨	-3270
▁사우	-3271
▁출전	-3272
▁홀	-3273
▁조건	-3274
었을	-3275
▁투표	-3276
▁진단	-3277
서울	-3278
▁가르	-3279
▁부분이	-3280
▁제품은	-3281
▁삭	-3282
리며	-3283
▁누가	-3284
▁향해	-3285
▁이유가	-3286
▁확인할	-3287
진흥	-3288
▁구글	-3289
▁참여하는	-3290
▁심사	-3291
▁조합	-3292
▁실무	-3293
트는	-3294
피언	-3295
▁교환	-3296
▁홈페이	-3297
끄는	-3298
군이	-3299
▁부진	-3300
▁관세	-3301
▁레이	-3302
경영	-3303
▁효과를	-3304
▁H	-3305
십시오	-3306
▁칼	-3307
▁여행을	-3308
주로	-3309
▁상장	-3310
▁아니냐는	-3311
▁센터	-3312
히는	-3313
▁장애인	-3314
▁즐길	-3315
▁제공하는	-3316
▁일주	-3317
▁환불	-3318
▁고통	-3319
▁제품이	-3320
▁프리미	-3321
봤다	-3322
법이	-3323
▁일찍	-3324
▁웹	-3325
▁KT	-3326
▁성과를	-3327
▁친구가	-3328
▁되었습니다	-3329
▁규모가	-3330
▁지역의	-3331
처를	-3332
▁안타	-3333
들로	-3334
▁발굴	-3335
▁사장	-3336
▁실험	-3337
▁연계	-3338
지에서	-3339
▁최선을	-3340
▁어려움을	-3341
▁연출	-3342
▁짓	-3343
▁피해자	-3344
▁보기	-3345
▁핸	-3346
▁적은	-3347
▁정황	-3348
아야	-3349
챔피언	-3350
▁시작했다	-3351
이션	-3352
▁지배	-3353
▁유명한	-3354
▁그들이	-3355
▁지연	-3356
니아	-3357
▁가능성을	-3358
▁확인됐다	-3359
▁금감	-3360
▁노출	-3361
▁검증	-3362
▁생각을	-3363
이란	-3364
간의	-3365
▁35	-3366
뮤니	-3367
평화	-3368
▁집행	-3369
▁필리핀	-3370
▁원칙	-3371
▁징역	-3372
▁타이	-3373
▁불구하고	-3374
보호	-3375
▁책임을	-3376
▁끈	-3377
▁검색	-3378
▁적발	-3379
▁정책을	-3380
▁거듭	-3381
에게는	-3382
영업	-3383
▁공사	-3384
▁초기	-3385
▁체크	-3386
▁필요하다는	-3387
▁취임	-3388
근혜	-3389
▁인물	-3390
됐던	-3391
▁봄	-3392
▁배출	-3393
▁힘든	-3394
▁어렵다	-3395
위의	-3396
조차	-3397
재를	-3398
▁누군	-3399
▁공감	-3400
▁많았다	-3401
률을	-3402
▁충북	-3403
면을	-3404
분의	-3405
▁떨어진	-3406
▁피해가	-3407
▁관객	-3408
▁글을	-3409
댓글	-3410
특별	-3411
이라면	-3412
▁듣고	-3413
▁벽	-3414
▁이란	-3415
▁직장	-3416
리즈	-3417
생이	-3418
▁유튜	-3419
▁저의	-3420
나다	-3421
아이	-3422
입니까	-3423
▁고객이	-3424
▁아르	-3425
▁일어	-3426
시험	-3427
트에	-3428
▁당선	-3429
▁입고	-3430
됐지만	-3431
▁의견이	-3432
시를	-3433
▁김성	-3434
시다	-3435
▁다녀	-3436
많은	-3437
트로	-3438
▁전력	-3439
▁멈	-3440
되자	-3441
보면	-3442
▁신속	-3443
▁참고	-3444
▁발행	-3445
▁거론	-3446
▁남은	-3447
▁비중이	-3448
▁구체적인	-3449
▁의미가	-3450
독교	-3451
▁연습	-3452
▁이들의	-3453
유가	-3454
▁기부	-3455
▁저렴	-3456
▁필수	-3457
▁정당	-3458
▁부담이	-3459
▁이용할	-3460
▁저희는	-3461
▁주제로	-3462
지능	-3463
훼손	-3464
▁끝에	-3465
▁이행	-3466
▁방문해	-3467
▁수능	-3468
▁수학	-3469
▁경기를	-3470
됐다는	-3471
▁치열	-3472
▁달성	-3473
▁삶을	-3474
▁진짜	-3475
▁변화가	-3476
▁스타트	-3477
▁출범	-3478
▁프로그램을	-3479
공원	-3480
정의	-3481
▁일은	-3482
▁가능합니다	-3483
대출	-3484
제에	-3485
았고	-3486
▁무엇을	-3487
▁당부	-3488
▁배치	-3489
▁엄청	-3490
▁나머지	-3491
▁중요하다	-3492
mm	-3493
▁198	-3494
▁난민	-3495
▁이번이	-3496
명한	-3497
▁담은	-3498
▁‘2018	-3499
▁왼	-3500
▁강력한	-3501
▁앨	-3502
▁감독은	-3503
소는	-3504
▁만날	-3505
▁부장	-3506
▁살고	-3507
▁모두가	-3508
▁주목된다	-3509
▁센	-3510
▁역대	-3511
공단	-3512
▁당장	-3513
▁무역전쟁	-3514
성은	-3515
▁지속적으로	-3516
▁클럽	-3517
al	-3518
ar	-3519
▁말해	-3520
▁점이다	-3521
사진	-3522
용을	-3523
치지	-3524
▁내다	-3525
▁기록했다	-3526
공간	-3527
혔다	-3528
▁참석해	-3529
▁가을	-3530
▁만한	-3531
▁플레이	-3532
▁권한	-3533
▁특허	-3534
돼야	-3535
▁시장에서	-3536
년대	-3537
▁위원장은	-3538
▁참석했다	-3539
▁발생했다	-3540
▁똑	-3541
▁인하	-3542
▁발표했다	-3543
▁계열	-3544
▁늘어난	-3545
과는	-3546
이버	-3547
해가	-3548
▁오르	-3549
▁이틀	-3550
안은	-3551
▁댓글	-3552
▁안에서	-3553
시민	-3554
▁보냈	-3555
나가	-3556
▁지자체	-3557
▁텐	-3558
가에	-3559
▁시작된	-3560
▁굉	-3561
시의	-3562
로가	-3563
▁메이	-3564
▁수석	-3565
▁그들의	-3566
▁선생님	-3567
▁아름다운	-3568
▁괴	-3569
류가	-3570
▁뜻을	-3571
자동차	-3572
▁디자	-3573
▁경고	-3574
▁점점	-3575
쪽으로	-3576
▁시장의	-3577
▁오픈	-3578
▁철저	-3579
▁헌법	-3580
자들을	-3581
▁백악	-3582
▁예비	-3583
선수	-3584
시코	-3585
▁모집	-3586
▁기재	-3587
▁해양	-3588
자원	-3589
파크	-3590
▁활발	-3591
▁방법을	-3592
▁테스트	-3593
▁분석했다	-3594
▁낮아	-3595
or	-3596
하이	-3597
▁그녀의	-3598
.0	-3599
▁갤	-3600
국민	-3601
▁상황에	-3602
▁포항	-3603
▁맨	-3604
▁심각한	-3605
법인	-3606
▁취약	-3607
▁부품	-3608
▁경기가	-3609
▁2012	-3610
▁지역에	-3611
방이	-3612
▁못해	-3613
▁주인공	-3614
뿐만	-3615
▁블랙	-3616
▁예정입니다	-3617
권의	-3618
▁바꿔	-3619
▁강원도	-3620
▁영상을	-3621
▁일정을	-3622
▁메시지를	-3623
▁컸	-3624
졌고	-3625
▁공장	-3626
▁길이	-3627
▁정기	-3628
▁전문가들은	-3629
40	-3630
라스	-3631
▁받아들	-3632
질환	-3633
▁생각해	-3634
역이	-3635
▁문제로	-3636
▁포함해	-3637
제의	-3638
형이	-3639
▁개막	-3640
▁굉장	-3641
▁올려	-3642
지며	-3643
▁새롭게	-3644
관과	-3645
소에	-3646
▁분석이	-3647
등급	-3648
▁관련한	-3649
사한	-3650
▁AI	-3651
▁제거	-3652
▁보유한	-3653
▁미술	-3654
금은	-3655
▁부족한	-3656
▁내고	-3657
▁발송	-3658
▁조작	-3659
▁공개했다	-3660
▁작업을	-3661
▁비서	-3662
▁식품	-3663
▁기다려	-3664
▁챔피언	-3665
▁까	-3666
주에	-3667
▁가맹	-3668
▁커뮤니	-3669
공동	-3670
버스	-3671
▁점도	-3672
▁2000	-3673
▁곤	-3674
▁고령	-3675
▁돌파	-3676
▁자랑	-3677
▁치료를	-3678
▁사립	-3679
▁구속영	-3680
▁할머니	-3681
▁아이들이	-3682
▁숨진	-3683
▁한화	-3684
▁알려진	-3685
▁비밀	-3686
▁완전	-3687
▁인증	-3688
멕시코	-3689
▁지원하는	-3690
-1	-3691
▁가면	-3692
▁알게	-3693
▁우리에게	-3694
네시아	-3695
▁실현	-3696
건의	-3697
▁옮겨	-3698
▁장비	-3699
▁조치를	-3700
단지	-3701
▁아시안게임	-3702
▁포장	-3703
시킬	-3704
▁그린	-3705
▁확장	-3706
테크	-3707
▁복귀	-3708
▁가까이	-3709
일은	-3710
▁굴	-3711
▁부여	-3712
▁정치적	-3713
▁고등학교	-3714
상과	-3715
향을	-3716
▁상품을	-3717
▁후보가	-3718
▁도서	-3719
▁성적	-3720
▁입학	-3721
▁그리	-3722
▁못할	-3723
▁선수가	-3724
없는	-3725
주도	-3726
▁결승	-3727
▁그려	-3728
▁그런데	-3729
▁특징이다	-3730
▁명확	-3731
▁컬	-3732
▁평가를	-3733
조원	-3734
월까지	-3735
▁데뷔	-3736
▁부모님	-3737
▁하반기	-3738
번에	-3739
과정	-3740
사무	-3741
▁연말	-3742
▁있으니	-3743
·2	-3744
▁그것이	-3745
▁바이오	-3746
▁개별	-3747
부장	-3748
▁단독	-3749
▁만들고	-3750
▁여의도	-3751
▁직업	-3752
▁당신과	-3753
▁대해서도	-3754
계약	-3755
▁긴장	-3756
▁지불	-3757
▁축하	-3758
사인	-3759
시티	-3760
향이	-3761
하려면	-3762
▁와서	-3763
▁아니면	-3764
국가	-3765
▁사업이	-3766
▁전부	-3767
▁이어지고	-3768
더니	-3769
▁급격	-3770
▁상징	-3771
▁손해	-3772
▁아쉬	-3773
▁주의	-3774
▁80	-3775
▁눈이	-3776
▁왜냐	-3777
단계	-3778
연맹	-3779
음에도	-3780
함에	-3781
연이	-3782
▁전망이	-3783
▁브라	-3784
▁생긴	-3785
▁차를	-3786
받을	-3787
조를	-3788
▁기능을	-3789
▁풀이된다	-3790
▁싶다	-3791
▁발생할	-3792
하였습니다	-3793
▁넥	-3794
하고자	-3795
▁불가피	-3796
▁가능성도	-3797
▁니	-3798
▁보인	-3799
▁하게	-3800
▁동아	-3801
▁올린	-3802
▁캐나다	-3803
▁생각해요	-3804
중한	-3805
▁로봇	-3806
▁자격	-3807
▁핸드	-3808
▁옛	-3809
▁수영	-3810
▁혹은	-3811
져야	-3812
▁요리	-3813
▁인프라	-3814
근로	-3815
▁기획재	-3816
▁있을지	-3817
▁죄송합니다	-3818
당의	-3819
▁재개	-3820
▁들어간	-3821
▁참여한	-3822
국에	-3823
든지	-3824
▁충돌	-3825
석을	-3826
유의	-3827
▁그건	-3828
▁유리	-3829
▁2020	-3830
문은	-3831
우가	-3832
▁문의	-3833
면서도	-3834
▁쌍	-3835
▁원래	-3836
▁안팎	-3837
화로	-3838
500	-3839
▁뒤에	-3840
▁흉	-3841
조정	-3842
상품	-3843
이면	-3844
종의	-3845
▁쓰는	-3846
▁복잡	-3847
▁발생하는	-3848
▁목적	-3849
▁맞춤	-3850
▁승리	-3851
▁경험을	-3852
▁기대된다	-3853
사일	-3854
▁동료	-3855
▁좁	-3856
▁내리	-3857
스에서	-3858
▁명예	-3859
▁표시	-3860
▁고려해	-3861
▁자극	-3862
▁종교	-3863
▁종료	-3864
▁형사	-3865
▁호소	-3866
▁인기를	-3867
▁벗어나	-3868
대와	-3869
▁알려주세요	-3870
▁수원	-3871
▁상반기	-3872
▁샤	-3873
비아	-3874
▁계좌	-3875
▁이끄는	-3876
▁늘고	-3877
▁이탈리아	-3878
▁구입	-3879
▁김동	-3880
하시면	-3881
∼3	-3882
우리	-3883
▁인력	-3884
▁시장은	-3885
▁기계	-3886
▁짜	-3887
연을	-3888
하나	-3889
▁절차	-3890
▁집을	-3891
▁태양	-3892
▁기울	-3893
▁다행	-3894
▁삶의	-3895
▁손님	-3896
▁종목	-3897
속도로	-3898
▁아이디어	-3899
축구	-3900
▁꼬	-3901
▁미디어	-3902
▁현장에서	-3903
▁출입	-3904
자들에게	-3905
▁세월	-3906
▁어울	-3907
▁수립	-3908
▁주주	-3909
▁사례가	-3910
▁샌	-3911
지사	-3912
▁가동	-3913
▁넘겨	-3914
▁차단	-3915
▁사이즈	-3916
성의	-3917
▁기술이	-3918
▁수많은	-3919
▁생각한다	-3920
▁인도네시아	-3921
이던	-3922
▁리더	-3923
▁이유다	-3924
▁곳에	-3925
▁집계	-3926
▁굉장히	-3927
▁이유를	-3928
▁1000	-3929
씨와	-3930
▁개념	-3931
하였	-3932
▁신설	-3933
▁연방	-3934
▁동반	-3935
▁수소	-3936
▁임직	-3937
▁영화를	-3938
▁실시간	-3939
▁나무	-3940
▁마약	-3941
▁앞둔	-3942
▁초과	-3943
▁취재	-3944
▁밑	-3945
▁배달	-3946
▁하늘	-3947
▁현금	-3948
▁'	-3949
한데	-3950
▁그게	-3951
▁것인지	-3952
역에서	-3953
▁국내외	-3954
▁소상공	-3955
조선	-3956
▁했다고	-3957
▁기업들이	-3958
▁인공지능	-3959
▁깔	-3960
지법	-3961
▁노인	-3962
▁방북	-3963
▁체포	-3964
▁필요합니다	-3965
▁확인하고	-3966
미를	-3967
▁작가	-3968
▁활용해	-3969
▁시민들이	-3970
▁획	-3971
▁36	-3972
▁나눠	-3973
▁네트워크	-3974
at	-3975
▁지구	-3976
▁국회에서	-3977
진은	-3978
하시는	-3979
소로	-3980
▁남성이	-3981
▁없어서	-3982
▁대변인은	-3983
▁체육	-3984
▁앉아	-3985
경이	-3986
▁생기	-3987
▁입을	-3988
▁전공	-3989
▁업무를	-3990
▁시내	-3991
▁비즈	-3992
▁인구	-3993
정으로	-3994
하셨	-3995
▁너희	-3996
식으로	-3997
▁변화를	-3998
▁공공기관	-3999
배를	-4000
▁대선	-4001
▁하나의	-4002
▁무너	-4003
▁여성이	-4004
▁날짜	-4005
▁초반	-4006
▁합격	-4007
▁멕시코	-4008
▁학교에	-4009
이사	-4010
▁매각	-4011
▁집단	-4012
▁전망된다	-4013
▁가해	-4014
닙니다	-4015
▁검찰에	-4016
▁이같이	-4017
만명	-4018
전자	-4019
줬다	-4020
▁재무	-4021
승을	-4022
▁종로	-4023
▁면접	-4024
▁정부와	-4025
안보	-4026
연구원	-4027
▁시간에	-4028
군의	-4029
금리	-4030
노총	-4031
재단	-4032
▁생각하는	-4033
▁W	-4034
분간	-4035
▁곳은	-4036
▁운행	-4037
▁깊은	-4038
▁강하게	-4039
▁분위기	-4040
en	-4041
▁만남	-4042
▁공무원	-4043
▁굳	-4044
▁바이	-4045
시부터	-4046
▁필요하다고	-4047
권에	-4048
데이터	-4049
▁주장이	-4050
▁마치	-4051
▁측이	-4052
▁그녀가	-4053
공개	-4054
▁그만큼	-4055
▁둘러싼	-4056
▁수업을	-4057
처리	-4058
▁문제에	-4059
▁벌써	-4060
▁기독교	-4061
▁회장은	-4062
▁단축	-4063
▁부상	-4064
▁후원	-4065
▁않았습니다	-4066
생을	-4067
▁내에	-4068
▁들여	-4069
▁초청	-4070
▁보이지	-4071
▁그간	-4072
▁채널	-4073
▁피의	-4074
렸습니다	-4075
▁상관	-4076
▁일상	-4077
시즌	-4078
▁임명	-4079
메달	-4080
▁저도	-4081
▁이른바	-4082
▁요구하는	-4083
▁줘	-4084
▁않게	-4085
▁가치를	-4086
▁박근혜	-4087
▁매체	-4088
▁사로	-4089
▁설정	-4090
▁나중에	-4091
▁힘이	-4092
▁대부분의	-4093
면에	-4094
▁더해	-4095
▁작동	-4096
나무	-4097
▁걸쳐	-4098
▁배제	-4099
소에서	-4100
봐야	-4101
▁표준	-4102
▁들어서	-4103
▁방법이	-4104
▁시장을	-4105
학을	-4106
▁제외한	-4107
노조	-4108
▁“(	-4109
▁구간	-4110
▁승인	-4111
▁출근	-4112
▁머물	-4113
▁실종	-4114
▁의원의	-4115
▁대폭	-4116
▁초대	-4117
▁파트	-4118
▁가능할	-4119
▁뚜	-4120
▁산불	-4121
▁옷을	-4122
▁국민의	-4123
▁당초	-4124
▁상호	-4125
▁폐지	-4126
▁유튜브	-4127
▁때도	-4128
▁보조	-4129
▁급증	-4130
▁높이	-4131
▁시범	-4132
▁흑	-4133
▁국민연금	-4134
▁고소	-4135
▁나이	-4136
▁보관	-4137
▁상위	-4138
▁인기가	-4139
위원회는	-4140
▁홍콩	-4141
받아	-4142
집니다	-4143
▁한국은	-4144
으로서	-4145
70	-4146
▁유력	-4147
▁향한	-4148
▁회사의	-4149
▁꿈을	-4150
▁토대로	-4151
개국	-4152
세로	-4153
▁간단	-4154
▁등과	-4155
력에	-4156
▁수십	-4157
리오	-4158
주기	-4159
▁바닥	-4160
▁밖에	-4161
▁포함된	-4162
리트	-4163
▁겪고	-4164
▁거짓	-4165
▁예수	-4166
▁중구	-4167
▁돌려	-4168
▁앨범	-4169
▁결정을	-4170
▁광역	-4171
▁연예	-4172
▁질환	-4173
▁극복	-4174
▁거에요	-4175
▁물건을	-4176
▁낼	-4177
진의	-4178
▁것이란	-4179
류를	-4180
하실	-4181
▁맛있	-4182
▁원인	-4183
▁마음에	-4184
▁펜	-4185
영이	-4186
주민	-4187
▁김정	-4188
동의	-4189
▁직원이	-4190
전거	-4191
▁가슴	-4192
▁셀	-4193
웨어	-4194
지구	-4195
▁체계	-4196
▁활약	-4197
▁지역에서	-4198
▁비용이	-4199
드릴게요	-4200
▁말한다	-4201
해질	-4202
▁반려	-4203
▁풍부	-4204
수수색	-4205
▁영어를	-4206
▁대표적인	-4207
자금	-4208
▁쓰레	-4209
▁포착	-4210
리스트	-4211
▁떨어져	-4212
▁어떠	-4213
▁과학기술	-4214
▁영향으로	-4215
▁가구	-4216
▁거기	-4217
겠습니까	-4218
▁선임	-4219
▁사로잡	-4220
량의	-4221
텔레	-4222
▁혜택을	-4223
▁묵	-4224
피스	-4225
▁종전	-4226
대상	-4227
의료	-4228
▁거리	-4229
▁과도	-4230
▁보완	-4231
▁비용을	-4232
▁알려져	-4233
▁공기	-4234
▁내린	-4235
▁돈이	-4236
▁소화	-4237
▁누구나	-4238
마저	-4239
▁넘게	-4240
▁스토	-4241
▁의뢰	-4242
▁트위	-4243
▁향상	-4244
티브	-4245
▁별로	-4246
▁세부	-4247
▁있음을	-4248
러스	-4249
▁생존	-4250
▁계기로	-4251
▁위원장의	-4252
하니	-4253
▁유입	-4254
▁배터	-4255
▁드러나	-4256
▁잡고	-4257
일에는	-4258
코리아	-4259
▁관계자	-4260
▁현대차	-4261
드러	-4262
▁법인	-4263
▁법정	-4264
▁선박	-4265
▁33	-4266
싱턴	-4267
▁열린다	-4268
▁압수수색	-4269
▁띄	-4270
▁권고	-4271
▁시대	-4272
▁잡아	-4273
달라고	-4274
▁이것이	-4275
산물	-4276
▁공직	-4277
▁찾고	-4278
▁경기에서	-4279
▁식사	-4280
▁업종	-4281
▁폐기	-4282
▁마찬	-4283
▁아빠	-4284
▁철도	-4285
란히	-4286
▁기도	-4287
▁돼요	-4288
라운드	-4289
▁부담을	-4290
▁삼성바이오	-4291
▁팀이	-4292
▁뭔	-4293
▁주력	-4294
▁높아지고	-4295
선에	-4296
액을	-4297
화와	-4298
▁갖춘	-4299
▁유치원	-4300
자산	-4301
▁갖추	-4302
▁스케	-4303
▁널	-4304
▁나아	-4305
▁조기	-4306
▁차가	-4307
▁수준의	-4308
▁올랐다	-4309
▁아닙니다	-4310
▁복합	-4311
만한	-4312
이즈	-4313
▁가로	-4314
▁참여해	-4315
상황	-4316
▁조절	-4317
▁경제적	-4318
▁왜냐하면	-4319
운영	-4320
▁CC	-4321
▁들었다	-4322
력은	-4323
융합	-4324
▁탑승	-4325
다시	-4326
하라	-4327
▁테이	-4328
▁봉사	-4329
▁분리	-4330
▁입은	-4331
심에서	-4332
▁질문에	-4333
계의	-4334
트랙	-4335
함으로써	-4336
▁기각	-4337
▁회사가	-4338
▁해주	-4339
▁현행	-4340
▁고마	-4341
▁노사	-4342
받았다	-4343
▁개의	-4344
졌다는	-4345
하면서도	-4346
▁물건	-4347
▁소식	-4348
▁소요	-4349
▁연휴	-4350
▁아이가	-4351
벤처	-4352
▁공개한	-4353
▁교수가	-4354
▁학생이	-4355
▁차원에서	-4356
IC	-4357
·4	-4358
선의	-4359
▁질병	-4360
확실	-4361
.5%	-4362
당을	-4363
여서	-4364
▁신한	-4365
▁위로	-4366
았어요	-4367
▁수사에	-4368
▁행사를	-4369
▁전망했다	-4370
▁횡	-4371
구나	-4372
▁32	-4373
▁관계를	-4374
▁느낄	-4375
▁조언	-4376
▁10%	-4377
▁이뤄질	-4378
▁스타트업	-4379
▁무게	-4380
▁사랑을	-4381
▁없지만	-4382
▁본격적인	-4383
라서	-4384
▁살해	-4385
▁정비	-4386
▁패션	-4387
▁미치는	-4388
▁친환경	-4389
수와	-4390
▁모으	-4391
▁발급	-4392
▁손흥민	-4393
EO	-4394
▁훌	-4395
스플레이	-4396
회의에서	-4397
▁시작으로	-4398
율은	-4399
▁단일	-4400
▁시기	-4401
▁재판에	-4402
▁목소리를	-4403
구역	-4404
법에	-4405
▁실행	-4406
▁찾을	-4407
▁응원	-4408
억달러	-4409
▁상태다	-4410
▁잇따라	-4411
▁운용	-4412
인들의	-4413
▁제품의	-4414
▁올리	-4415
▁다음달	-4416
▁노후	-4417
▁기분이	-4418
▁스트레	-4419
▁적지	-4420
▁정상회담을	-4421
바로	-4422
▁주민들이	-4423
전략	-4424
책을	-4425
▁스테	-4426
▁일각	-4427
▁이르	-4428
▁탓에	-4429
릅니다	-4430
▁났	-4431
▁육성	-4432
▁비판했다	-4433
▁판단했다	-4434
▁묘	-4435
거든	-4436
▁시스템을	-4437
분야	-4438
▁신체	-4439
▁계약을	-4440
▁있었지만	-4441
▁여러분	-4442
▁경우에는	-4443
▁돋	-4444
력으로	-4445
▁기대한다	-4446
리티	-4447
되었다	-4448
어버	-4449
▁매장	-4450
▁아는	-4451
▁혼란	-4452
리적	-4453
▁법적	-4454
▁커뮤니티	-4455
름이	-4456
혁명	-4457
▁건조	-4458
▁작년	-4459
▁내용의	-4460
▁사우디	-4461
▁당부했다	-4462
효과	-4463
▁즉시	-4464
▁대화를	-4465
▁마치고	-4466
▁자영업	-4467
▁지방선거	-4468
▁특성	-4469
▁트위터	-4470
▁프리미엄	-4471
▁지휘	-4472
▁생명	-4473
▁지식	-4474
리어	-4475
북한	-4476
▁통상	-4477
▁아직도	-4478
▁않았지만	-4479
▁결합	-4480
먼트	-4481
비는	-4482
▁유해	-4483
▁불리는	-4484
▁어디서	-4485
문에	-4486
▁실내	-4487
▁이웃	-4488
▁데다	-4489
▁연령	-4490
▁않아도	-4491
가로	-4492
▁쓰고	-4493
해주는	-4494
▁변동	-4495
▁본다	-4496
▁유도	-4497
▁올해는	-4498
▁들이	-4499
▁보낼	-4500
▁파티	-4501
▁했다는	-4502
인권	-4503
▁저지	-4504
▁점은	-4505
▁착용	-4506
▁특검	-4507
▁티켓	-4508
▁의지를	-4509
▁속도를	-4510
▁워싱턴	-4511
▁기대하고	-4512
▁딱	-4513
▁추락	-4514
▁콘서	-4515
▁축소	-4516
▁털	-4517
호텔	-4518
▁단속	-4519
▁접촉	-4520
▁테니	-4521
▁스페인	-4522
건축	-4523
했어	-4524
힌다	-4525
▁자치	-4526
▁뜨거운	-4527
▁불확실	-4528
▁좋습니다	-4529
▁덕분에	-4530
▁일본의	-4531
▁투자를	-4532
폰을	-4533
▁38	-4534
▁깜	-4535
▁나갈	-4536
▁늦게	-4537
▁동원	-4538
▁뮤지	-4539
해왔다	-4540
▁간의	-4541
▁감정	-4542
▁폐쇄	-4543
▁한편	-4544
드로	-4545
표가	-4546
▁외에	-4547
▁떠올	-4548
▁리그	-4549
▁출동	-4550
된다는	-4551
▁휴대전	-4552
▁IT	-4553
▁생겨	-4554
▁창원	-4555
▁기자회견을	-4556
운전	-4557
▁2,	-4558
▁의한	-4559
▁하이	-4560
▁말하는	-4561
▁나설	-4562
▁희생	-4563
▁이제는	-4564
무역	-4565
이하	-4566
▁긍정적인	-4567
▁섭	-4568
▁교사	-4569
▁달려	-4570
▁축제	-4571
유를	-4572
하라고	-4573
▁따뜻한	-4574
▁이승	-4575
조사를	-4576
▁이끌어	-4577
▁자리에서	-4578
다니	-4579
▁간담	-4580
▁일제	-4581
▁절차를	-4582
▁평가했다	-4583
민주	-4584
직을	-4585
▁품질	-4586
럭시	-4587
설을	-4588
▁강경	-4589
량은	-4590
인가	-4591
▁면세	-4592
▁훼손	-4593
▁청와대가	-4594
▁며	-4595
값이	-4596
▁마감	-4597
▁문건	-4598
▁논의가	-4599
▁보입니다	-4600
사령	-4601
▁찾은	-4602
▁곳에서	-4603
나마	-4604
▁52	-4605
▁대리	-4606
당국은	-4607
▁돌아가	-4608
매가	-4609
▁45	-4610
▁추억	-4611
▁호흡	-4612
▁한국인	-4613
▁맞추	-4614
▁북측	-4615
▁가치가	-4616
▁이민	-4617
사이트	-4618
▁떠오	-4619
▁미중	-4620
▁편안	-4621
▁연합	-4622
▁구성된	-4623
▁죄송하지만	-4624
▁건립	-4625
▁번역	-4626
▁적극적인	-4627
신가요	-4628
았지만	-4629
▁개방	-4630
▁북미정상회담	-4631
▁핀	-4632
가락	-4633
▁렌	-4634
▁34	-4635
▁끌고	-4636
▁다수	-4637
▁성남	-4638
▁통제	-4639
▁친구들과	-4640
▁대거	-4641
해지고	-4642
청에	-4643
▁KB	-4644
▁터키	-4645
▁네이버	-4646
▁낳	-4647
▁강릉	-4648
▁입증	-4649
▁내에서	-4650
▁부분을	-4651
▁국회의원	-4652
▁맡은	-4653
▁보일	-4654
▁측정	-4655
19	-4656
▁신분	-4657
▁예능	-4658
억원의	-4659
▁가격을	-4660
▁된다는	-4661
▁받게	-4662
▁만들기	-4663
▁전부터	-4664
▁제주도	-4665
지어	-4666
활동을	-4667
▁노력을	-4668
▁분위기가	-4669
기지	-4670
호는	-4671
▁목표로	-4672
▁분석이다	-4673
▁선교	-4674
▁유발	-4675
유치원	-4676
▁보내주	-4677
▁서울중앙	-4678
종합	-4679
▁설득	-4680
▁주에	-4681
▁너에게	-4682
▁남녀	-4683
▁넣어	-4684
▁산하	-4685
▁인용	-4686
쪽에	-4687
▁발달	-4688
▁의사를	-4689
용차	-4690
친구	-4691
▁고정	-4692
▁너를	-4693
스티	-4694
▁비율이	-4695
군은	-4696
니터	-4697
일과	-4698
▁고교	-4699
▁당사	-4700
▁말한	-4701
▁시는	-4702
▁점심	-4703
▁20%	-4704
보니	-4705
▁채택	-4706
▁전화를	-4707
▁분위기를	-4708
실로	-4709
주년	-4710
치게	-4711
▁붙잡	-4712
▁산림	-4713
▁안보	-4714
▁위기	-4715
▁징계	-4716
▁환영	-4717
▁활용한	-4718
층에	-4719
▁야구	-4720
▁출산	-4721
▁하던	-4722
▁달하는	-4723
▁대학교	-4724
생산	-4725
▁가계	-4726
▁충전	-4727
시간이	-4728
▁곳으로	-4729
▁미국은	-4730
st	-4731
▁쟁	-4732
억원이	-4733
▁정확히	-4734
당은	-4735
▁방향으로	-4736
판을	-4737
▁빠진	-4738
▁사업에	-4739
60	-4740
▁추세	-4741
▁이름이	-4742
▁행복한	-4743
▁내다봤다	-4744
▁진행된다	-4745
▁적합	-4746
▁2010	-4747
▁때문이에요	-4748
되었	-4749
▁요금	-4750
▁2011	-4751
자리	-4752
제한	-4753
부터는	-4754
시키고	-4755
▁한국이	-4756
▁이뤄진	-4757
▁사람들의	-4758
바이	-4759
팀은	-4760
▁결과에	-4761
▁매출이	-4762
kg	-4763
▁내세	-4764
▁에이	-4765
▁이것을	-4766
▁어린이집	-4767
▁봤다	-4768
▁출마	-4769
개로	-4770
▁실천	-4771
▁교육을	-4772
▁김경	-4773
▁착수	-4774
▁자전거	-4775
▁정체	-4776
▁기간이	-4777
▁좋아요	-4778
▁파트너	-4779
▁회사에	-4780
조건	-4781
it	-4782
▁구현	-4783
▁서초	-4784
정부가	-4785
cm	-4786
▁생겼	-4787
▁국무위원장이	-4788
▁인지	-4789
▁하노	-4790
상태	-4791
▁승객	-4792
▁의미를	-4793
▁총리가	-4794
▁이어졌다	-4795
모델	-4796
▁자아	-4797
▁운동을	-4798
워요	-4799
.9%	-4800
▁당일	-4801
▁않다는	-4802
▁물을	-4803
▁분류	-4804
기관이	-4805
▁어디에	-4806
▁조사하고	-4807
▁밟	-4808
▁빗	-4809
▁편리	-4810
▁비판이	-4811
▁화장품	-4812
▁년	-4813
▁런	-4814
▁썼	-4815
수도	-4816
▁가끔	-4817
▁변호사	-4818
▁사고로	-4819
▁영업이	-4820
▁받으	-4821
▁국방부	-4822
▁있으나	-4823
▁걸려	-4824
▁과연	-4825
화하는	-4826
▁갈등이	-4827
▁알려주	-4828
▁수준으로	-4829
▁진행하고	-4830
IS	-4831
시와	-4832
▁옆에	-4833
▁관계가	-4834
▁하나로	-4835
▁농업	-4836
▁방지	-4837
▁지분	-4838
아시아	-4839
▁김씨는	-4840
검사	-4841
화점	-4842
▁보상	-4843
▁재산	-4844
▁저장	-4845
▁했고	-4846
▁제조업	-4847
▁지방자치	-4848
▁초등학교	-4849
즈를	-4850
▁병역	-4851
▁기존의	-4852
▁어려울	-4853
▁그럴	-4854
▁보여주는	-4855
수에	-4856
▁막기	-4857
▁스웨	-4858
된다고	-4859
시까지	-4860
▁150	-4861
▁의결	-4862
▁입원	-4863
▁지출	-4864
시켰다	-4865
▁텐데	-4866
▁개발한	-4867
▁기대를	-4868
▁전기차	-4869
래요	-4870
▁올렸다	-4871
▁정해	-4872
▁충격	-4873
길이	-4874
▁올림픽	-4875
▁공을	-4876
▁나섰	-4877
▁슈퍼	-4878
▁벨	-4879
▁침해	-4880
등학생	-4881
른다	-4882
▁감염	-4883
▁마친	-4884
▁가족이	-4885
▁사진이	-4886
▁현상이	-4887
▁기반으로	-4888
타임	-4889
회계	-4890
▁재난	-4891
▁점차	-4892
드려	-4893
▁근본	-4894
▁추구	-4895
▁관측이	-4896
▁일정이	-4897
약품	-4898
▁일하는	-4899
할지	-4900
▁담겼다	-4901
▁보고서	-4902
▁외에도	-4903
▁날이	-4904
▁발의	-4905
▁풀어	-4906
▁척	-4907
사건	-4908
▁청소	-4909
주시기	-4910
▁나선다	-4911
▁통해서	-4912
ED	-4913
론을	-4914
방에	-4915
▁사이트	-4916
▁부서	-4917
▁퇴직	-4918
▁제품에	-4919
▁진행되는	-4920
령을	-4921
복을	-4922
협의	-4923
▁걸어	-4924
▁고급	-4925
▁목숨	-4926
여명의	-4927
▁일주일	-4928
▁법안	-4929
▁증명	-4930
▁공부를	-4931
▁재미있	-4932
기기	-4933
▁둔화	-4934
▁유니	-4935
라우드	-4936
▁1,000	-4937
▁현황	-4938
▁성폭력	-4939
▁소식을	-4940
▁민족	-4941
겠네요	-4942
시장이	-4943
▁50%	-4944
▁간편	-4945
▁허위	-4946
▁아무리	-4947
동물	-4948
비용	-4949
▁흘러	-4950
▁소식이	-4951
▁대만	-4952
▁기다리고	-4953
▁걸릴	-4954
▁선진	-4955
▁스크	-4956
▁출장	-4957
▁때부터	-4958
▁위원장	-4959
▁평가가	-4960
80	-4961
워서	-4962
▁교류	-4963
▁아베	-4964
▁양국	-4965
됨에	-4966
리게	-4967
▁놀라	-4968
▁회장의	-4969
▁2009	-4970
망을	-4971
▁개성	-4972
▁응급	-4973
▁저를	-4974
▁제약	-4975
주년을	-4976
▁그리스	-4977
▁서울대	-4978
▁분야에서	-4979
▁좋겠어요	-4980
▁탁	-4981
▁동해	-4982
▁베이징	-4983
▁상태에서	-4984
▁샀	-4985
건강	-4986
식은	-4987
심사	-4988
▁눈을	-4989
▁성능	-4990
▁협약	-4991
사업을	-4992
님의	-4993
스탄	-4994
해양	-4995
.2%	-4996
▁가시	-4997
는데요	-4998
▁90	-4999
▁심의	-5000
▁증가한	-5001
▁쪽으로	-5002
▁CCTV	-5003
.7%	-5004
▁꽤	-5005
테인	-5006
▁발휘	-5007
졌다고	-5008
▁원내대표는	-5009
(7	-5010
▁쌀	-5011
.3%	-5012
▁분쟁	-5013
적으로는	-5014
▁용산	-5015
▁자원	-5016
▁2008	-5017
발을	-5018
버그	-5019
회장	-5020
▁관해	-5021
▁사업은	-5022
▁데이터를	-5023
호선	-5024
▁내는	-5025
은행이	-5026
▁여성의	-5027
▁때가	-5028
사랑	-5029
▁술을	-5030
▁영양	-5031
2)	-5032
쇼핑	-5033
▁김태	-5034
▁도심	-5035
▁판문	-5036
▁갈수록	-5037
▁기온이	-5038
▁진행할	-5039
▁자리에	-5040
▁냄	-5041
.6%	-5042
▁진료	-5043
▁마세요	-5044
▁바람이	-5045
▁국가대표	-5046
▁선사	-5047
놨다	-5048
▁발사	-5049
▁지목	-5050
▁화려	-5051
스포츠	-5052
▁세상을	-5053
▁소프트	-5054
▁낭	-5055
▁신흥	-5056
▁잠재	-5057
▁직무	-5058
▁가능해	-5059
▁뛰어난	-5060
▁아이템	-5061
▁공정거래	-5062
렉시	-5063
▁담아	-5064
▁두려	-5065
▁고용노동	-5066
▁붕	-5067
▁물러	-5068
연구소	-5069
회의를	-5070
▁기획재정부	-5071
▁도쿄	-5072
▁감독의	-5073
익이	-5074
▁살인	-5075
▁신고를	-5076
▁IC	-5077
▁대책을	-5078
▁부장판	-5079
▁원인을	-5080
제와	-5081
▁게임을	-5082
▁사건의	-5083
경쟁	-5084
▁부작	-5085
▁스티	-5086
▁채권	-5087
▁모니터	-5088
▁수사가	-5089
▁아이를	-5090
▁서비스가	-5091
사법	-5092
층이	-5093
▁뿐만	-5094
단으로	-5095
▁형태로	-5096
▁매니	-5097
▁어때	-5098
▁직전	-5099
▁연구원은	-5100
▁노동자	-5101
▁대상이	-5102
▁이용한	-5103
▁단기	-5104
▁에스	-5105
▁첨단	-5106
▁펀드	-5107
▁이어지는	-5108
▁본격적으로	-5109
력의	-5110
▁65	-5111
▁몸을	-5112
▁상임	-5113
▁일대	-5114
▁폭로	-5115
▁협상이	-5116
익을	-5117
▁것보다	-5118
▁잘못된	-5119
▁닫	-5120
▁기회	-5121
▁부당	-5122
▁합동	-5123
▁모르는	-5124
▁그렇다면	-5125
▁겹	-5126
수석	-5127
▁호주	-5128
▁이번에는	-5129
▁꺾	-5130
렀다	-5131
순환	-5132
▁진행하는	-5133
가능	-5134
대문	-5135
지수	-5136
카르	-5137
포를	-5138
▁수집	-5139
▁조심	-5140
이기도	-5141
철도	-5142
▁뚜렷	-5143
▁나아가	-5144
.4%	-5145
.8%	-5146
▁석유	-5147
▁대한항공	-5148
년의	-5149
역에	-5150
재로	-5151
▁예를	-5152
▁유기	-5153
▁그렇지	-5154
▁두산	-5155
▁않는다는	-5156
▁인터뷰에서	-5157
▁입력	-5158
판에	-5159
▁동남	-5160
케이션	-5161
피해	-5162
▁날씨가	-5163
어는	-5164
▁우수한	-5165
▁포인트	-5166
광역	-5167
▁그에	-5168
▁반박	-5169
▁아마존	-5170
▁추진하는	-5171
11	-5172
겁게	-5173
트리	-5174
평양	-5175
합의	-5176
▁항소	-5177
졌지만	-5178
.1%	-5179
억원으로	-5180
▁재판부는	-5181
▁그만	-5182
▁선적	-5183
▁업체가	-5184
▁중에서	-5185
▁드리겠습니다	-5186
▁모은	-5187
▁목격	-5188
▁벤처	-5189
▁현장에	-5190
각을	-5191
조가	-5192
▁김현	-5193
▁상상	-5194
▁입장이다	-5195
물로	-5196
일보	-5197
▁동네	-5198
▁머리	-5199
▁정착	-5200
▁짧은	-5201
했는지	-5202
▁연락을	-5203
소송	-5204
▁찬성	-5205
▁추석	-5206
▁환경을	-5207
국을	-5208
▁얘기다	-5209
▁제기됐다	-5210
▁엑	-5211
골을	-5212
▁계획이	-5213
▁않지만	-5214
영화	-5215
▁다이	-5216
▁부실	-5217
▁분노	-5218
▁후속	-5219
▁개설	-5220
▁합류	-5221
▁맞춤형	-5222
▁하나님의	-5223
▁갤럭시	-5224
▁위험이	-5225
▁환자가	-5226
▁무시	-5227
▁시급	-5228
▁위안	-5229
▁능력이	-5230
▁발언을	-5231
▁라인	-5232
▁선출	-5233
▁심화	-5234
▁KBS	-5235
▁기준을	-5236
구청	-5237
리핑	-5238
중국	-5239
▁매입	-5240
▁이게	-5241
▁취득	-5242
론이	-5243
▁패스트	-5244
▁개인정보	-5245
▁법원행정	-5246
▁아프리카	-5247
주행	-5248
▁진상	-5249
▁답했다	-5250
위원장이	-5251
▁묶	-5252
지검	-5253
▁중학교	-5254
EC	-5255
고용	-5256
▁동기	-5257
▁맞은	-5258
▁모색	-5259
▁기능이	-5260
▁기록한	-5261
루킹	-5262
▁않으	-5263
▁주어	-5264
▁내놓은	-5265
▁분명히	-5266
▁정도의	-5267
▁찍은	-5268
▁창의	-5269
▁탄생	-5270
늦게	-5271
부문	-5272
아버	-5273
오고	-5274
▁강아	-5275
▁따라서	-5276
▁사고를	-5277
▁인사를	-5278
평등	-5279
▁명절	-5280
▁사기	-5281
▁현재까지	-5282
▁미만	-5283
▁성폭행	-5284
▁스웨덴	-5285
됐습니다	-5286
▁직원들이	-5287
기록	-5288
▁신임	-5289
▁정규직	-5290
▁조사됐다	-5291
재생	-5292
차별	-5293
▁참여할	-5294
란드	-5295
▁기무	-5296
▁좋겠다	-5297
▁숲	-5298
차로	-5299
▁여부	-5300
▁최우	-5301
▁수수료	-5302
층의	-5303
▁며칠	-5304
▁성격	-5305
▁오염	-5306
▁한미	-5307
▁시선을	-5308
▁충분한	-5309
듯이	-5310
▁조항	-5311
았는데	-5312
▁내렸다	-5313
▁사람들	-5314
장애인	-5315
▁맛있는	-5316
MW	-5317
감한	-5318
치로	-5319
치료	-5320
크를	-5321
▁않기	-5322
▁아버지	-5323
▁영향이	-5324
ic	-5325
▁춘	-5326
로드	-5327
▁상태로	-5328
▁숫	-5329
사이	-5330
일간	-5331
진과	-5332
▁양측	-5333
▁화면	-5334
▁비즈니스	-5335
.”	-5336
센터에서	-5337
▁맛이	-5338
▁학생들의	-5339
하길	-5340
현이	-5341
▁성인	-5342
▁수백	-5343
∼201	-5344
▁가이드	-5345
▁그에게	-5346
▁되기	-5347
▁맞이	-5348
▁시원	-5349
▁싫어	-5350
▁하자	-5351
▁"	-5352
▁신입	-5353
데이트	-5354
▁30%	-5355
▁포스코	-5356
▁하는지	-5357
품이	-5358
▁소녀	-5359
▁공간을	-5360
▁미국에	-5361
▁손해배	-5362
▁휩	-5363
여행	-5364
▁무기	-5365
▁스튜	-5366
▁줄어든	-5367
심의	-5368
▁교과	-5369
▁의존	-5370
▁종로구	-5371
▁이야기가	-5372
▁구체적으로	-5373
·18	-5374
▁기사	-5375
▁만났	-5376
▁당분간	-5377
치의	-5378
▁검은	-5379
▁안녕	-5380
▁사람들을	-5381
지난	-5382
▁몰려	-5383
▁유족	-5384
올림픽	-5385
터테인	-5386
▁계기가	-5387
▁한국과	-5388
▁회사는	-5389
▁맞지	-5390
▁경우도	-5391
▁메모	-5392
▁보였	-5393
▁삭제	-5394
▁튀	-5395
▁멋진	-5396
▁화물	-5397
▁대학생	-5398
▁이재명	-5399
▁밴	-5400
어져	-5401
▁만나는	-5402
▁만들었다	-5403
▁춤	-5404
▁많고	-5405
▁음료	-5406
▁늘어날	-5407
▁상당히	-5408
▁국내에서	-5409
▁일자리를	-5410
▁돋보	-5411
▁세금	-5412
▁경쟁이	-5413
위에서	-5414
배가	-5415
▁김종	-5416
▁노선	-5417
▁부처	-5418
▁시리즈	-5419
▁쏠리고	-5420
이라서	-5421
▁증상이	-5422
▁세워	-5423
됐으며	-5424
▁않아서	-5425
▁준비를	-5426
CC	-5427
시로	-5428
▁냈다	-5429
▁얻을	-5430
▁통보	-5431
▁있다며	-5432
▁조사한	-5433
이로	-5434
▁적응	-5435
▁파견	-5436
▁범행	-5437
▁원을	-5438
▁분석한	-5439
▁적절한	-5440
▁이벤트	-5441
▁대통령을	-5442
▁기타	-5443
▁뉴스	-5444
▁무더	-5445
▁이정	-5446
프가	-5447
▁오랫	-5448
▁국무장	-5449
▁정책이	-5450
▁테이블	-5451
▁받았습니다	-5452
물질	-5453
▁경비	-5454
▁예전	-5455
▁청약	-5456
▁한정	-5457
교육청	-5458
5%	-5459
▁간호	-5460
▁즐거	-5461
▁한층	-5462
▁흥미	-5463
▁종전선언	-5464
리면	-5465
보건	-5466
▁최적	-5467
▁내용은	-5468
▁37	-5469
▁남부	-5470
▁돌입	-5471
▁조용	-5472
▁능력을	-5473
통을	-5474
▁세대	-5475
▁반응을	-5476
▁사용한	-5477
▁업데이트	-5478
▁차지하는	-5479
▁스위	-5480
▁재활	-5481
보세요	-5482
▁사이에서	-5483
▁아침에	-5484
차는	-5485
▁상용	-5486
▁시점	-5487
식에서	-5488
▁시간은	-5489
▁많습니다	-5490
가스	-5491
권은	-5492
전은	-5493
카이	-5494
▁협상을	-5495
▁100%	-5496
▁과정이	-5497
▁집으로	-5498
▁오랫동안	-5499
▁촉구했다	-5500
▁원내대표가	-5501
실은	-5502
일의	-5503
▁상생	-5504
▁원활	-5505
에너지	-5506
▁늘었다	-5507
▁세월호	-5508
▁받아들이	-5509
말을	-5510
산화	-5511
▁근육	-5512
▁주지	-5513
re	-5514
분쟁	-5515
▁부적	-5516
▁이용하는	-5517
▁지적이다	-5518
세에	-5519
직한	-5520
해왔	-5521
▁상무	-5522
▁상당한	-5523
▁마지막으로	-5524
하러	-5525
▁보증	-5526
▁방향을	-5527
▁자유롭게	-5528
-2	-5529
야구	-5530
▁구분	-5531
▁이명	-5532
▁일에	-5533
▁전개	-5534
하나요	-5535
▁목적으로	-5536
IT	-5537
▁한국을	-5538
▁미국에서	-5539
가구	-5540
단과	-5541
▁벌금	-5542
▁아들	-5543
▁피곤	-5544
▁공연을	-5545
▁많아서	-5546
▁진행될	-5547
베이	-5548
▁입법	-5549
▁투명	-5550
▁수리	-5551
이어서	-5552
폭력	-5553
▁검출	-5554
▁무죄	-5555
양이	-5556
짜리	-5557
할게요	-5558
▁곧바로	-5559
▁진행한	-5560
▁미칠	-5561
▁소송을	-5562
▁행사가	-5563
▁덮	-5564
동에	-5565
위와	-5566
▁이전에	-5567
공업	-5568
▁내게	-5569
▁운송	-5570
년에는	-5571
▁넷	-5572
▁마주	-5573
▁성추	-5574
▁솔루	-5575
정규직	-5576
해서는	-5577
▁머리를	-5578
▁상태가	-5579
▁제출한	-5580
▁빌려	-5581
▁400	-5582
▁방문한	-5583
▁비교적	-5584
등록	-5585
러진	-5586
무원	-5587
▁냄새	-5588
▁노무	-5589
▁선도	-5590
▁숙박	-5591
▁퇴근	-5592
▁미래를	-5593
▁병원에	-5594
▁정의당	-5595
1)	-5596
해줄	-5597
▁관여	-5598
▁정지	-5599
인에게	-5600
▁국무총	-5601
▁달라고	-5602
▁무엇이	-5603
▁자연스럽게	-5604
▁외무	-5605
▁이때	-5606
▁탑재	-5607
▁MBC	-5608
▁이상을	-5609
▁드립니다	-5610
▁떨어지는	-5611
결을	-5612
서의	-5613
▁구청	-5614
▁나오지	-5615
▁왔습니다	-5616
▁꼼	-5617
▁진행되고	-5618
▁칠	-5619
▁설문	-5620
▁서울의	-5621
▁차량이	-5622
▁기상청은	-5623
체계	-5624
▁임신	-5625
▁경제가	-5626
▁무엇인지	-5627
르지	-5628
운용	-5629
▁몸이	-5630
▁중입니다	-5631
수요	-5632
▁당한	-5633
▁방탄	-5634
▁비대	-5635
▁금요일	-5636
▁발생해	-5637
소비	-5638
▁화학	-5639
▁브렉시	-5640
니어	-5641
션이	-5642
▁영수	-5643
▁가격은	-5644
▁멜	-5645
설이	-5646
▁신선	-5647
▁지원이	-5648
▁금융감독	-5649
▁세계적인	-5650
▁위축	-5651
리면서	-5652
-0	-5653
느라	-5654
▁인재	-5655
▁최악	-5656
▁트렌	-5657
단체가	-5658
정부의	-5659
▁받아야	-5660
▁열렸다	-5661
▁있었고	-5662
le	-5663
▁십	-5664
설팅	-5665
었기	-5666
포럼	-5667
▁되었다	-5668
▁목숨을	-5669
▁르	-5670
의원	-5671
▁과제	-5672
▁금메달	-5673
▁학교에서	-5674
매를	-5675
▁PC	-5676
▁급등	-5677
▁깨끗	-5678
▁몰랐	-5679
▁시상	-5680
▁우주	-5681
▁이중	-5682
▁허가	-5683
▁차량을	-5684
▁펴	-5685
수한	-5686
▁과목	-5687
▁보급	-5688
▁속도가	-5689
고기	-5690
▁나타난	-5691
▁다음에	-5692
▁심지어	-5693
▁정보가	-5694
▁맞게	-5695
▁씨는	-5696
▁사전에	-5697
포구	-5698
▁공통	-5699
▁시사	-5700
▁나한테	-5701
▁내내	-5702
▁매력	-5703
▁뮤지컬	-5704
▁브라질	-5705
▁즐거운	-5706
▁사람들에게	-5707
들어	-5708
▁대단	-5709
▁없기	-5710
▁일방	-5711
점검	-5712
▁언어	-5713
건으로	-5714
▁벌이고	-5715
▁작품을	-5716
▁어렵다는	-5717
놓고	-5718
소의	-5719
위기	-5720
▁아예	-5721
▁노력이	-5722
감과	-5723
▁오면	-5724
▁활용할	-5725
▁크리스마	-5726
FC	-5727
▁닿	-5728
객이	-5729
▁겪는	-5730
▁심리	-5731
▁이거	-5732
▁조현	-5733
▁품목	-5734
▁공시가	-5735
▁실적이	-5736
▁일이다	-5737
▁느꼈	-5738
▁할지	-5739
▁생각에	-5740
▁대사	-5741
▁탄핵	-5742
▁사람에게	-5743
▁연주	-5744
▁진보	-5745
기업이	-5746
▁없는데	-5747
▁진행됐다	-5748
▁증언	-5749
▁유일한	-5750
라가	-5751
▁생길	-5752
▁서버	-5753
▁애초	-5754
▁어깨	-5755
▁오지	-5756
▁백악관	-5757
망이	-5758
법은	-5759
비서	-5760
▁개봉	-5761
▁누적	-5762
▁방치	-5763
▁접속	-5764
▁있었어요	-5765
▁지내	-5766
▁법원이	-5767
▁없도록	-5768
▁교통사고	-5769
▁확인했다	-5770
▁t	-5771
소와	-5772
학의	-5773
▁사퇴	-5774
▁소환	-5775
▁잠을	-5776
되어야	-5777
▁번째로	-5778
자들	-5779
▁가스	-5780
▁서명	-5781
▁보내는	-5782
▁본격화	-5783
▁사건에	-5784
▁회사에서	-5785
▁수급	-5786
▁진화	-5787
▁홈런	-5788
시간을	-5789
자유	-5790
▁물이	-5791
▁왼쪽	-5792
▁충족	-5793
▁김씨가	-5794
▁이르는	-5795
▁전까지	-5796
티즌	-5797
▁시가	-5798
▁영장	-5799
▁이어진	-5800
▁지역은	-5801
기능	-5802
뱅크	-5803
허가	-5804
▁그걸	-5805
으로도	-5806
▁건강한	-5807
▁회의를	-5808
▁경쟁력을	-5809
▁동작	-5810
▁점유	-5811
레이드	-5812
▁무료로	-5813
▁흰	-5814
기획	-5815
▁곳을	-5816
▁맡아	-5817
▁해명	-5818
이의	-5819
치에	-5820
▁39	-5821
▁익숙	-5822
▁금융당	-5823
▁한계가	-5824
률은	-5825
법원	-5826
▁EU	-5827
▁소리	-5828
▁여당	-5829
▁전원	-5830
카르타	-5831
▁신청을	-5832
▁일어난	-5833
▁입장이	-5834
닝썬	-5835
인터	-5836
▁미팅	-5837
▁정규	-5838
▁아닐	-5839
▁된다고	-5840
▁그날	-5841
▁무대	-5842
▁조별	-5843
▁차지했다	-5844
판이	-5845
▁공시	-5846
▁보내고	-5847
감사	-5848
통상	-5849
학습	-5850
함과	-5851
▁강의	-5852
▁경상	-5853
▁스피	-5854
▁지상	-5855
▁부분은	-5856
▁열었다	-5857
▁예산을	-5858
▁화웨이	-5859
▁켜	-5860
▁갖춰	-5861
▁전투	-5862
▁제목	-5863
▁탄력	-5864
▁한진	-5865
아웃	-5866
▁공화	-5867
▁노트	-5868
▁우울	-5869
▁해제	-5870
씨에게	-5871
FA	-5872
공장	-5873
▁추모	-5874
▁국민이	-5875
▁성장을	-5876
▁아무런	-5877
▁투자가	-5878
▁사랑하는	-5879
▁김용	-5880
▁상업	-5881
시쯤	-5882
아요	-5883
▁대처	-5884
하기를	-5885
▁보여주	-5886
▁작업이	-5887
세포	-5888
▁예상되는	-5889
3)	-5890
▁빵	-5891
렸던	-5892
▁서해	-5893
▁자카르타	-5894
▁고성	-5895
▁등급	-5896
▁부채	-5897
▁그중	-5898
▁배려	-5899
하지는	-5900
▁승리를	-5901
▁앞으로도	-5902
▁소셜	-5903
▁열릴	-5904
▁근처에	-5905
▁방안이	-5906
▁아이돌	-5907
▁외교부	-5908
▁정상이	-5909
▁보건복지	-5910
▁증가했다	-5911
문제	-5912
▁건너	-5913
▁분야의	-5914
▁이뤄지지	-5915
9)	-5916
▁급여	-5917
▁비트	-5918
▁없었던	-5919
물의	-5920
분께	-5921
▁올랐	-5922
▁중심의	-5923
▁동생	-5924
▁어떠한	-5925
농단	-5926
형의	-5927
▁모임	-5928
▁방해	-5929
▁전직	-5930
▁프레	-5931
하다가	-5932
▁대표의	-5933
협상	-5934
▁키워	-5935
▁Y	-5936
▁쥐	-5937
▁생일	-5938
▁아쉽	-5939
▁원인이	-5940
▁학생들은	-5941
세기	-5942
▁끝내	-5943
▁대외	-5944
▁배당	-5945
▁찾기	-5946
▁비행기	-5947
마자	-5948
이니	-5949
▁기아	-5950
▁일고	-5951
▁주가	-5952
▁커질	-5953
▁휴가	-5954
▁네티즌	-5955
▁논란을	-5956
▁이들을	-5957
▁확인한	-5958
▁2022	-5959
▁존중	-5960
▁노래를	-5961
▁동일한	-5962
▁생각하고	-5963
▁최근에는	-5964
▁가능한가요	-5965
▁김해	-5966
▁대우	-5967
▁듯한	-5968
▁신호	-5969
▁지역을	-5970
▁추진하고	-5971
▁들려	-5972
▁임원	-5973
▁주문한	-5974
▁카카오톡	-5975
▁극단	-5976
▁투수	-5977
▁최소화	-5978
▁안정적인	-5979
PG	-5980
▁미군	-5981
▁받기	-5982
▁수면	-5983
▁치열한	-5984
▁카드를	-5985
하더라도	-5986
7)	-5987
라스틱	-5988
▁수준을	-5989
▁가짜	-5990
▁양승	-5991
▁화가	-5992
렸고	-5993
여야	-5994
터를	-5995
▁기대가	-5996
▁디스플레이	-5997
태를	-5998
▁다루	-5999
▁되었	-6000
▁투어	-6001
▁평생	-6002
되기도	-6003
▁하나가	-6004
▁지속적인	-6005
서와	-6006
▁끈다	-6007
▁몰아	-6008
▁무산	-6009
▁행동을	-6010
연한	-6011
▁속도	-6012
▁영역	-6013
▁생활을	-6014
▁주변에	-6015
▁맑	-6016
기념	-6017
▁계절	-6018
▁등도	-6019
▁정식	-6020
▁크고	-6021
▁태국	-6022
▁당연히	-6023
▁오른쪽	-6024
▁민주노총	-6025
▁방탄소년	-6026
▁손해배상	-6027
견이	-6028
미국	-6029
졌던	-6030
▁이같은	-6031
▁하겠다	-6032
추진	-6033
▁양성	-6034
나게	-6035
심한	-6036
정과	-6037
▁공익	-6038
▁이외	-6039
▁꼽힌다	-6040
▁리스트	-6041
터가	-6042
▁붕괴	-6043
▁경우는	-6044
▁판문점	-6045
한국시간	-6046
12	-6047
화문	-6048
▁무관	-6049
▁종사	-6050
심으로	-6051
▁기업에	-6052
▁리스크	-6053
▁요청한	-6054
▁현장을	-6055
▁정상회담이	-6056
번호	-6057
화학	-6058
▁아니라는	-6059
▁내야	-6060
▁사장이	-6061
▁색깔	-6062
▁시에	-6063
▁진로	-6064
관계를	-6065
▁다이어	-6066
▁소득주도	-6067
부로	-6068
전의	-6069
화의	-6070
▁명시	-6071
▁무릎	-6072
▁컬러	-6073
▁방식을	-6074
▁역사를	-6075
▁음악을	-6076
▁보유하고	-6077
▁섞	-6078
고는	-6079
▁가상	-6080
▁김진	-6081
▁날씨	-6082
▁지닌	-6083
▁들어오	-6084
라엘	-6085
트의	-6086
▁김상	-6087
▁비례	-6088
▁훌륭	-6089
전으로	-6090
▁과정에	-6091
▁안전한	-6092
업에	-6093
처는	-6094
파이	-6095
▁매달	-6096
▁해수	-6097
트넘	-6098
▁새해	-6099
가지로	-6100
▁토요일	-6101
▁엇	-6102
계에	-6103
구로	-6104
집을	-6105
▁그랬	-6106
▁엘리	-6107
▁은퇴	-6108
▁컸다	-6109
▁대부분이	-6110
AI	-6111
고에	-6112
받침	-6113
▁대해선	-6114
▁주장을	-6115
▁잦	-6116
▁일시	-6117
▁언제나	-6118
▁전략을	-6119
▁삼성전자가	-6120
▁송금	-6121
▁이래	-6122
▁체감	-6123
만원의	-6124
▁높이고	-6125
▁증가하고	-6126
평균	-6127
▁세탁	-6128
▁이스	-6129
▁조례	-6130
▁반응이	-6131
▁받는다	-6132
▁배터리	-6133
▁없으면	-6134
▁연락이	-6135
▁올라가	-6136
생명	-6137
▁43	-6138
▁김민	-6139
▁높게	-6140
▁떠난	-6141
▁송파	-6142
▁유동	-6143
▁클래	-6144
▁사건은	-6145
▁않을까	-6146
▁제도를	-6147
▁친구들이	-6148
권과	-6149
삼성	-6150
자료	-6151
풍이	-6152
▁재발	-6153
▁동영상	-6154
▁부분에	-6155
▁의지가	-6156
▁42	-6157
▁김병	-6158
▁면역	-6159
▁의식	-6160
▁강남구	-6161
▁단순히	-6162
▁병원으로	-6163
▁값	-6164
곳이	-6165
ing	-6166
▁에너	-6167
관계가	-6168
▁대체로	-6169
▁또다시	-6170
▁제공한다	-6171
∼4	-6172
상담	-6173
월에는	-6174
▁조금만	-6175
▁하노이	-6176
▁대목	-6177
▁뒤를	-6178
▁보좌	-6179
▁연극	-6180
▁높이는	-6181
▁법무부	-6182
▁2007	-6183
모를	-6184
▁마시	-6185
▁목사	-6186
▁선제	-6187
▁주기	-6188
▁테러	-6189
▁북한에	-6190
▁잉	-6191
았어	-6192
책임	-6193
▁모으고	-6194
▁방법으로	-6195
탄을	-6196
▁봐야	-6197
▁주실	-6198
▁정도가	-6199
▁출국	-6200
▁들어가는	-6201
▁맹	-6202
▁친구와	-6203
▁‘2019	-6204
준이	-6205
▁달아	-6206
▁밖으로	-6207
▁방법은	-6208
▁코리아	-6209
▁고려하면	-6210
케어	-6211
▁성사	-6212
▁치킨	-6213
▁공간이	-6214
▁건의	-6215
▁규칙	-6216
▁자살	-6217
그룹이	-6218
만달러	-6219
▁스케줄	-6220
▁확실히	-6221
▁빅데이터	-6222
미술	-6223
색이	-6224
신청	-6225
▁가맹점	-6226
▁주가가	-6227
▁행정안전	-6228
안과	-6229
액은	-6230
했다가	-6231
▁문제의	-6232
▁기후	-6233
▁달에	-6234
▁사유	-6235
▁국가가	-6236
▁뒤늦게	-6237
▁월요일	-6238
▁위기에	-6239
▁제기한	-6240
▁소상공인	-6241
▁클라우드	-6242
바른	-6243
▁거세	-6244
▁경찰의	-6245
▁얘기를	-6246
24	-6247
▁닭	-6248
▁콩	-6249
▁걸린	-6250
▁남겨	-6251
▁매주	-6252
거든요	-6253
▁아니고	-6254
▁언급한	-6255
▁말할	-6256
▁종종	-6257
▁테마	-6258
미는	-6259
▁본인	-6260
▁압도	-6261
▁유포	-6262
▁치매	-6263
▁합병	-6264
프라인	-6265
▁교육부	-6266
▁버스를	-6267
▁준비가	-6268
▁제공하고	-6269
보증	-6270
▁먹어	-6271
▁문자	-6272
▁뒷받침	-6273
▁중국과	-6274
▁행사는	-6275
시장에서	-6276
낸다	-6277
용품	-6278
협약	-6279
▁건데	-6280
▁동참	-6281
▁추적	-6282
▁냈	-6283
것도	-6284
▁깊이	-6285
▁실업	-6286
▁크로	-6287
옵니다	-6288
미널	-6289
파가	-6290
▁된다면	-6291
▁아들이	-6292
▁친구를	-6293
▁아시아나	-6294
▁힐	-6295
진핑	-6296
▁공약	-6297
▁불어	-6298
▁장난	-6299
▁제게	-6300
▁기록을	-6301
▁얼굴을	-6302
▁의혹에	-6303
▁발견됐다	-6304
▁연구개발	-6305
중이	-6306
▁메르	-6307
▁물리	-6308
▁소형	-6309
▁협조	-6310
십니다	-6311
▁답변을	-6312
▁저렴한	-6313
▁시민단체	-6314
▁해당하는	-6315
림을	-6316
물에	-6317
폭이	-6318
▁내지	-6319
▁발효	-6320
▁진정	-6321
▁목표를	-6322
IA	-6323
▁칭	-6324
건에	-6325
져서	-6326
▁번호	-6327
▁유아	-6328
시장은	-6329
▁좋겠습니다	-6330
5)	-6331
▁웨	-6332
▁배가	-6333
▁어우	-6334
▁반대로	-6335
▁태양광	-6336
▁가능성은	-6337
▁아니지만	-6338
▁도중	-6339
월드컵	-6340
개선	-6341
수산	-6342
프를	-6343
▁연동	-6344
▁재료	-6345
지사가	-6346
▁넘치는	-6347
▁붉	-6348
▁틈	-6349
만간	-6350
준비	-6351
▁당국	-6352
▁대량	-6353
▁마이	-6354
▁맡고	-6355
▁인스타	-6356
▁지적도	-6357
▁소비자가	-6358
▁어려움이	-6359
▁요청했다	-6360
민의	-6361
세한	-6362
▁국경	-6363
▁연금	-6364
▁곳이다	-6365
▁선물을	-6366
미나	-6367
▁장르	-6368
▁적절	-6369
사들의	-6370
으니까	-6371
▁과도한	-6372
▁매니저	-6373
▁여기는	-6374
프로그램	-6375
공급	-6376
와는	-6377
▁고백	-6378
▁무려	-6379
▁철거	-6380
▁분야에	-6381
▁브리핑	-6382
▁핸드폰	-6383
▁보고서를	-6384
▁낫	-6385
달아	-6386
▁비싸	-6387
▁어른	-6388
▁연관	-6389
▁입국	-6390
▁챙겨	-6391
하기가	-6392
하였다	-6393
▁성적을	-6394
▁판매가	-6395
▁앓	-6396
년도	-6397
봉사	-6398
재는	-6399
창업	-6400
체험	-6401
▁균형	-6402
▁해상	-6403
▁검사를	-6404
▁미래에	-6405
▁피의자	-6406
▁드러냈다	-6407
▁있었는데	-6408
▁대통령에게	-6409
간다	-6410
도서	-6411
즈가	-6412
▁공포	-6413
▁얻고	-6414
▁사용해	-6415
정보통신	-6416
▁부활	-6417
▁한강	-6418
▁사용자	-6419
▁서울시가	-6420
(8	-6421
▁쾌	-6422
린이	-6423
법상	-6424
판매	-6425
▁감시	-6426
▁데는	-6427
▁조달	-6428
▁파괴	-6429
되도록	-6430
▁기대감이	-6431
▁함께하는	-6432
결이	-6433
체의	-6434
▁SBS	-6435
▁장면이	-6436
▁엉	-6437
▁거로	-6438
▁야당	-6439
▁찍어	-6440
▁드러난	-6441
▁별다른	-6442
▁않았던	-6443
▁없나요	-6444
▁제시한	-6445
▁48	-6446
▁이걸	-6447
▁청주	-6448
▁총리	-6449
▁헤어	-6450
방에서	-6451
▁그나마	-6452
▁다르게	-6453
▁않았다는	-6454
▁연봉	-6455
▁최신	-6456
▁털어	-6457
▁가져다	-6458
▁실시한	-6459
▁요구했다	-6460
여성	-6461
ion	-6462
▁소설	-6463
▁팀을	-6464
▁근로자	-6465
▁조치가	-6466
르기	-6467
였고	-6468
임대	-6469
▁본인이	-6470
▁쇼핑몰	-6471
▁혐의가	-6472
▁구속영장을	-6473
▁데려	-6474
▁도는	-6475
▁멀리	-6476
▁면담	-6477
▁미뤄	-6478
▁설비	-6479
▁없애	-6480
▁입금	-6481
▁인간의	-6482
▁이스라엘	-6483
▁셔	-6484
▁도내	-6485
▁독특	-6486
된다면	-6487
▁미사일	-6488
▁시진핑	-6489
안의	-6490
지다	-6491
▁적어	-6492
▁총선	-6493
▁해운	-6494
바이트	-6495
▁되면서	-6496
위원회의	-6497
.0%	-6498
▁구단	-6499
▁벌인	-6500
▁아까	-6501
▁육아	-6502
▁전담	-6503
▁느끼는	-6504
▁방식이	-6505
▁아니라고	-6506
▁콘텐츠를	-6507
▁훈	-6508
끄러	-6509
렸을	-6510
▁시중	-6511
더라	-6512
셔도	-6513
여개	-6514
▁무리	-6515
▁뼈	-6516
타를	-6517
▁김재	-6518
▁메일을	-6519
▁시작됐다	-6520
재산	-6521
키는	-6522
▁시공	-6523
하라는	-6524
견을	-6525
인에	-6526
▁국세	-6527
미디어	-6528
었으나	-6529
▁서류를	-6530
▁다섯	-6531
▁지사	-6532
하기에	-6533
▁비서실	-6534
▁이익을	-6535
▁저소득	-6536
▁곁	-6537
▁대답	-6538
▁차관	-6539
▁편성	-6540
하기는	-6541
▁것이라	-6542
▁휴대폰	-6543
내가	-6544
화는	-6545
▁보러	-6546
▁아이폰	-6547
▁드릴게요	-6548
스턴	-6549
시각	-6550
▁겨냥	-6551
▁깜짝	-6552
▁나쁜	-6553
▁뒤집	-6554
억원에	-6555
▁거라고	-6556
▁설치된	-6557
▁야외	-6558
▁택배	-6559
▁너무나	-6560
▁비정규직	-6561
조직	-6562
만원이	-6563
▁5·18	-6564
▁이미지를	-6565
공정	-6566
일본	-6567
▁신발	-6568
기업의	-6569
해졌다	-6570
▁경찰과	-6571
▁높았다	-6572
▁발견된	-6573
▁이미지	-6574
소한	-6575
줘야	-6576
▁무상	-6577
해지는	-6578
15	-6579
▁재밌	-6580
▁끌어올	-6581
▁총리는	-6582
기금	-6583
▁가량	-6584
▁내릴	-6585
▁보지	-6586
▁빨간	-6587
센터가	-6588
이었던	-6589
▁경찰청	-6590
로그	-6591
매매	-6592
층을	-6593
▁대피	-6594
▁박물	-6595
▁처분	-6596
▁성범죄	-6597
친다	-6598
▁계엄	-6599
▁항의	-6600
질의	-6601
▁반등	-6602
▁심한	-6603
▁여론이	-6604
▁앤	-6605
▁고맙	-6606
▁제정	-6607
▁합리	-6608
▁로이터	-6609
▁영화는	-6610
▁좋겠어	-6611
▁운영하고	-6612
▁차기	-6613
▁폭력	-6614
시설을	-6615
복합	-6616
영의	-6617
▁마침	-6618
▁아파	-6619
▁즉각	-6620
▁진학	-6621
▁행위	-6622
▁인스타그램	-6623
▁떼	-6624
박스	-6625
받지	-6626
▁결의	-6627
▁관찰	-6628
▁시정	-6629
▁전후	-6630
▁준공	-6631
냅니다	-6632
▁식으로	-6633
▁조금씩	-6634
▁조만간	-6635
두로	-6636
비로	-6637
식과	-6638
▁순천	-6639
▁중장	-6640
▁피고	-6641
시장의	-6642
▁음식이	-6643
▁건강보험	-6644
▁진행한다	-6645
▁프로그램이	-6646
국인	-6647
정치	-6648
참여	-6649
▁낮추	-6650
▁몸에	-6651
▁경쟁력	-6652
▁중국에	-6653
▁편의점	-6654
▁유럽연합	-6655
▁끊임	-6656
▁연루	-6657
▁정부에	-6658
▁최근에	-6659
▁베네	-6660
협의회	-6661
▁어디로	-6662
▁역량을	-6663
▁위해선	-6664
8)	-6665
▁e	-6666
▁고조	-6667
▁농촌	-6668
▁번도	-6669
▁의도	-6670
5000	-6671
▁기준이	-6672
▁다행히	-6673
▁에어컨	-6674
▁제공할	-6675
▁자율주행	-6676
▁고향	-6677
▁죽음	-6678
▁한때	-6679
티스트	-6680
▁인용해	-6681
▁주문을	-6682
▁풍부한	-6683
▁공동으로	-6684
▁의원들이	-6685
결제	-6686
패를	-6687
▁경계	-6688
▁다운	-6689
▁많지	-6690
▁선배	-6691
▁문화를	-6692
리포	-6693
신의	-6694
종이	-6695
화한	-6696
▁수험	-6697
▁잊지	-6698
▁패키	-6699
▁하니	-6700
식에는	-6701
▁남북정상회담	-6702
▁섭취	-6703
▁신앙	-6704
▁입시	-6705
▁피아	-6706
▁이곳은	-6707
▁계속해서	-6708
석의	-6709
▁물류	-6710
▁부부	-6711
▁확충	-6712
▁획득	-6713
생활을	-6714
▁거래가	-6715
▁일요일	-6716
▁자료에	-6717
▁행사에	-6718
90	-6719
▁넌	-6720
▁임상	-6721
▁접어	-6722
▁중부	-6723
기까지	-6724
▁가족과	-6725
▁갈등을	-6726
▁별도의	-6727
▁소속사	-6728
▁측면에서	-6729
et	-6730
달라	-6731
데이	-6732
▁어쩔	-6733
▁자문	-6734
▁지사가	-6735
▁부정적인	-6736
히고	-6737
▁보존	-6738
▁수색	-6739
▁집권	-6740
▁침체	-6741
▁시험을	-6742
▁지난주	-6743
스테	-6744
▁원자	-6745
용으로	-6746
▁광화문	-6747
▁기업을	-6748
▁마스크	-6749
▁상태를	-6750
▁지금도	-6751
▁아무것도	-6752
▁주장하는	-6753
▁필요해요	-6754
▁하더라도	-6755
신문	-6756
▁논의를	-6757
▁감안하면	-6758
자고	-6759
▁가요	-6760
▁발령	-6761
▁자리가	-6762
▁팽	-6763
니가	-6764
드에	-6765
모가	-6766
종을	-6767
▁추산	-6768
▁하셨	-6769
더라고	-6770
듭니다	-6771
▁재판을	-6772
위원회를	-6773
▁제외하고	-6774
▁좋아합니다	-6775
클럽	-6776
100	-6777
▁바뀐	-6778
▁아우	-6779
하는지	-6780
▁끝까지	-6781
▁매력을	-6782
▁뚫	-6783
▁줬	-6784
리즘	-6785
타운	-6786
▁말은	-6787
▁종이	-6788
▁천연	-6789
▁것이고	-6790
▁이름은	-6791
▁음주운전	-6792
▁대다	-6793
▁시달	-6794
▁정권	-6795
▁것들이	-6796
▁안녕하세요	-6797
뷰티	-6798
았을	-6799
·13	-6800
▁드론	-6801
▁수주	-6802
스티벌	-6803
인들은	-6804
▁당국이	-6805
▁들어갈	-6806
▁영어로	-6807
▁인상을	-6808
▁필요할	-6809
▁몽	-6810
실한	-6811
▁들을	-6812
았다고	-6813
▁사이의	-6814
났습니다	-6815
배우	-6816
음악	-6817
▁불을	-6818
▁이례	-6819
▁결정이	-6820
▁고위급	-6821
▁그림을	-6822
▁끝나고	-6823
▁성적이	-6824
▁일하고	-6825
▁자금을	-6826
▁사용하고	-6827
▁있었다고	-6828
NG	-6829
가와	-6830
키로	-6831
▁몰라	-6832
▁부대	-6833
▁음성	-6834
하자는	-6835
▁급격히	-6836
▁좋아해요	-6837
가량	-6838
래도	-6839
▁대립	-6840
▁부각	-6841
▁비리	-6842
▁용인	-6843
▁장점	-6844
▁BMW	-6845
▁판단이	-6846
통상자원	-6847
▁신용카드	-6848
▁짙	-6849
▁막을	-6850
▁입찰	-6851
▁경위를	-6852
▁최초의	-6853
레이시아	-6854
위원장은	-6855
▁쫓	-6856
▁이주	-6857
▁쓰레기	-6858
▁왔어요	-6859
▁분석된다	-6860
▁자동으로	-6861
자본	-6862
▁꼼꼼	-6863
▁들은	-6864
▁얻은	-6865
▁규제를	-6866
▁상품이	-6867
▁플라스틱	-6868
▁갖는	-6869
▁객관	-6870
구에서	-6871
당에서	-6872
▁펀	-6873
사람	-6874
▁거절	-6875
▁믿고	-6876
▁스캔	-6877
▁신문	-6878
▁브렉시트	-6879
25	-6880
▁잠깐	-6881
▁주재	-6882
▁197	-6883
▁국민청	-6884
▁규모로	-6885
▁빠져나	-6886
▁일본이	-6887
▁합의를	-6888
▁실질적인	-6889
리다	-6890
▁골목	-6891
▁목회	-6892
▁물품	-6893
▁한데	-6894
▁수익을	-6895
▁임직원	-6896
왔습니다	-6897
TA	-6898
한이	-6899
▁득점	-6900
▁듣는	-6901
▁방금	-6902
▁방어	-6903
▁위탁	-6904
▁잡은	-6905
자연	-6906
▁44	-6907
▁뒤로	-6908
▁분이	-6909
▁사찰	-6910
▁인명	-6911
위원은	-6912
▁안타까	-6913
▁약속을	-6914
▁피해자가	-6915
ou	-6916
▁쏘	-6917
▁강요	-6918
▁납품	-6919
▁느낀	-6920
▁유사	-6921
▁재생	-6922
▁개인의	-6923
▁엄청난	-6924
▁특유의	-6925
▁대표하는	-6926
웠던	-6927
행사	-6928
▁넓은	-6929
▁블루	-6930
▁초래	-6931
▁메이저	-6932
▁분들이	-6933
▁소리가	-6934
▁아니야	-6935
▁아름다	-6936
▁주말에	-6937
▁책임이	-6938
▁근로시간	-6939
ed	-6940
문학	-6941
비와	-6942
연히	-6943
치며	-6944
▁씨의	-6945
▁다수의	-6946
▁우리를	-6947
▁정황이	-6948
▁해주세요	-6949
경은	-6950
드의	-6951
전한	-6952
▁쉬운	-6953
▁엇갈	-6954
▁협업	-6955
▁고객님	-6956
오염	-6957
크가	-6958
▁런던	-6959
▁목포	-6960
장에게	-6961
▁대표와	-6962
▁우려를	-6963
▁중국에서	-6964
▁마찬가지로	-6965
▁패스트트랙	-6966
밀한	-6967
추가	-6968
▁정책에	-6969
▁판결을	-6970
백을	-6971
▁금호	-6972
▁담배	-6973
▁비싼	-6974
▁원전	-6975
▁저기	-6976
▁주행	-6977
▁편집	-6978
▁들어갔다	-6979
▁만들어진	-6980
부총	-6981
▁관세를	-6982
▁오피스	-6983
▁무역분쟁	-6984
퍼런	-6985
편이	-6986
▁부사	-6987
▁총괄	-6988
▁검찰의	-6989
▁아르바이트	-6990
말로	-6991
지인	-6992
▁55	-6993
▁귀국	-6994
▁좌우	-6995
▁개선을	-6996
▁모았다	-6997
▁수준이	-6998
▁화려한	-6999
▁오랜만에	-7000
▁참여했다	-7001
4)	-7002
계는	-7003
▁금강	-7004
▁결론을	-7005
▁않았어요	-7006
던데	-7007
업무	-7008
▁가방	-7009
▁부딪	-7010
▁증시	-7011
스토랑	-7012
▁노무현	-7013
▁신제품	-7014
▁양승태	-7015
▁이후에	-7016
▁차원의	-7017
▁회사를	-7018
▁세계에서	-7019
▁활성화를	-7020
▁봅	-7021
내며	-7022
▁출판	-7023
렸어요	-7024
▁토트넘	-7025
▁레스토랑	-7026
▁산업통상자원	-7027
▁지방자치단체	-7028
▁가질	-7029
▁세트	-7030
되는데	-7031
센터는	-7032
에서다	-7033
▁군산	-7034
▁단위	-7035
▁사실은	-7036
▁차세대	-7037
▁않았다고	-7038
▁빙	-7039
놓은	-7040
▁면제	-7041
▁오를	-7042
▁융합	-7043
▁전주	-7044
▁별도로	-7045
▁쳐	-7046
물은	-7047
부산	-7048
▁기조	-7049
▁서민	-7050
▁어떨	-7051
▁재능	-7052
되거나	-7053
▁당국은	-7054
▁있을까	-7055
▁찾아가	-7056
▁서울에서	-7057
장인	-7058
▁맞고	-7059
▁배상	-7060
▁싶지	-7061
▁사례를	-7062
▁최악의	-7063
▁조사에서	-7064
▁캘	-7065
석은	-7066
▁고의	-7067
▁넥센	-7068
▁유의	-7069
▁출제	-7070
▁하려고	-7071
▁흐름을	-7072
▁호텔에서	-7073
파로	-7074
▁대안	-7075
▁둘째	-7076
▁맞서	-7077
▁묻는	-7078
▁장례	-7079
▁점에	-7080
▁주한	-7081
끼리	-7082
▁늦어	-7083
▁도움	-7084
만명이	-7085
NA	-7086
▁갑작	-7087
▁운항	-7088
▁나서는	-7089
▁이명박	-7090
▁제재를	-7091
▁진정한	-7092
▁한다면	-7093
▁화재가	-7094
줘서	-7095
▁가려	-7096
▁매수	-7097
∼6	-7098
▁멘	-7099
제재	-7100
▁가속	-7101
▁벤투	-7102
▁차이	-7103
▁크지	-7104
▁느낌이	-7105
▁주시면	-7106
▁형태의	-7107
▁모니터링	-7108
예산	-7109
▁격려	-7110
▁데이	-7111
▁40%	-7112
▁발전을	-7113
▁보도가	-7114
▁중국은	-7115
▁포함돼	-7116
▁늘어나는	-7117
▁시민들의	-7118
▁정확하게	-7119
▁헌법재판	-7120
ol	-7121
만여	-7122
▁남긴	-7123
▁로드	-7124
▁메일	-7125
▁전세	-7126
▁같아서	-7127
대사	-7128
키퍼	-7129
▁46	-7130
▁바꿀	-7131
▁발주	-7132
▁손에	-7133
▁앞선	-7134
▁영입	-7135
▁이영	-7136
▁팀의	-7137
였지만	-7138
▁기자가	-7139
▁사장은	-7140
▁종류의	-7141
▁문화체육	-7142
급여	-7143
아서	-7144
회와	-7145
▁돕는	-7146
▁밀어	-7147
▁실망	-7148
▁최소한	-7149
▁투자자	-7150
▁집값	-7151
▁결정했다	-7152
▁일각에서는	-7153
차전	-7154
▁미니	-7155
▁성향	-7156
▁기업은	-7157
▁노하우	-7158
▁아니요	-7159
중인	-7160
▁요소	-7161
▁패턴	-7162
▁국회가	-7163
▁높였다	-7164
▁Q	-7165
절을	-7166
통이	-7167
호의	-7168
▁걸리	-7169
▁구미	-7170
▁솔직	-7171
▁조명	-7172
▁준다	-7173
▁촉진	-7174
▁한해	-7175
▁기업과	-7176
▁사용이	-7177
▁기업들의	-7178
▁제기된다	-7179
▁댄	-7180
양의	-7181
조치	-7182
200	-7183
▁고기	-7184
▁메인	-7185
▁인건	-7186
▁중독	-7187
▁측의	-7188
▁하여	-7189
▁금액을	-7190
▁영상이	-7191
▁움직임	-7192
▁위기를	-7193
▁추진할	-7194
▁이동통신	-7195
감은	-7196
헨티	-7197
▁간부	-7198
▁패널	-7199
▁한반	-7200
▁해체	-7201
▁나이가	-7202
▁조사가	-7203
▁활동이	-7204
능력	-7205
시대	-7206
▁가기	-7207
▁누리	-7208
▁더는	-7209
▁방사	-7210
▁법관	-7211
▁폭이	-7212
▁소리를	-7213
▁음식은	-7214
▁멈추	-7215
▁쓰러	-7216
▁기존에	-7217
▁출연해	-7218
벤처기업	-7219
▁맥주	-7220
▁없게	-7221
▁연일	-7222
으세요	-7223
잖아요	-7224
▁기소된	-7225
▁선정된	-7226
▁소중한	-7227
▁신뢰를	-7228
▁인보	-7229
▁거리가	-7230
▁민주당이	-7231
▁조별리그	-7232
he	-7233
액의	-7234
주주	-7235
▁했을	-7236
▁거기에	-7237
▁발생하지	-7238
6)	-7239
▁보복	-7240
▁현직	-7241
▁합의가	-7242
IP	-7243
▁갔다	-7244
▁얻어	-7245
▁탄탄	-7246
▁경제의	-7247
▁보여준	-7248
▁작성한	-7249
▁후보는	-7250
▁땀	-7251
됐을	-7252
소시	-7253
행위	-7254
화될	-7255
▁글이	-7256
▁예외	-7257
▁포럼	-7258
▁골키퍼	-7259
▁말까지	-7260
▁추정되는	-7261
면이	-7262
실과	-7263
▁그저	-7264
▁늘려	-7265
▁채워	-7266
▁사진은	-7267
▁없다면	-7268
▁팬들의	-7269
▁말레이시아	-7270
▁IP	-7271
▁너와	-7272
▁부부가	-7273
▁식사를	-7274
▁우승을	-7275
▁조사에	-7276
두에	-7277
▁몇몇	-7278
▁이목이	-7279
▁모습이다	-7280
▁있었다는	-7281
식의	-7282
전과	-7283
투표	-7284
▁공인	-7285
▁마크	-7286
▁비율	-7287
▁성추행	-7288
▁중국을	-7289
▁검토하고	-7290
▁원인으로	-7291
주시겠어요	-7292
차에	-7293
▁자국	-7294
▁불거진	-7295
웠습니다	-7296
간담	-7297
장한	-7298
확인	-7299
▁내비	-7300
▁엔진	-7301
▁오직	-7302
경찰청	-7303
▁고객의	-7304
▁부정적	-7305
▁스크린	-7306
▁공개됐다	-7307
▁기대감을	-7308
고도	-7309
환이	-7310
공사가	-7311
▁기다리	-7312
▁부산시	-7313
▁사회의	-7314
▁시작해	-7315
검찰	-7316
출산	-7317
▁강연	-7318
▁첫날	-7319
졌어요	-7320
홀에서	-7321
▁120	-7322
▁갑니다	-7323
▁예정된	-7324
▁충격을	-7325
있습니다	-7326
▁사용하지	-7327
▁건지	-7328
▁버튼	-7329
▁탈퇴	-7330
관으로	-7331
▁높다는	-7332
▁예산이	-7333
▁지원할	-7334
▁코스피	-7335
∼5	-7336
선은	-7337
▁나은	-7338
▁유효	-7339
▁판사	-7340
▁한마	-7341
교육청은	-7342
마켓	-7343
아라	-7344
▁41	-7345
▁방학	-7346
▁아기	-7347
▁지갑	-7348
▁거래소	-7349
▁들어온	-7350
▁보면서	-7351
▁사이버	-7352
▁아마도	-7353
▁이해할	-7354
▁궁금증을	-7355
▁민주주의	-7356
▁팝	-7357
▁났다	-7358
▁여겨	-7359
▁정작	-7360
면으로	-7361
시설이	-7362
▁버닝썬	-7363
▁움직임이	-7364
▁햇	-7365
마를	-7366
장비	-7367
▁감지	-7368
▁걱정이	-7369
▁곳곳에	-7370
▁장점이	-7371
▁보내주세요	-7372
▁급락	-7373
▁영광	-7374
은행의	-7375
(201	-7376
▁모양새	-7377
▁힘들어	-7378
▁고속도로	-7379
▁진행했다	-7380
▁국토교통부	-7381
▁곽	-7382
가격	-7383
세는	-7384
자도	-7385
축제	-7386
▁워낙	-7387
▁장학	-7388
▁주신	-7389
▁투기	-7390
▁파이	-7391
▁협박	-7392
▁가격에	-7393
▁준비하고	-7394
▁없었습니다	-7395
▁낯	-7396
년째	-7397
서로	-7398
요금	-7399
▁거죠	-7400
▁로맨	-7401
▁수천	-7402
▁전형	-7403
▁터뜨	-7404
▁토지	-7405
▁경기에	-7406
▁성과가	-7407
▁아르헨티	-7408
▁이상으로	-7409
▁뻔	-7410
전형	-7411
▁엄격	-7412
▁모습으로	-7413
서도	-7414
평을	-7415
▁드는	-7416
▁신중	-7417
▁신혼	-7418
청소년	-7419
합니까	-7420
▁감정을	-7421
▁재건축	-7422
뉴스	-7423
▁손상	-7424
▁수여	-7425
▁파리	-7426
▁기간을	-7427
▁대하여	-7428
▁평가다	-7429
▁롤	-7430
아의	-7431
▁내신	-7432
▁담고	-7433
▁중고	-7434
미세먼	-7435
▁돌아오	-7436
▁의미다	-7437
▁자회사	-7438
리도	-7439
연대	-7440
▁김수	-7441
▁꺼내	-7442
▁사내	-7443
▁휩싸	-7444
▁판결이	-7445
▁현재의	-7446
▁사용자가	-7447
▁아이들을	-7448
▁법원행정처	-7449
▁이혼	-7450
▁인테	-7451
▁줄이	-7452
자료를	-7453
▁시기에	-7454
DP	-7455
간에	-7456
▁공론	-7457
▁농협	-7458
▁CEO	-7459
▁김경수	-7460
▁사업의	-7461
▁완벽한	-7462
▁의사가	-7463
▁점수를	-7464
▁아티스트	-7465
▁예상했다	-7466
인도	-7467
▁이수	-7468
들과의	-7469
▁600	-7470
▁보여줄	-7471
▁준비한	-7472
▁콘서트	-7473
▁병원에서	-7474
▁주장이다	-7475
▁링	-7476
▁뭘	-7477
▁밤에	-7478
▁성경	-7479
▁세상	-7480
▁앞세	-7481
▁청원	-7482
▁춘천	-7483
▁충청	-7484
▁관련이	-7485
▁질문을	-7486
▁합의한	-7487
▁산업혁명	-7488
나이	-7489
령이	-7490
박물	-7491
화할	-7492
▁감각	-7493
▁나눔	-7494
▁유행	-7495
▁취급	-7496
▁70%	-7497
▁근거로	-7498
▁불만을	-7499
▁컨설팅	-7500
▁반대하는	-7501
▁언급했다	-7502
▁파악하고	-7503
▁기분	-7504
▁보육	-7505
▁부지	-7506
▁해킹	-7507
▁끌었다	-7508
▁웃음을	-7509
▁이곳에	-7510
▁지사는	-7511
▁곳곳에서	-7512
▁일자리가	-7513
▁세계적으로	-7514
부처	-7515
차량	-7516
▁중동	-7517
▁천안	-7518
▁안으로	-7519
▁줍니다	-7520
▁화제를	-7521
▁확보한	-7522
▁CJ	-7523
▁갈아	-7524
▁고스	-7525
▁그다	-7526
▁안심	-7527
▁앞장	-7528
▁지명	-7529
십니까	-7530
▁국가안보	-7531
▁떡	-7532
▁높고	-7533
▁여유	-7534
▁예배	-7535
▁유전	-7536
▁유죄	-7537
은행은	-7538
▁목사는	-7539
▁선택한	-7540
▁입니다	-7541
뒀다	-7542
신고	-7543
▁독특한	-7544
▁엄마가	-7545
▁중에는	-7546
▁마이크로	-7547
▁셰	-7548
처분	-7549
팀을	-7550
▁아픈	-7551
▁사람과	-7552
▁스타일	-7553
▁이메일	-7554
▁환자의	-7555
▁시청자들의	-7556
▁각자	-7557
▁번에	-7558
▁프린	-7559
사회의	-7560
▁뜻이다	-7561
▁자세한	-7562
▁대중교통	-7563
로의	-7564
성한	-7565
이상	-7566
선으로	-7567
▁마련된	-7568
▁변호사는	-7569
▁소프트웨어	-7570
살을	-7571
▁스페	-7572
▁전당	-7573
▁조율	-7574
▁횡령	-7575
중공업	-7576
▁다르다	-7577
▁서초구	-7578
▁현재는	-7579
▁문화체육관광	-7580
라의	-7581
토록	-7582
▁기내	-7583
▁모델을	-7584
▁수출이	-7585
▁원장은	-7586
▁가능하며	-7587
▁때문으로	-7588
▁옵	-7589
으러	-7590
▁3,	-7591
▁놀이	-7592
▁되길	-7593
▁석탄	-7594
▁의장	-7595
되지만	-7596
▁경향이	-7597
▁인사청	-7598
▁인식이	-7599
▁하세요	-7600
겠고	-7601
렬한	-7602
비에	-7603
혐오	-7604
▁돌봄	-7605
▁밀려	-7606
▁건강을	-7607
▁걸그룹	-7608
▁구매할	-7609
▁코스닥	-7610
▁이곳에서	-7611
▁옳	-7612
▁결코	-7613
▁권력	-7614
▁금액이	-7615
▁성공적으로	-7616
ac	-7617
▁찌	-7618
회로	-7619
▁강행	-7620
▁김포	-7621
▁남동	-7622
▁되돌	-7623
▁류현	-7624
▁소외	-7625
▁유용	-7626
▁적정	-7627
▁창작	-7628
▁2∼3	-7629
▁않았고	-7630
▁역할이	-7631
림이	-7632
조작	-7633
▁물질	-7634
▁부르	-7635
▁저축	-7636
▁평창	-7637
▁노동당	-7638
▁보세요	-7639
▁애플리	-7640
▁잃어버	-7641
▁편하게	-7642
고한	-7643
내기	-7644
장관	-7645
학적	-7646
▁나면	-7647
▁나빠	-7648
▁밝은	-7649
▁파일	-7650
▁예약을	-7651
▁밝혔습니다	-7652
구와	-7653
군에	-7654
담당	-7655
둘러	-7656
▁와이	-7657
▁현상	-7658
▁주목을	-7659
드와	-7660
▁높여	-7661
▁능력	-7662
▁홀로	-7663
▁비교해	-7664
▁선택을	-7665
▁늘어나고	-7666
수엘	-7667
▁딸이	-7668
▁블룸	-7669
▁탈락	-7670
사항을	-7671
시장에	-7672
정책을	-7673
▁비트코	-7674
▁진술을	-7675
▁미세먼지가	-7676
▁딜	-7677
례를	-7678
범위	-7679
온이	-7680
▁말에	-7681
▁소년	-7682
▁안산	-7683
▁중순	-7684
▁찾지	-7685
▁학술	-7686
시간에	-7687
▁1∼2	-7688
▁3·1	-7689
▁장관의	-7690
▁할아버	-7691
▁행위를	-7692
▁그와	-7693
▁도출	-7694
▁미친	-7695
▁상가	-7696
▁지진	-7697
▁196	-7698
▁말이다	-7699
▁이르면	-7700
▁하나는	-7701
서비스를	-7702
▁해석된다	-7703
▁아시아나항공	-7704
35	-7705
졌을	-7706
▁길어	-7707
▁맛을	-7708
▁신인	-7709
▁연내	-7710
별로는	-7711
▁119	-7712
▁관리가	-7713
▁나서고	-7714
▁배우고	-7715
▁요구를	-7716
▁선정됐다	-7717
▁증가하는	-7718
▁지나치게	-7719
▁지원한다	-7720
양을	-7721
▁읽고	-7722
▁재벌	-7723
▁전송	-7724
▁나가는	-7725
▁주시기	-7726
▁즐겁게	-7727
▁특성상	-7728
▁소개했다	-7729
보자	-7730
체에	-7731
▁기름	-7732
▁미국을	-7733
▁수술을	-7734
▁신고가	-7735
▁이해가	-7736
▁확대를	-7737
경찰서는	-7738
▁보여준다	-7739
▁불가능한	-7740
17	-7741
▁자발	-7742
▁하시	-7743
▁결과는	-7744
▁규제가	-7745
▁드라이	-7746
▁벌어진	-7747
▁해결할	-7748
▁이뤄졌다	-7749
▁들었습니다	-7750
▁삽	-7751
교류	-7752
장치	-7753
300	-7754
▁알리	-7755
▁자꾸	-7756
▁지표	-7757
기에는	-7758
▁바람에	-7759
▁비판을	-7760
▁연기를	-7761
▁편지를	-7762
▁프로젝트를	-7763
르크	-7764
악한	-7765
지대	-7766
▁가깝	-7767
▁감축	-7768
▁뇌물	-7769
▁솔로	-7770
▁유권	-7771
▁철강	-7772
▁다니는	-7773
▁불편을	-7774
▁5000	-7775
▁유일하게	-7776
AR	-7777
▁겉	-7778
대체	-7779
포먼	-7780
▁가볍	-7781
▁가전	-7782
▁가중	-7783
▁모인	-7784
▁어쩌	-7785
▁책은	-7786
▁짚	-7787
슬람	-7788
▁북부	-7789
▁텔레	-7790
▁관리를	-7791
▁들어갔	-7792
▁위주로	-7793
▁일부를	-7794
▁민주평화	-7795
UV	-7796
색을	-7797
협정	-7798
▁김지	-7799
▁매매	-7800
▁미흡	-7801
▁최다	-7802
▁선보인	-7803
엔터테인	-7804
▁소방당국은	-7805
▁실태	-7806
▁유형	-7807
▁간단한	-7808
▁나란히	-7809
▁내리는	-7810
▁바람직	-7811
▁고스란히	-7812
로직	-7813
▁가벼	-7814
▁보며	-7815
▁세운	-7816
▁되도록	-7817
▁무대에	-7818
▁아름답	-7819
▁무서	-7820
▁체제	-7821
▁드루킹	-7822
▁부드러	-7823
▁이처럼	-7824
▁내년부터	-7825
▁관계자들이	-7826
▁을	-7827
▁기쁨	-7828
▁일환	-7829
▁작곡	-7830
▁긍정적	-7831
▁예정인	-7832
▁즐기는	-7833
▁환경이	-7834
▁제품으로	-7835
▁준비하는	-7836
▁독서	-7837
▁한창	-7838
인터넷	-7839
▁가르쳐	-7840
▁국회에	-7841
▁방송을	-7842
▁스튜디오	-7843
▁정보통신	-7844
▁일반적으로	-7845
대교	-7846
현대	-7847
▁극대	-7848
▁정준	-7849
▁친절	-7850
까지만	-7851
센터를	-7852
▁케이블	-7853
▁포함됐다	-7854
▁탔	-7855
총장	-7856
▁부착	-7857
▁포털	-7858
화하고	-7859
▁도입을	-7860
▁뛰어나	-7861
▁하루에	-7862
만원으로	-7863
▁과학기술정보통신	-7864
결정	-7865
곳을	-7866
문의	-7867
지요	-7868
최근	-7869
타워	-7870
▁게재	-7871
▁다짐	-7872
▁동행	-7873
▁막아	-7874
▁분식	-7875
▁호응	-7876
시장을	-7877
▁주민들의	-7878
▁내외	-7879
▁별도	-7880
▁사령	-7881
▁시술	-7882
▁절감	-7883
▁포토	-7884
▁끝나면	-7885
▁데이트	-7886
▁절차가	-7887
el	-7888
▁서서	-7889
▁시나	-7890
▁한글	-7891
달라는	-7892
▁둘러싸	-7893
▁판단을	-7894
▁아무래도	-7895
▁앙	-7896
데다	-7897
▁기원	-7898
▁김모	-7899
▁많을	-7900
▁자칫	-7901
▁때보다	-7902
▁이하의	-7903
(9	-7904
운이	-7905
▁개통	-7906
▁고수	-7907
▁교섭	-7908
▁그거	-7909
▁남해	-7910
스리그	-7911
▁나라의	-7912
▁협력을	-7913
▁받아들여	-7914
▁보고서는	-7915
분석	-7916
▁심장	-7917
▁어르	-7918
▁유연	-7919
▁크기	-7920
▁무대를	-7921
▁선택할	-7922
▁수차례	-7923
▁해마다	-7924
대비	-7925
희롱	-7926
▁47	-7927
▁김씨	-7928
▁목록	-7929
▁선포	-7930
▁스탠	-7931
▁조회	-7932
▁직면	-7933
▁철저히	-7934
▁닮	-7935
아무	-7936
▁빨라	-7937
▁저항	-7938
▁확신	-7939
았다는	-7940
운동을	-7941
▁여부가	-7942
세의	-7943
▁논쟁	-7944
▁특혜	-7945
▁80%	-7946
▁기간에	-7947
▁마련한	-7948
▁실적을	-7949
▁못했습니다	-7950
왔던	-7951
▁구상	-7952
▁영등	-7953
▁일관	-7954
▁장착	-7955
포스트	-7956
▁교육과	-7957
▁기관이	-7958
▁논란에	-7959
▁복잡한	-7960
▁삼성전자는	-7961
SD	-7962
▁CN	-7963
▁박정	-7964
▁부근	-7965
▁연설	-7966
▁저하	-7967
사업이	-7968
▁국가주	-7969
▁국내에	-7970
▁이내에	-7971
▁활동에	-7972
▁않는다면	-7973
▁회의에서	-7974
21	-7975
영은	-7976
▁금속	-7977
▁오토	-7978
▁청문	-7979
▁마시고	-7980
▁서울에	-7981
▁심사를	-7982
▁적용해	-7983
▁참여를	-7984
▁철저한	-7985
▁지역사회	-7986
▁권리	-7987
▁민정	-7988
▁이모	-7989
▁재고	-7990
▁해안	-7991
국에서	-7992
▁김성태	-7993
▁장면을	-7994
▁전반에	-7995
▁제도가	-7996
▁현실을	-7997
한을	-7998
▁면허	-7999
▁박원	-8000
▁잃은	-8001
▁개발을	-8002
▁대비해	-8003
▁커졌다	-8004
EU	-8005
▁눌	-8006
▁뭉	-8007
▁49	-8008
▁바르	-8009
▁있니	-8010
▁캠프	-8011
기간이	-8012
▁기억이	-8013
▁시리아	-8014
▁해결하기	-8015
▁복원	-8016
▁전파	-8017
하시고	-8018
▁되는데	-8019
▁사태가	-8020
▁사회가	-8021
축구연맹	-8022
▁블룸버그	-8023
▁휴대전화	-8024
▁국무위원장의	-8025
▁칸	-8026
중소	-8027
▁백화점	-8028
▁낚	-8029
▁래	-8030
소방	-8031
집이	-8032
▁줄여	-8033
▁지났	-8034
▁전세계	-8035
마가	-8036
팀의	-8037
▁머무	-8038
▁약간	-8039
▁외신	-8040
▁원유	-8041
▁월드	-8042
▁의회	-8043
▁함유	-8044
▁화제	-8045
주시는	-8046
▁개선이	-8047
▁성장할	-8048
▁여성을	-8049
▁적어도	-8050
▁특별히	-8051
라디	-8052
▁구제	-8053
▁국어	-8054
▁대입	-8055
▁사안	-8056
▁시켜	-8057
▁전라	-8058
▁투쟁	-8059
▁가졌다	-8060
▁갖추고	-8061
▁개발에	-8062
▁규정을	-8063
▁반영된	-8064
▁줄었다	-8065
▁나타나는	-8066
▁집계됐다	-8067
▁컵	-8068
올해	-8069
▁내수	-8070
▁산책	-8071
▁수강	-8072
▁흡수	-8073
▁거대한	-8074
▁시대를	-8075
▁베네수엘	-8076
▁변호사가	-8077
▁선수들의	-8078
▁자유한국당이	-8079
가며	-8080
보로	-8081
유럽	-8082
▁공원	-8083
▁복구	-8084
▁불량	-8085
목으로	-8086
▁고양이	-8087
▁내년에	-8088
▁시대에	-8089
▁아무도	-8090
▁위에서	-8091
▁훈련을	-8092
만으로도	-8093
▁아버지가	-8094
▁학생들에게	-8095
님을	-8096
▁공략	-8097
▁여객	-8098
▁전수	-8099
▁정무	-8100
▁키우	-8101
▁해군	-8102
▁돌아온	-8103
▁북한과	-8104
▁신도시	-8105
▁오래된	-8106
▁완전한	-8107
▁저녁에	-8108
▁퍼포먼	-8109
▁생각보다	-8110
∼8	-8111
▁비록	-8112
▁실효	-8113
▁왜곡	-8114
계획을	-8115
사업에	-8116
▁비중을	-8117
▁생기는	-8118
▁요청을	-8119
▁폭염이	-8120
길에	-8121
주와	-8122
▁납부	-8123
▁물에	-8124
▁밥을	-8125
▁붙어	-8126
▁여권	-8127
▁이기	-8128
도에서	-8129
번호를	-8130
였어요	-8131
했다면	-8132
▁요구가	-8133
▁이사회	-8134
▁축구대표	-8135
적한	-8136
▁견인	-8137
▁말로	-8138
▁민원	-8139
▁힘입	-8140
시키기	-8141
▁타이틀	-8142
▁디자이너	-8143
▁땐	-8144
▁붉은	-8145
▁거래를	-8146
▁시작할	-8147
▁자세히	-8148
ES	-8149
등을	-8150
스키	-8151
오늘	-8152
▁갖게	-8153
▁골을	-8154
▁리얼	-8155
▁수치	-8156
▁지침	-8157
▁지금의	-8158
▁핀테크	-8159
▁여수	-8160
▁농도가	-8161
▁부총리	-8162
▁업계의	-8163
▁주셔서	-8164
▁크리스마스	-8165
BA	-8166
공연	-8167
유예	-8168
통합	-8169
▁김기	-8170
▁배정	-8171
▁법을	-8172
▁북쪽	-8173
▁열려	-8174
▁조각	-8175
▁짐을	-8176
▁못했던	-8177
▁제기된	-8178
▁조건을	-8179
▁서울시는	-8180
▁여론조사	-8181
14	-8182
▁셋	-8183
관련	-8184
현재	-8185
희가	-8186
▁당첨	-8187
▁독자	-8188
▁적립	-8189
차이즈	-8190
▁바라는	-8191
▁북한은	-8192
들로부터	-8193
▁덩	-8194
쁘게	-8195
▁냉장	-8196
▁노란	-8197
▁비타	-8198
▁샌드	-8199
▁어두	-8200
▁자가	-8201
▁커플	-8202
▁국가의	-8203
▁눈물을	-8204
▁3000	-8205
▁고객에게	-8206
▁2,000	-8207
출을	-8208
▁동맹	-8209
▁추측	-8210
는데도	-8211
연합회	-8212
▁강조한	-8213
▁도착할	-8214
▁맡았다	-8215
▁범행을	-8216
▁부모가	-8217
▁비공개	-8218
▁오르는	-8219
▁의혹과	-8220
▁아니에요	-8221
▁훔	-8222
널티	-8223
락을	-8224
속히	-8225
▁평범	-8226
글랜드	-8227
▁괜찮은	-8228
▁사항이	-8229
▁경기도가	-8230
▁마련됐다	-8231
▁않는다고	-8232
▁오프라인	-8233
▁가능하도록	-8234
▁부천	-8235
▁빼앗	-8236
▁유망	-8237
▁입건	-8238
▁창립	-8239
▁느낌을	-8240
▁말씀해	-8241
▁지역이	-8242
▁해석이	-8243
▁끊임없이	-8244
디움	-8245
청정	-8246
▁소수	-8247
▁쓰지	-8248
▁치러	-8249
▁물건이	-8250
▁변화에	-8251
▁승용차	-8252
▁장관과	-8253
▁판매하는	-8254
▁멍	-8255
아는	-8256
접한	-8257
▁높일	-8258
▁환율	-8259
경영자	-8260
▁내년도	-8261
▁방송된	-8262
▁세금을	-8263
▁시민이	-8264
▁과태	-8265
▁비건	-8266
▁빚어	-8267
▁투약	-8268
▁파란	-8269
▁사회복지	-8270
▁인사청문	-8271
▁주관하는	-8272
▁소비자들이	-8273
신한	-8274
▁경주	-8275
▁꿈꾸	-8276
▁비준	-8277
▁즐기	-8278
▁국토부	-8279
▁소규모	-8280
▁신세계	-8281
▁유사한	-8282
▁혜택이	-8283
▁방식이다	-8284
▁한국으로	-8285
려서	-8286
전기	-8287
▁민생	-8288
▁방위	-8289
▁총수	-8290
개월간	-8291
력발전	-8292
▁사건과	-8293
▁사용을	-8294
▁주식을	-8295
▁초점을	-8296
▁페널티	-8297
▁사실이다	-8298
스팅	-8299
콜릿	-8300
▁가공	-8301
▁기뻐	-8302
▁당황	-8303
▁이룬	-8304
▁즐겨	-8305
미사일	-8306
▁남북이	-8307
▁여지가	-8308
▁올리는	-8309
▁태도를	-8310
▁진심으로	-8311
인당	-8312
점과	-8313
▁마리	-8314
▁월급	-8315
했으면	-8316
▁사망한	-8317
▁요구한	-8318
▁확실한	-8319
▁2005	-8320
▁2021	-8321
13	-8322
16	-8323
군을	-8324
▁서구	-8325
▁읽어	-8326
법으로	-8327
▁요인이	-8328
▁독립운동	-8329
▁안전하게	-8330
수원	-8331
▁도민	-8332
▁역량	-8333
▁워크	-8334
기술을	-8335
▁무조건	-8336
▁2006	-8337
남북	-8338
음에	-8339
▁연료	-8340
거리가	-8341
▁남자가	-8342
▁내놨다	-8343
▁않다고	-8344
▁일부가	-8345
▁해결을	-8346
▁마련했다	-8347
▁상관없이	-8348
18	-8349
요한	-8350
▁귀여	-8351
▁기금	-8352
▁무선	-8353
▁발을	-8354
▁서부	-8355
▁일할	-8356
▁점포	-8357
▁파손	-8358
성으로	-8359
▁대출을	-8360
▁어렵게	-8361
▁있어도	-8362
▁협의를	-8363
▁원합니다	-8364
▁예정이라고	-8365
om	-8366
▁윌	-8367
박한	-8368
▁다채	-8369
▁선두	-8370
▁세포	-8371
▁이송	-8372
▁적혀	-8373
▁전인	-8374
▁헬스	-8375
태평양	-8376
▁게스트	-8377
▁부상을	-8378
▁안타깝	-8379
▁국민들이	-8380
▁선호하는	-8381
▁업체들이	-8382
es	-8383
놀이	-8384
▁산정	-8385
▁상영	-8386
▁줄일	-8387
▁나누고	-8388
▁도착한	-8389
▁발표를	-8390
▁전체가	-8391
▁영업이익	-8392
▁이벤트를	-8393
▁대법원장이	-8394
물과	-8395
우의	-8396
▁고장	-8397
▁박성	-8398
▁업그	-8399
▁외환	-8400
▁저번	-8401
▁말씀을	-8402
▁추천해	-8403
리포니아	-8404
▁집중되고	-8405
▁모르겠어요	-8406
직원	-8407
(19	-8408
▁발부	-8409
국으로	-8410
▁경제에	-8411
▁못하게	-8412
▁인상이	-8413
▁차량에	-8414
▁확인을	-8415
▁훌륭한	-8416
▁5,000	-8417
▁삼성바이오로직	-8418
▁옹	-8419
사용	-8420
▁막판	-8421
▁명령	-8422
▁스프	-8423
▁조리	-8424
▁천천	-8425
▁설명을	-8426
▁손가락	-8427
▁국방부는	-8428
▁이어가고	-8429
둥이	-8430
부담	-8431
▁날아	-8432
▁상응	-8433
▁시위	-8434
▁접목	-8435
▁학원	-8436
치면서	-8437
▁모습은	-8438
▁요구하고	-8439
TO	-8440
▁밸	-8441
선과	-8442
▁강서	-8443
▁넣고	-8444
▁응시	-8445
▁정한	-8446
▁많다는	-8447
▁비용은	-8448
▁서울과	-8449
▁잡았다	-8450
▁지원하고	-8451
정신	-8452
▁도달	-8453
▁문학	-8454
▁뭔가	-8455
▁싱글	-8456
▁없던	-8457
▁주제	-8458
▁해줄	-8459
렸다고	-8460
셨나요	-8461
▁대화가	-8462
▁문화가	-8463
위원회에	-8464
▁배경으로	-8465
▁젖	-8466
사태	-8467
잡고	-8468
주지	-8469
▁구직	-8470
▁사흘	-8471
▁재배	-8472
▁중재	-8473
▁250	-8474
▁것들을	-8475
▁불편한	-8476
▁상당의	-8477
▁아이의	-8478
▁올바른	-8479
▁제안한	-8480
▁천천히	-8481
▁힘입어	-8482
과정에서	-8483
▁학생들을	-8484
트와	-8485
▁김대	-8486
▁맞대	-8487
▁언젠	-8488
▁코너	-8489
▁했어	-8490
▁내용에	-8491
▁두드러	-8492
▁성희롱	-8493
▁인근에	-8494
▁전체의	-8495
▁아이들의	-8496
▁이뤄지는	-8497
면적	-8498
병을	-8499
비리	-8500
크로	-8501
▁감동	-8502
▁경유	-8503
▁언니	-8504
▁용의	-8505
▁인적	-8506
▁꼽히는	-8507
▁처분을	-8508
▁비핵화를	-8509
LED	-8510
▁54	-8511
▁검거	-8512
▁금방	-8513
▁마사	-8514
▁무언	-8515
▁봐도	-8516
▁일치	-8517
▁황교	-8518
업체가	-8519
▁수업이	-8520
▁이슬람	-8521
▁장기간	-8522
▁금감원은	-8523
▁발생하고	-8524
▁제시했다	-8525
▁요양	-8526
▁이자	-8527
▁푸틴	-8528
기관의	-8529
었으면	-8530
▁유지할	-8531
무가	-8532
▁남쪽	-8533
▁단어	-8534
▁분산	-8535
▁좋고	-8536
▁프랜	-8537
키스탄	-8538
▁인구가	-8539
▁알겠습니다	-8540
▁중요하다고	-8541
▁거두	-8542
▁널리	-8543
▁증폭	-8544
에게도	-8545
▁누군가	-8546
▁세미나	-8547
▁소득이	-8548
▁있었어	-8549
▁취하고	-8550
▁스트레스를	-8551
▁전문가들이	-8552
▁착공	-8553
▁경쟁을	-8554
▁공연이	-8555
▁생태계	-8556
▁역사적	-8557
▁준비해	-8558
·3	-8559
년과	-8560
비의	-8561
소통	-8562
▁구멍	-8563
▁배울	-8564
▁인쇄	-8565
▁주소	-8566
렸지만	-8567
▁같네요	-8568
▁동아리	-8569
▁리더십	-8570
▁여부에	-8571
▁행정부	-8572
▁기록하며	-8573
여름	-8574
위험	-8575
전시	-8576
▁대장	-8577
▁몰래	-8578
▁무사	-8579
▁바닷	-8580
▁삶이	-8581
▁영원	-8582
▁임종	-8583
▁개정안	-8584
▁고통을	-8585
▁지분을	-8586
보장	-8587
▁AP	-8588
▁세무	-8589
▁오리	-8590
▁바라요	-8591
▁세상에	-8592
▁얼굴이	-8593
▁하거나	-8594
▁일본에서	-8595
▁햄	-8596
기반	-8597
당과	-8598
▁양산	-8599
▁열차	-8600
▁일회	-8601
▁측에	-8602
▁후배	-8603
▁강화를	-8604
▁김동연	-8605
▁서로를	-8606
▁크다는	-8607
▁할게요	-8608
▁층	-8609
▁횟	-8610
랭킹	-8611
임스	-8612
▁근데	-8613
▁안방	-8614
▁오고	-8615
▁철회	-8616
▁태극	-8617
자리에	-8618
▁저한테	-8619
▁행위가	-8620
▁이름으로	-8621
나의	-8622
렘방	-8623
부채	-8624
▁감당	-8625
▁신년	-8626
색으로	-8627
화되고	-8628
▁높이기	-8629
▁불만이	-8630
▁연기가	-8631
▁파일을	-8632
국제공항	-8633
▁행사에는	-8634
▁깎	-8635
▁팩	-8636
곳에	-8637
국과	-8638
보수	-8639
▁김부	-8640
▁뿌리	-8641
▁상속	-8642
▁중반	-8643
됐으나	-8644
▁연구를	-8645
▁오후에	-8646
▁초콜릿	-8647
▁쇄	-8648
감에	-8649
대구	-8650
보기	-8651
췄다	-8652
사들은	-8653
▁자신에게	-8654
있어	-8655
▁다들	-8656
선에서	-8657
역으로	-8658
▁고개를	-8659
▁일본은	-8660
▁했으나	-8661
▁주시겠어요	-8662
청년	-8663
현실	-8664
▁고등	-8665
▁굳이	-8666
▁눈빛	-8667
▁당내	-8668
▁상환	-8669
자들과	-8670
▁그곳에	-8671
▁들어와	-8672
▁사정이	-8673
▁우려도	-8674
▁청와대는	-8675
사카	-8676
핑크	-8677
▁FA	-8678
▁가난	-8679
▁든다	-8680
▁집이	-8681
▁사업이다	-8682
▁무엇인가요	-8683
is	-8684
나와	-8685
바다	-8686
▁관할	-8687
▁명품	-8688
방안을	-8689
▁25%	-8690
▁상처를	-8691
▁싶어서	-8692
▁의원을	-8693
▁슛	-8694
여명	-8695
이한	-8696
찬을	-8697
플릭	-8698
▁끝날	-8699
▁낙태	-8700
▁법조	-8701
▁타는	-8702
▁구조를	-8703
▁나타났	-8704
▁만나고	-8705
▁수준에	-8706
▁경기도는	-8707
▁제기했다	-8708
▁필요성을	-8709
엑스	-8710
▁남측	-8711
▁독점	-8712
▁밀집	-8713
▁일도	-8714
▁저질	-8715
▁트럭	-8716
▁항목	-8717
부에서	-8718
▁똑같은	-8719
▁먹으면	-8720
▁모은다	-8721
▁요리를	-8722
▁위하여	-8723
▁줄이는	-8724
▁유지하고	-8725
▁캘리포니아	-8726
고사	-8727
공헌	-8728
더블	-8729
인력	-8730
TBC	-8731
▁송치	-8732
▁남편이	-8733
▁보여주고	-8734
람회	-8735
본을	-8736
성도	-8737
체제	-8738
▁남양	-8739
▁뭐가	-8740
▁육군	-8741
▁탈출	-8742
▁모른다	-8743
▁방문할	-8744
▁유리한	-8745
▁마음으로	-8746
▁어렵습니다	-8747
MC	-8748
▁갚	-8749
▁엿	-8750
공공	-8751
만은	-8752
법과	-8753
▁기성	-8754
▁무인	-8755
▁치솟	-8756
교육을	-8757
▁마련해	-8758
▁고객들이	-8759
조한	-8760
항을	-8761
▁대여	-8762
▁역전	-8763
▁청탁	-8764
▁허리	-8765
였다는	-8766
▁성공한	-8767
▁정치권	-8768
▁제안했다	-8769
▁개그	-8770
▁돼서	-8771
느냐는	-8772
음으로	-8773
테이너	-8774
▁KBO	-8775
▁너한테	-8776
▁대법관	-8777
▁학교를	-8778
▁화제가	-8779
▁살펴보면	-8780
▁이뤄지고	-8781
ha	-8782
촛불	-8783
퇴근	-8784
▁모자	-8785
▁뮤직	-8786
▁결정할	-8787
▁구체적	-8788
▁들여다	-8789
▁사항을	-8790
▁일어날	-8791
▁하나인	-8792
사실	-8793
▁간에	-8794
광역시	-8795
▁권한을	-8796
▁이후에도	-8797
실히	-8798
지주	-8799
▁기숙	-8800
▁물가	-8801
▁상처	-8802
▁사무실	-8803
▁실력을	-8804
▁줄이고	-8805
▁하나도	-8806
방의	-8807
복무	-8808
통화	-8809
▁파는	-8810
▁각각의	-8811
▁감소한	-8812
▁되는지	-8813
▁벌였다	-8814
▁손님이	-8815
▁진출을	-8816
▁후에는	-8817
▁펼쳐진다	-8818
▁곰	-8819
경원	-8820
고의	-8821
셔널	-8822
▁각별	-8823
▁박스	-8824
▁흥행	-8825
▁가까워	-8826
▁괜찮을	-8827
▁규모는	-8828
▁목사가	-8829
▁저지른	-8830
▁관리하는	-8831
▁디자인을	-8832
▁페스티벌	-8833
▁골든	-8834
▁이로	-8835
▁호기	-8836
텔레콤	-8837
▁고민이	-8838
▁근거가	-8839
▁느끼고	-8840
▁비디오	-8841
고등학교	-8842
▁잉글랜드	-8843
금과	-8844
신용	-8845
이닝	-8846
치와	-8847
▁원정	-8848
▁자사	-8849
▁정밀	-8850
▁다음날	-8851
▁상품은	-8852
▁제공해	-8853
▁지지를	-8854
▁하나님이	-8855
▁홈페이지	-8856
▁우리나라의	-8857
45	-8858
OC	-8859
▁뽐	-8860
보며	-8861
졌기	-8862
▁고가	-8863
▁총장	-8864
▁노조가	-8865
▁정해진	-8866
▁지원해	-8867
▁참여하고	-8868
▁초등학생	-8869
기자	-8870
▁어릴	-8871
▁포인	-8872
▁못하면	-8873
▁보도에	-8874
▁산업의	-8875
▁중이에요	-8876
겨진	-8877
규제	-8878
대행	-8879
상승	-8880
정지	-8881
▁다리	-8882
님께서	-8883
으려고	-8884
통신은	-8885
▁공급이	-8886
▁그녀를	-8887
▁남자는	-8888
▁단순한	-8889
▁무역협	-8890
▁의정부	-8891
▁트레이	-8892
▁선보인다	-8893
▁주장하고	-8894
▁필요성이	-8895
PS	-8896
▁픽	-8897
축산	-8898
▁PD	-8899
▁리콜	-8900
▁차로	-8901
들었다	-8902
▁들어선	-8903
▁많아요	-8904
▁피아노	-8905
▁이들에게	-8906
▁불확실성이	-8907
버트	-8908
석에	-8909
▁붙여	-8910
▁지낸	-8911
갑니다	-8912
▁마찬가지	-8913
▁손흥민이	-8914
▁페이스북에	-8915
▁맘	-8916
뉴얼	-8917
스피	-8918
체로	-8919
▁57	-8920
▁자택	-8921
▁직권	-8922
▁가방을	-8923
▁관람객	-8924
▁대학에	-8925
징용	-8926
▁식약	-8927
▁알지	-8928
▁약을	-8929
▁유예	-8930
▁전격	-8931
▁종일	-8932
▁걸리는	-8933
▁대책이	-8934
▁알리는	-8935
▁유가족	-8936
▁이해찬	-8937
▁작품이	-8938
▁견적	-8939
▁경력	-8940
▁재직	-8941
▁첫째	-8942
▁캠페	-8943
▁높아질	-8944
▁대표를	-8945
▁많은데	-8946
▁분석을	-8947
▁사회에	-8948
▁승인을	-8949
▁안전을	-8950
열이	-8951
▁복용	-8952
▁분당	-8953
▁편입	-8954
트에서	-8955
▁가족을	-8956
▁막대한	-8957
▁성장이	-8958
▁솔루션	-8959
▁영화의	-8960
▁처벌을	-8961
▁펼치고	-8962
▁필요로	-8963
▁후보자	-8964
▁강화하고	-8965
▁다하겠다	-8966
37	-8967
MS	-8968
oT	-8969
에스	-8970
▁상반	-8971
▁180	-8972
▁블라디	-8973
▁비타민	-8974
▁포스터	-8975
▁부회장이	-8976
님은	-8977
▁개척	-8978
▁깔끔	-8979
▁문서	-8980
▁성분	-8981
▁우편	-8982
▁잠실	-8983
▁혐오	-8984
▁시설을	-8985
▁바라보는	-8986
카페	-8987
▁거친	-8988
▁귀가	-8989
▁농림	-8990
▁늦은	-8991
▁양쪽	-8992
금으로	-8993
드리고	-8994
산업의	-8995
▁언제쯤	-8996
▁생각하지	-8997
▁입장에서는	-8998
공유	-8999
됐기	-9000
조에	-9001
▁56	-9002
▁결렬	-9003
▁고속	-9004
▁동북	-9005
▁신축	-9006
▁앞당	-9007
▁중기	-9008
라인을	-9009
했다며	-9010
▁메시지	-9011
▁문제와	-9012
▁샘플을	-9013
▁적합한	-9014
▁예상보다	-9015
▁완벽하게	-9016
▁프랜차이즈	-9017
▁감사하겠습니다	-9018
켰다	-9019
▁내륙	-9020
▁예쁜	-9021
▁정류	-9022
▁조짐	-9023
▁체류	-9024
▁가득한	-9025
▁가족의	-9026
▁기여할	-9027
▁됐다고	-9028
▁수요일	-9029
▁담당하는	-9030
▁대목이다	-9031
▁대회에서	-9032
▁일반적인	-9033
MO	-9034
▁섹	-9035
치기	-9036
▁심해	-9037
▁영하	-9038
▁파워	-9039
▁계열사	-9040
▁봅니다	-9041
▁소감을	-9042
▁한국어	-9043
▁경제협력	-9044
▁몫	-9045
비전	-9046
실험	-9047
히지	-9048
▁될지	-9049
▁아픔	-9050
▁야간	-9051
▁해고	-9052
▁고려할	-9053
▁떨어질	-9054
▁서로의	-9055
▁주소를	-9056
▁들었어요	-9057
▁제기되고	-9058
대전	-9059
미의	-9060
진에	-9061
▁59	-9062
▁답답	-9063
▁유관	-9064
▁지향	-9065
▁합쳐	-9066
▁보냈다	-9067
▁전국에서	-9068
▁서울중앙지법	-9069
로로	-9070
편의	-9071
▁김의	-9072
▁마땅	-9073
▁우린	-9074
들이다	-9075
정보를	-9076
▁나타날	-9077
▁노조는	-9078
▁친구는	-9079
▁타격을	-9080
▁관광객이	-9081
▁얽	-9082
등이	-9083
▁나지	-9084
▁속초	-9085
▁용역	-9086
▁진전	-9087
▁건물이	-9088
▁금감원	-9089
▁박원순	-9090
▁특성을	-9091
▁항공기	-9092
▁강화하는	-9093
▁듀	-9094
경북	-9095
살이	-9096
훈이	-9097
▁간접	-9098
▁고도	-9099
▁맞물	-9100
▁위법	-9101
▁출하	-9102
▁특례	-9103
▁하드	-9104
▁한쪽	-9105
의약품	-9106
지역의	-9107
▁위험한	-9108
▁진행해	-9109
▁키우는	-9110
TF	-9111
▁엠	-9112
쾌한	-9113
▁뷰티	-9114
▁질의	-9115
동조합	-9116
셨어요	-9117
▁경제를	-9118
▁넘어서	-9119
▁메모리	-9120
▁발언이	-9121
▁분석해	-9122
▁어르신	-9123
▁이상인	-9124
▁장비를	-9125
▁확인이	-9126
▁기자간담	-9127
▁시작하는	-9128
▁프로그램은	-9129
냐고	-9130
호와	-9131
▁요인	-9132
과장은	-9133
▁어려움	-9134
▁언론에	-9135
▁일본에	-9136
▁작가가	-9137
▁지속될	-9138
▁커피를	-9139
▁추구하는	-9140
▁아이디어를	-9141
▁기자회견에서	-9142
▁53	-9143
▁거대	-9144
▁불참	-9145
하셔야	-9146
▁관리에	-9147
▁기사를	-9148
▁끝나는	-9149
▁사업자	-9150
▁긍정적으로	-9151
▁사립유치원	-9152
▁멸	-9153
디션	-9154
로에	-9155
아트	-9156
▁75	-9157
▁까다	-9158
▁말도	-9159
▁조세	-9160
▁못해서	-9161
▁받으며	-9162
▁상황은	-9163
▁태어나	-9164
▁후보를	-9165
▁선생님이	-9166
▁웹사이트	-9167
연의	-9168
점의	-9169
증은	-9170
800	-9171
▁감상	-9172
▁국외	-9173
▁남용	-9174
▁대대	-9175
▁르노	-9176
▁수혜	-9177
▁이겨	-9178
▁이종	-9179
▁노트북	-9180
▁대표이	-9181
▁바꾸는	-9182
▁방침을	-9183
▁보험료	-9184
▁북한을	-9185
▁성격이	-9186
▁영화가	-9187
▁있기를	-9188
▁스트레스	-9189
▁가능하다는	-9190
▁텍	-9191
속에	-9192
즈는	-9193
▁레드	-9194
▁분담	-9195
사고가	-9196
▁교회가	-9197
▁끊이지	-9198
▁아래와	-9199
▁여자가	-9200
▁왔는데	-9201
▁일으킨	-9202
▁중이던	-9203
▁비례대표	-9204
▁융	-9205
독립	-9206
로도	-9207
로워	-9208
▁동시	-9209
▁불투	-9210
▁생성	-9211
▁지주	-9212
▁포르	-9213
계약을	-9214
▁구매한	-9215
▁라디오	-9216
▁말하고	-9217
▁번호를	-9218
▁스티븐	-9219
▁학생의	-9220
투자증권	-9221
▁추진한다	-9222
러리	-9223
레인	-9224
보에	-9225
프리	-9226
화해	-9227
▁미루	-9228
▁본사	-9229
▁분기	-9230
▁생생	-9231
▁유착	-9232
▁치고	-9233
▁커진	-9234
▁개인이	-9235
▁수험생	-9236
▁주민이	-9237
▁판매를	-9238
▁확대하고	-9239
26	-9240
SA	-9241
금지	-9242
학자	-9243
▁이성	-9244
▁채무	-9245
▁회신	-9246
베이터	-9247
사무소	-9248
▁메일로	-9249
▁않았을	-9250
▁이슈가	-9251
▁교육부는	-9252
▁주목받고	-9253
▁씻	-9254
풍을	-9255
▁괴롭	-9256
▁대륙	-9257
▁장식	-9258
▁진실	-9259
▁법원은	-9260
▁제도다	-9261
▁희망을	-9262
▁대법원장	-9263
▁사회공헌	-9264
▁이메일을	-9265
▁애플리케이션	-9266
ro	-9267
이와	-9268
피아	-9269
▁보행	-9270
▁중도	-9271
▁처방	-9272
는지를	-9273
임에도	-9274
▁기업인	-9275
▁남자친구	-9276
▁도시재생	-9277
▁탄력근로	-9278
게도	-9279
레일	-9280
▁공중	-9281
▁아웃	-9282
▁원의	-9283
▁인류	-9284
▁제어	-9285
▁토로	-9286
▁90%	-9287
▁공격을	-9288
▁이용자	-9289
▁팬들이	-9290
▁황교안	-9291
▁원천	-9292
▁자고	-9293
▁지어	-9294
▁집회	-9295
렸다는	-9296
어린이	-9297
▁만나서	-9298
▁사진과	-9299
▁설립한	-9300
▁운영을	-9301
▁취업자	-9302
▁부총리는	-9303
▁성공했다	-9304
▁자신들의	-9305
미디	-9306
시한	-9307
▁수령	-9308
▁억제	-9309
▁오늘날	-9310
▁우리나	-9311
▁확인된	-9312
더라고요	-9313
▁국토부는	-9314
▁동영상을	-9315
▁유지하는	-9316
▁중간선거	-9317
am	-9318
il	-9319
기사	-9320
저가	-9321
▁거라	-9322
▁과일	-9323
▁범위	-9324
▁봐요	-9325
▁살짝	-9326
▁인형	-9327
▁조처	-9328
▁존경	-9329
▁중견	-9330
▁국무부	-9331
▁금강산	-9332
▁서둘러	-9333
▁올해도	-9334
▁제안을	-9335
▁갇	-9336
기소	-9337
아리	-9338
풀이	-9339
▁나쁘	-9340
▁동부	-9341
▁만료	-9342
▁앱을	-9343
▁양의	-9344
▁지은	-9345
일랜드	-9346
제품을	-9347
팔렘방	-9348
▁내리고	-9349
▁베스트	-9350
▁신흥국	-9351
▁오사카	-9352
▁차이를	-9353
▁프로세	-9354
▁가족들이	-9355
방안	-9356
우스	-9357
진한	-9358
▁성도	-9359
▁진지	-9360
디자인	-9361
아파트	-9362
▁위험을	-9363
▁취지로	-9364
▁떨어졌다	-9365
▁주십시오	-9366
례가	-9367
미니	-9368
피를	-9369
▁나랑	-9370
▁노회	-9371
▁미드	-9372
▁병행	-9373
▁주된	-9374
▁지능	-9375
▁휴식	-9376
▁배우는	-9377
▁캠페인	-9378
▁최고위원	-9379
▁감사드립니다	-9380
▁정상회담에서	-9381
게는	-9382
캐피	-9383
▁기차	-9384
▁놀러	-9385
▁달콤	-9386
▁창조	-9387
▁한달	-9388
진흥원	-9389
콘텐츠	-9390
트럼프	-9391
▁경찰관	-9392
▁하도록	-9393
▁JTBC	-9394
▁내용이다	-9395
▁붙잡혔다	-9396
▁이해하고	-9397
▁인터뷰를	-9398
28	-9399
계층	-9400
현은	-9401
▁과세	-9402
▁규명	-9403
▁대결	-9404
▁이론	-9405
▁현역	-9406
▁흡연	-9407
▁그들을	-9408
▁찾았다	-9409
▁앞으로는	-9410
▁언제든지	-9411
▁챔피언스리그	-9412
황이	-9413
▁관절	-9414
▁다를	-9415
▁답을	-9416
▁대략	-9417
▁의류	-9418
▁입어	-9419
▁잠정	-9420
▁타당	-9421
▁파업	-9422
▁금융권	-9423
▁넷플릭	-9424
▁정도다	-9425
▁공기청정	-9426
▁처음에는	-9427
시청	-9428
역사	-9429
▁너도	-9430
▁당뇨	-9431
▁발라	-9432
▁선을	-9433
▁신생	-9434
▁플래	-9435
납니다	-9436
포인트	-9437
▁건강에	-9438
▁늘면서	-9439
▁사라진	-9440
▁환경부	-9441
▁국산	-9442
▁보편	-9443
▁부러	-9444
▁외면	-9445
▁회수	-9446
▁것이며	-9447
▁높아진	-9448
▁늘리는	-9449
▁받으면	-9450
▁오늘도	-9451
▁증가할	-9452
▁회담을	-9453
▁영향력을	-9454
▁알려지면서	-9455
그래	-9456
일지	-9457
준의	-9458
▁발병	-9459
▁수습	-9460
거리를	-9461
지역에	-9462
▁나라가	-9463
▁시간과	-9464
▁판단해	-9465
▁문화예술	-9466
▁밝혀졌다	-9467
▁시나리오	-9468
▁선고받았다	-9469
▁업계에서는	-9470
48	-9471
∼7	-9472
주인	-9473
현의	-9474
▁개를	-9475
▁걸고	-9476
▁네덜	-9477
▁동성	-9478
▁상습	-9479
▁수시	-9480
▁장벽	-9481
▁쪽은	-9482
드라마	-9483
문재인	-9484
▁60%	-9485
▁폭으로	-9486
▁2002	-9487
센트	-9488
재정	-9489
▁58	-9490
▁과기	-9491
▁매운	-9492
▁스파	-9493
▁장을	-9494
▁책이	-9495
가들이	-9496
었으며	-9497
▁분석도	-9498
▁상태에	-9499
▁자금이	-9500
▁정도는	-9501
고속도로	-9502
▁쇠	-9503
디아	-9504
마크	-9505
바람	-9506
주실	-9507
▁강도	-9508
에서만	-9509
▁과제를	-9510
▁광고를	-9511
▁본인의	-9512
▁택시를	-9513
▁호텔에	-9514
▁확대될	-9515
▁갔습니다	-9516
계와	-9517
자나	-9518
▁속에는	-9519
▁의원과	-9520
▁일종의	-9521
▁장소를	-9522
▁주장한	-9523
▁거주하는	-9524
▁것이었다	-9525
▁다채로운	-9526
▁시스템이	-9527
▁오피스텔	-9528
▁프리미어	-9529
ID	-9530
▁X	-9531
지표	-9532
▁유독	-9533
▁감사를	-9534
▁승리가	-9535
과학기술	-9536
▁아이들은	-9537
▁확인하는	-9538
▁민주평화당	-9539
곳의	-9540
주차	-9541
▁심판	-9542
▁여동	-9543
▁추후	-9544
▁타결	-9545
▁후회	-9546
자마자	-9547
▁뚜렷한	-9548
▁시대가	-9549
▁어때요	-9550
▁위치를	-9551
▁사업으로	-9552
투어	-9553
▁겪은	-9554
▁명을	-9555
▁반환	-9556
▁분실	-9557
▁커버	-9558
▁현안	-9559
만명을	-9560
▁공정위	-9561
▁이어지	-9562
▁최우수	-9563
▁사람들과	-9564
▁선보이는	-9565
▁말했습니다	-9566
27	-9567
▁찰	-9568
막을	-9569
▁김명	-9570
▁소폭	-9571
▁양도	-9572
▁유료	-9573
▁장악	-9574
▁줄을	-9575
메이션	-9576
부동산	-9577
▁개발이	-9578
▁기술과	-9579
▁불평등	-9580
▁자녀가	-9581
▁전문가가	-9582
▁컨테이너	-9583
OS	-9584
경에	-9585
재난	-9586
책이	-9587
학기	-9588
▁51	-9589
▁교도	-9590
▁국채	-9591
▁준수	-9592
▁지루	-9593
▁화성	-9594
협회가	-9595
▁과거사	-9596
▁넘겨진	-9597
▁사회를	-9598
▁생겼다	-9599
▁쏠린다	-9600
▁어우러	-9601
▁항소심	-9602
ay	-9603
님께	-9604
▁계정	-9605
▁단말	-9606
▁본부	-9607
▁제로	-9608
▁다음과	-9609
▁라이브	-9610
▁바이어	-9611
▁염두에	-9612
▁자리매	-9613
▁나타나고	-9614
▁월요일에	-9615
권도	-9616
씨에	-9617
▁매월	-9618
▁신조	-9619
▁흔히	-9620
작업을	-9621
층에서	-9622
▁나오면	-9623
▁이목을	-9624
▁투입해	-9625
▁합니까	-9626
▁자리매김	-9627
▁지역으로	-9628
▁추정된다	-9629
▁턱	-9630
누리	-9631
▁미용	-9632
▁발매	-9633
▁부산의	-9634
▁스타벅	-9635
▁어렸을	-9636
▁그렇군요	-9637
▁받았다고	-9638
2,	-9639
골프	-9640
당에	-9641
디가	-9642
면의	-9643
성년	-9644
심과	-9645
입을	-9646
▁놓여	-9647
▁도덕	-9648
▁로스	-9649
▁소극	-9650
페이스	-9651
▁법원의	-9652
▁피부에	-9653
▁금메달을	-9654
▁여성들이	-9655
▁지역경제	-9656
동강	-9657
법의	-9658
인구	-9659
▁걸로	-9660
▁바쁜	-9661
▁북핵	-9662
▁상의	-9663
▁상향	-9664
▁연애	-9665
▁오빠	-9666
▁윤리	-9667
▁해변	-9668
사업은	-9669
▁800	-9670
▁계약이	-9671
▁정책의	-9672
▁지내고	-9673
▁판정을	-9674
▁휴식을	-9675
▁방문하는	-9676
▁벌어졌다	-9677
▁일환으로	-9678
러가	-9679
봐도	-9680
장도	-9681
▁실정	-9682
▁옛날	-9683
▁주방	-9684
국장은	-9685
▁남아있	-9686
▁전체를	-9687
▁비상대책	-9688
▁위원장과	-9689
23	-9690
리라	-9691
이게	-9692
황을	-9693
▁매도	-9694
▁박사	-9695
▁일로	-9696
▁한꺼	-9697
▁호남	-9698
▁교육이	-9699
▁기반을	-9700
▁숨지고	-9701
▁화장실	-9702
▁신속하게	-9703
밀히	-9704
▁빛을	-9705
▁올릴	-9706
▁입사	-9707
▁있겠	-9708
산화탄	-9709
시킨다	-9710
▁고양시	-9711
▁출신의	-9712
▁태어난	-9713
▁강제징용	-9714
▁기본적인	-9715
기만	-9716
작업	-9717
팅을	-9718
▁강동	-9719
▁깊어	-9720
▁돼지	-9721
▁영세	-9722
▁환전	-9723
백화점	-9724
▁갔어요	-9725
▁결정에	-9726
▁알려줄	-9727
▁언제든	-9728
▁협상에	-9729
▁환경에	-9730
▁가격으로	-9731
▁개정안이	-9732
▁분위기다	-9733
▁집중적으로	-9734
보지	-9735
아동	-9736
오프	-9737
인천	-9738
▁수를	-9739
▁야생	-9740
▁참사	-9741
스러워	-9742
시하는	-9743
하우스	-9744
▁사람도	-9745
▁성공을	-9746
▁정말로	-9747
▁총리의	-9748
계열	-9749
들고	-9750
▁길에	-9751
▁단백	-9752
▁민선	-9753
▁상고	-9754
▁약한	-9755
▁주축	-9756
▁쪽에	-9757
▁패배	-9758
그룹의	-9759
본부는	-9760
▁결과로	-9761
▁모델이	-9762
▁않았어	-9763
▁이어져	-9764
▁해외에서	-9765
▁때문이라고	-9766
▁끓	-9767
▁퓨	-9768
▁가리	-9769
▁공존	-9770
플러스	-9771
▁그쳤다	-9772
▁대상을	-9773
▁인원이	-9774
에서부터	-9775
▁한국당이	-9776
▁한국에서는	-9777
MA	-9778
균형	-9779
되던	-9780
브리	-9781
카데	-9782
▁골드	-9783
▁국군	-9784
▁김치	-9785
▁이낙	-9786
하네요	-9787
▁규모를	-9788
▁나누는	-9789
▁발표할	-9790
▁시행령	-9791
▁업체에	-9792
▁인물이	-9793
교육청이	-9794
▁닦	-9795
▁쉴	-9796
▁캡	-9797
막이	-9798
석과	-9799
외교	-9800
우를	-9801
해지	-9802
▁거둔	-9803
▁대가	-9804
▁실용	-9805
▁재차	-9806
▁휴게	-9807
주시고	-9808
▁교사가	-9809
▁교육청	-9810
▁대구시	-9811
▁성매매	-9812
▁세계의	-9813
▁숨졌다	-9814
▁한꺼번에	-9815
ch	-9816
다리	-9817
일으	-9818
주얼	-9819
▁5%	-9820
▁구경	-9821
▁녹색	-9822
▁아나	-9823
▁잡는	-9824
▁제휴	-9825
▁콜라	-9826
▁한일	-9827
▁해가	-9828
▁재개발	-9829
▁줄이기	-9830
▁프로모	-9831
▁개성공단	-9832
▁공시가격	-9833
▁확인해보	-9834
그러	-9835
▁관중	-9836
▁볼턴	-9837
▁사각	-9838
▁사물	-9839
▁시세	-9840
▁식물	-9841
▁의지	-9842
드려요	-9843
▁가족은	-9844
▁시점에	-9845
▁직원을	-9846
▁흐름이	-9847
나갈	-9848
버거	-9849
산의	-9850
셀로	-9851
재의	-9852
취업	-9853
학이	-9854
▁박지	-9855
▁안고	-9856
▁여는	-9857
공무원	-9858
메리카	-9859
명에게	-9860
▁고마워	-9861
▁문건을	-9862
▁사랑의	-9863
▁서대문	-9864
▁이낙연	-9865
▁2004	-9866
▁그곳에서	-9867
▁3,000	-9868
TS	-9869
드럽	-9870
수익	-9871
원장	-9872
하의	-9873
▁김혜	-9874
▁명칭	-9875
▁아랍	-9876
▁의문	-9877
▁하위	-9878
▁목적이	-9879
▁범위를	-9880
▁실력이	-9881
▁중국인	-9882
▁중장기	-9883
▁안정적으로	-9884
▁룸	-9885
가치	-9886
우지	-9887
▁교착	-9888
▁비닐	-9889
▁상세	-9890
▁애니	-9891
였다고	-9892
일자리	-9893
▁얘기가	-9894
▁활약을	-9895
▁모양새다	-9896
▁재미있는	-9897
유총	-9898
▁김광	-9899
▁멈춰	-9900
▁배운	-9901
▁삼아	-9902
▁수거	-9903
▁좋게	-9904
▁혈액	-9905
레이션	-9906
▁내려가	-9907
▁일으키	-9908
▁잠시만	-9909
▁그녀에게	-9910
▁아이스크	-9911
▁진단했다	-9912
농구	-9913
400	-9914
▁수의	-9915
▁아끼	-9916
▁철수	-9917
기간을	-9918
▁김의겸	-9919
▁맞나요	-9920
▁상담을	-9921
▁수사권	-9922
▁인생을	-9923
▁지나면	-9924
▁선보였다	-9925
▁업그레이드	-9926
▁단행	-9927
▁로그	-9928
▁명백	-9929
▁봤을	-9930
▁속속	-9931
▁열쇠	-9932
▁인턴	-9933
▁출생	-9934
▁공동체	-9935
▁꼽았다	-9936
▁시원한	-9937
차전에서	-9938
▁부드러운	-9939
▁부상으로	-9940
▁중에서도	-9941
TE	-9942
▁핫	-9943
수당	-9944
전선	-9945
▁것인	-9946
▁성수	-9947
▁소중	-9948
앞으로	-9949
질랜드	-9950
▁부드럽	-9951
▁산업이	-9952
▁추세다	-9953
▁나옵니다	-9954
▁못했어요	-9955
▁살아가는	-9956
▁플랫폼을	-9957
위원회에서	-9958
▁베네수엘라	-9959
-3	-9960
방향	-9961
▁68	-9962
▁끝났	-9963
▁맞춘	-9964
▁방이	-9965
▁가벼운	-9966
▁걸렸다	-9967
▁문화재	-9968
▁송파구	-9969
▁유전자	-9970
▁회담이	-9971
▁경고했다	-9972
▁남북관계	-9973
라운	-9974
미터	-9975
주간	-9976
▁공군	-9977
▁남지	-9978
▁실수	-9979
▁악용	-9980
▁조종	-9981
▁표를	-9982
거래가	-9983
▁195	-9984
▁귀사의	-9985
▁드디어	-9986
▁많았고	-9987
▁포스트	-9988
▁관련해서	-9989
위인	-9990
유공	-9991
▁사후	-9992
▁쌓아	-9993
▁잡을	-9994
▁집안	-9995
▁촛불	-9996
글로벌	-9997
효과가	-9998
▁경우에	-9999
▁운전자	-10000
▁혁신을	-10001
미세먼지	-10002
▁사건으로	-10003
▁인테리어	-10004
▁궁금합니다	-10005
▁실시간으로	-10006
광주	-10007
금의	-10008
데스	-10009
취를	-10010
▁농구	-10011
▁멘토	-10012
▁전방	-10013
렸는데	-10014
▁냄새가	-10015
▁병원을	-10016
▁아이들	-10017
▁여름철	-10018
▁위안부	-10019
▁교육부가	-10020
▁불러일으	-10021
▁직원들의	-10022
▁직접적인	-10023
▁행정부가	-10024
▁노력하겠다	-10025
▁중요합니다	-10026
▁짝	-10027
롭고	-10028
집에	-10029
하되	-10030
▁신약	-10031
▁온도	-10032
▁우유	-10033
▁원이	-10034
▁자제	-10035
▁참모	-10036
대통령	-10037
▁나경원	-10038
▁손으로	-10039
▁시설이	-10040
▁걱정하지	-10041
▁주최하고	-10042
▁줄어드는	-10043
▁프로그램에	-10044
▁따져	-10045
▁만성	-10046
▁써야	-10047
▁유가	-10048
▁장병	-10049
▁포괄	-10050
▁한가	-10051
▁한은	-10052
▁정황을	-10053
▁중국산	-10054
▁어머니가	-10055
▁넉	-10056
교사	-10057
▁만만	-10058
▁억울	-10059
▁완공	-10060
▁잘하는	-10061
▁조합원	-10062
▁증거가	-10063
▁학교가	-10064
▁한동안	-10065
네트워크	-10066
(0	-10067
대응	-10068
ent	-10069
▁멀티	-10070
▁비자	-10071
▁출간	-10072
▁코치	-10073
▁거짓말	-10074
▁마이너	-10075
▁명확히	-10076
▁싶다는	-10077
▁오전에	-10078
▁이상한	-10079
▁해수욕	-10080
▁경쟁력이	-10081
▁공정위는	-10082
▁서비스는	-10083
▁인천공항	-10084
▁일어나는	-10085
▁합리적인	-10086
▁활용하는	-10087
재해	-10088
치면	-10089
▁돼야	-10090
▁마라	-10091
▁살려	-10092
▁속한	-10093
▁예멘	-10094
▁카운	-10095
셨으면	-10096
▁경남도	-10097
▁구성해	-10098
▁버스가	-10099
▁원해요	-10100
▁혐의에	-10101
▁확정된	-10102
▁후보로	-10103
▁1990	-10104
▁경제부총	-10105
▁국민청원	-10106
▁운전자가	-10107
▁이용자가	-10108
▁차지하고	-10109
▁찔	-10110
처벌	-10111
▁견제	-10112
▁극우	-10113
▁논문	-10114
▁방을	-10115
▁안양	-10116
▁오해	-10117
▁콘셉	-10118
▁타격	-10119
▁공격수	-10120
▁만든다	-10121
▁업무에	-10122
▁인사가	-10123
▁작업에	-10124
▁출동한	-10125
▁평화의	-10126
▁커지면서	-10127
▁웅	-10128
브를	-10129
셔츠	-10130
종일	-10131
▁벌여	-10132
▁샤워	-10133
▁쉬는	-10134
▁원료	-10135
▁이태	-10136
▁적힌	-10137
▁축적	-10138
▁학과	-10139
었는지	-10140
▁좋다고	-10141
▁후에도	-10142
들에게는	-10143
▁공간으로	-10144
▁언제까지	-10145
▁연결하는	-10146
▁있었는지	-10147
▁기본적으로	-10148
▁있으신가요	-10149
▁톱	-10150
에겐	-10151
프레	-10152
▁결심	-10153
▁국적	-10154
▁무척	-10155
▁외출	-10156
▁적자	-10157
경찰서	-10158
시나요	-10159
해주고	-10160
▁급격한	-10161
▁뛰어넘	-10162
▁시기를	-10163
▁제작한	-10164
▁지역구	-10165
▁지원에	-10166
▁경제성장	-10167
▁경제정책	-10168
▁상승세를	-10169
▁이메일로	-10170
▁전달했다	-10171
▁집행유예	-10172
▁해명했다	-10173
▁곳도	-10174
▁누릴	-10175
▁물량	-10176
▁불꽃	-10177
▁열대	-10178
▁원고	-10179
▁캠핑	-10180
▁평택	-10181
▁화해	-10182
아무개	-10183
장에는	-10184
▁공장을	-10185
▁동의를	-10186
▁사무총	-10187
▁선수를	-10188
▁조사할	-10189
▁입장에서	-10190
▁아르헨티나	-10191
▁최고경영자	-10192
▁누락	-10193
▁다저	-10194
▁도주	-10195
▁크루	-10196
▁해설	-10197
자로서	-10198
▁권리를	-10199
▁되기를	-10200
▁목요일	-10201
▁신청한	-10202
▁영국의	-10203
▁하나를	-10204
셨습니다	-10205
▁자신감을	-10206
▁카메라를	-10207
▁중소벤처기업	-10208
SK	-10209
면허	-10210
생태	-10211
인증	-10212
▁가파	-10213
▁다룬	-10214
▁중대	-10215
▁허락	-10216
공사는	-10217
▁여야가	-10218
▁이뤄지	-10219
▁휴가를	-10220
▁같은데요	-10221
▁아시안컵	-10222
▁지자체가	-10223
▁행복하게	-10224
▁닥	-10225
검토	-10226
수술	-10227
월드	-10228
▁깨달	-10229
▁트리	-10230
스럽다	-10231
▁결혼을	-10232
▁확률이	-10233
▁후보의	-10234
▁가능성에	-10235
▁대법원이	-10236
▁떨어지고	-10237
바닥	-10238
유통	-10239
▁번의	-10240
▁부합	-10241
▁얻는	-10242
▁예보	-10243
▁위생	-10244
조치를	-10245
▁각자의	-10246
▁공항에	-10247
▁당대표	-10248
▁대북제재	-10249
▁올해부터	-10250
공학	-10251
나고	-10252
날두	-10253
▁공수	-10254
▁깨닫	-10255
▁도망	-10256
▁오더	-10257
▁이뤘	-10258
▁1.5	-10259
▁김영철	-10260
▁마스터	-10261
▁속도로	-10262
▁않나요	-10263
▁일어났	-10264
▁카드로	-10265
▁커지는	-10266
▁평범한	-10267
▁가능하고	-10268
▁후보자가	-10269
에이	-10270
정당	-10271
편을	-10272
▁감수	-10273
▁남한	-10274
▁바깥	-10275
▁빌딩	-10276
▁수렴	-10277
▁임기	-10278
▁하향	-10279
회사가	-10280
▁가려고	-10281
▁달라진	-10282
▁대응을	-10283
▁생각할	-10284
▁성분이	-10285
▁촬영한	-10286
회에서는	-10287
5,000	-10288
▁스마트폰을	-10289
▁전반적으로	-10290
▁서울중앙지검	-10291
경남	-10292
다란	-10293
이랑	-10294
▁강북	-10295
▁차에	-10296
▁반발이	-10297
▁전망도	-10298
▁치료가	-10299
▁케이티	-10300
▁감소했다	-10301
▁어울리는	-10302
▁일상생활	-10303
벤션	-10304
역은	-10305
CEO	-10306
▁경협	-10307
▁높을	-10308
▁전무	-10309
▁절실	-10310
▁조립	-10311
▁취한	-10312
▁터져	-10313
감으로	-10314
센터에	-10315
▁감안해	-10316
▁결과다	-10317
▁금리인	-10318
▁대표적	-10319
▁방송인	-10320
▁신선한	-10321
▁여파로	-10322
▁예전에	-10323
▁재판이	-10324
▁전략이	-10325
▁포즈를	-10326
▁공항에서	-10327
▁등장했다	-10328
▁촉구하는	-10329
▁벼	-10330
드린	-10331
들인	-10332
북도	-10333
사노	-10334
심은	-10335
▁NC	-10336
▁고생	-10337
▁무렵	-10338
▁인종	-10339
▁전임	-10340
▁하러	-10341
▁고객을	-10342
▁올리고	-10343
▁학생은	-10344
▁비핵화와	-10345
▁확인되지	-10346
▁미안하지만	-10347
즈의	-10348
▁겨우	-10349
▁남는	-10350
▁바퀴	-10351
▁배포	-10352
▁순환	-10353
▁예매	-10354
▁이적	-10355
▁인민	-10356
▁패러	-10357
▁화웨	-10358
대학원	-10359
이면서	-10360
▁금융위	-10361
▁도서관	-10362
▁떨어뜨	-10363
▁열리고	-10364
▁인천시	-10365
▁전에는	-10366
▁혼자서	-10367
▁관점에서	-10368
▁예정이에요	-10369
동과	-10370
레나	-10371
▁63	-10372
▁고대	-10373
▁믿을	-10374
▁승진	-10375
▁유로	-10376
▁입점	-10377
▁저작	-10378
▁출고	-10379
▁관심과	-10380
▁만이다	-10381
▁머리가	-10382
▁물량이	-10383
▁어렵고	-10384
▁연세대	-10385
▁참가한	-10386
▁통증이	-10387
▁티켓을	-10388
▁전반적인	-10389
▁주도하는	-10390
▁금융당국이	-10391
▁얇	-10392
플러	-10393
▁담보	-10394
▁드려	-10395
▁먹은	-10396
▁박병	-10397
▁쉽고	-10398
▁않자	-10399
▁환승	-10400
▁법안을	-10401
▁설명해	-10402
▁실형을	-10403
▁원인은	-10404
▁이어가	-10405
▁추가적인	-10406
▁있겠습니다	-10407
DC	-10408
▁샐	-10409
∼20	-10410
▁일산	-10411
▁자진	-10412
▁하죠	-10413
기관에	-10414
셧다운	-10415
▁노회찬	-10416
▁달한다	-10417
▁면세점	-10418
▁일제히	-10419
▁저번에	-10420
▁일방적으로	-10421
PC	-10422
리조	-10423
쉽게	-10424
천만	-10425
퍼스	-10426
▁불필	-10427
▁승부	-10428
▁연수	-10429
▁거리를	-10430
▁귀추가	-10431
▁달했다	-10432
▁미성년	-10433
▁반영해	-10434
▁좋아서	-10435
▁통일부	-10436
▁활발한	-10437
▁모르겠어	-10438
▁보고서에	-10439
▁어렵다고	-10440
▁여자친구	-10441
루가	-10442
주면	-10443
PGA	-10444
▁넥슨	-10445
▁되찾	-10446
▁리조	-10447
▁바빠	-10448
▁버려	-10449
▁시의	-10450
▁지문	-10451
▁동남아	-10452
▁모델로	-10453
▁목표다	-10454
▁배송이	-10455
▁뿐이다	-10456
▁이용이	-10457
호텔에서	-10458
▁미국으로	-10459
▁공개적으로	-10460
▁알려주시면	-10461
▁엘리베이터	-10462
▁굽	-10463
전남	-10464
프는	-10465
▁갑질	-10466
▁객실	-10467
▁꾸려	-10468
▁모의	-10469
▁실리	-10470
▁티저	-10471
까지도	-10472
▁규정이	-10473
▁미치지	-10474
▁아내가	-10475
▁증시가	-10476
▁고등학생	-10477
▁보냅니다	-10478
▁이사장은	-10479
▁있어서다	-10480
▁지속가능	-10481
▁둥	-10482
담을	-10483
돌이	-10484
유아	-10485
저히	-10486
중심	-10487
▁숙소	-10488
▁액션	-10489
▁재현	-10490
▁중개	-10491
년으로	-10492
명에서	-10493
소프트	-10494
협약을	-10495
▁시기가	-10496
▁완성차	-10497
▁정신을	-10498
▁공부하는	-10499
▁어디에서	-10500
▁적용되는	-10501
▁큐	-10502
강에	-10503
무장	-10504
보드	-10505
세종	-10506
안타	-10507
해져	-10508
600	-10509
▁곤란	-10510
▁디저	-10511
▁실력	-10512
▁아세	-10513
▁원장	-10514
개월이	-10515
단에서	-10516
체계를	-10517
▁격차가	-10518
▁업계는	-10519
▁이마트	-10520
▁자체를	-10521
▁지사의	-10522
▁호날두	-10523
▁나타냈다	-10524
▁네덜란드	-10525
▁지난해보다	-10526
▁현대자동차	-10527
▁c	-10528
월한	-10529
유산	-10530
트롤	-10531
편에	-10532
▁경호	-10533
▁공백	-10534
▁나간	-10535
▁다툼	-10536
▁레알	-10537
▁신기	-10538
▁자존	-10539
▁중이	-10540
▁최강	-10541
주셔서	-10542
▁공사가	-10543
▁방문을	-10544
▁조사결과	-10545
▁소비자들의	-10546
▁가라	-10547
▁공영	-10548
▁도약	-10549
▁복무	-10550
▁승차	-10551
▁알레	-10552
▁양육	-10553
▁제고	-10554
▁주면	-10555
▁중복	-10556
학년도	-10557
▁700	-10558
▁감독과	-10559
▁로버트	-10560
▁반영한	-10561
▁벌이는	-10562
▁선수의	-10563
▁앞장서	-10564
▁언론이	-10565
▁유니폼	-10566
▁클래식	-10567
▁펼쳤다	-10568
▁근본적인	-10569
▁발생하면	-10570
▁청년들이	-10571
▁포함되어	-10572
▁싼	-10573
년여	-10574
수출	-10575
▁4,	-10576
▁가자	-10577
▁꼬집	-10578
▁선행	-10579
▁웃음	-10580
▁원격	-10581
▁일간	-10582
▁정유	-10583
▁죽은	-10584
동에서	-10585
▁법원에	-10586
▁솔직히	-10587
▁이후로	-10588
▁조건이	-10589
▁해주는	-10590
▁개최했다	-10591
▁국민일보	-10592
▁대표이사	-10593
▁둘러싸고	-10594
▁인사들이	-10595
..	-10596
2%	-10597
▁갱	-10598
팀에	-10599
(20	-10600
▁읽는	-10601
▁주간	-10602
화운동	-10603
▁SUV	-10604
▁극심한	-10605
▁발표된	-10606
▁성명을	-10607
▁우리도	-10608
▁코미디	-10609
▁탄탄한	-10610
▁화이트	-10611
드릴까요	-10612
▁기대했다	-10613
▁뉴질랜드	-10614
▁벌어지는	-10615
남용	-10616
어에	-10617
제약	-10618
학원	-10619
▁GS	-10620
▁고난	-10621
▁싸움	-10622
분으로	-10623
했었다	-10624
▁바닥에	-10625
▁법안이	-10626
▁안팎의	-10627
▁할까요	-10628
▁결정하는	-10629
▁이어지면서	-10630
념을	-10631
라리	-10632
지않	-10633
▁골라	-10634
▁구로	-10635
▁맥락	-10636
▁반납	-10637
가에서	-10638
그룹은	-10639
면에서	-10640
회의에	-10641
▁달러를	-10642
▁보이며	-10643
▁블록체	-10644
▁알아야	-10645
▁제공한	-10646
▁취지의	-10647
▁측면이	-10648
▁판단한	-10649
▁현실화	-10650
▁회의가	-10651
해지면서	-10652
현지시각	-10653
▁계속되고	-10654
▁노력하고	-10655
▁높아졌다	-10656
▁사법농단	-10657
▁생각했다	-10658
▁일주일에	-10659
▁중이라고	-10660
29	-10661
개사	-10662
영을	-10663
티스	-10664
▁고시	-10665
▁과장	-10666
▁더블	-10667
▁서식	-10668
▁영구	-10669
▁저와	-10670
▁지혜	-10671
증으로	-10672
행위를	-10673
▁금액은	-10674
▁대가로	-10675
▁대학이	-10676
▁살아남	-10677
▁세계를	-10678
▁운영에	-10679
▁타이어	-10680
▁국민들의	-10681
▁농림축산	-10682
▁반박했다	-10683
▁윈	-10684
건은	-10685
일리	-10686
호한	-10687
▁날을	-10688
▁넣은	-10689
▁팀은	-10690
▁파격	-10691
주시길	-10692
카드를	-10693
▁선보일	-10694
▁손쉽게	-10695
▁전력이	-10696
▁1980	-10697
▁인근에서	-10698
▁확산되고	-10699
동은	-10700
루를	-10701
반을	-10702
안정	-10703
이도	-10704
ECD	-10705
▁너랑	-10706
▁됐고	-10707
▁변신	-10708
▁세우	-10709
▁송도	-10710
▁전신	-10711
▁타입	-10712
▁포트	-10713
▁괜찮아	-10714
▁주문이	-10715
▁하다가	-10716
▁학생과	-10717
▁돋보이는	-10718
▁참여한다	-10719
▁사우디아라	-10720
신저	-10721
▁매번	-10722
▁선별	-10723
▁오신	-10724
퍼런스	-10725
▁김씨의	-10726
▁불공정	-10727
▁생기면	-10728
▁장시간	-10729
▁한국교	-10730
▁확대에	-10731
▁공장에서	-10732
▁모르겠다	-10733
▁때문이라는	-10734
ig	-10735
▁궤	-10736
티아	-10737
▁64	-10738
▁99	-10739
▁강사	-10740
▁대치	-10741
▁등판	-10742
▁면적	-10743
▁박용	-10744
▁양극	-10745
▁입소	-10746
▁전술	-10747
러스터	-10748
산업이	-10749
지니어	-10750
▁가져가	-10751
▁도대체	-10752
▁위치해	-10753
▁커다란	-10754
▁부장판사	-10755
연은	-10756
줄이	-10757
▁것만	-10758
▁김학	-10759
▁먹지	-10760
▁비춰	-10761
▁시신	-10762
▁시티	-10763
▁이의	-10764
▁지점	-10765
▁토큰	-10766
▁트로	-10767
▁황금	-10768
▁거리에	-10769
▁마포구	-10770
▁받았고	-10771
▁소개해	-10772
▁수시로	-10773
▁아래로	-10774
▁업체의	-10775
▁자격이	-10776
▁자료가	-10777
▁출퇴근	-10778
경찰서에	-10779
▁요인으로	-10780
▁조건으로	-10781
▁투자자들이	-10782
▁꽉	-10783
▁킹	-10784
남부	-10785
리자	-10786
병이	-10787
온다	-10788
(10	-10789
▁교정	-10790
▁나노	-10791
▁로마	-10792
▁바쁘	-10793
▁수량	-10794
▁슬픔	-10795
▁주류	-10796
▁주유	-10797
▁펼칠	-10798
▁거기서	-10799
▁도입한	-10800
▁얻었다	-10801
▁관계자가	-10802
▁반발하고	-10803
▁아이들에게	-10804
일인	-10805
저널	-10806
정통	-10807
▁67	-10808
▁84	-10809
▁맺은	-10810
▁발간	-10811
▁자라	-10812
▁파울	-10813
▁받았던	-10814
▁발전에	-10815
▁아래의	-10816
▁인식을	-10817
▁전국에	-10818
▁평화를	-10819
▁표현을	-10820
▁6·13	-10821
▁그들에게	-10822
DA	-10823
SC	-10824
▁굵	-10825
▁랩	-10826
▁휠	-10827
보좌	-10828
청구	-10829
탱크	-10830
▁기기	-10831
▁상시	-10832
▁생물	-10833
▁시일	-10834
대회를	-10835
통신이	-10836
▁인상에	-10837
▁장관을	-10838
▁중대한	-10839
▁소송에서	-10840
▁무엇입니까	-10841
▁「	-10842
공제	-10843
기본	-10844
세와	-10845
양호	-10846
전환	-10847
타가	-10848
통제	-10849
▁외모	-10850
▁우체	-10851
▁잇는	-10852
▁합법	-10853
됐는데	-10854
▁가볍게	-10855
▁됐다는	-10856
▁선진국	-10857
▁스피커	-10858
▁신속한	-10859
▁인력을	-10860
▁있거나	-10861
▁중학생	-10862
▁확대되고	-10863
개에	-10864
름을	-10865
스레	-10866
습을	-10867
시마	-10868
우주	-10869
전력	-10870
특위	-10871
해볼	-10872
▁소홀	-10873
▁장치	-10874
▁획기	-10875
▁말이야	-10876
▁아닌가	-10877
▁인간이	-10878
▁관련하여	-10879
▁움직이는	-10880
▁의미한다	-10881
▁지배구조	-10882
1%	-10883
▁띈	-10884
방지	-10885
실의	-10886
여자	-10887
▁NH	-10888
▁광양	-10889
▁근대	-10890
▁모듈	-10891
▁유인	-10892
▁책정	-10893
▁민감한	-10894
▁살해한	-10895
▁신문은	-10896
▁아닌지	-10897
▁작가의	-10898
▁적용된	-10899
▁주변의	-10900
▁증거를	-10901
▁출시한	-10902
▁기다리는	-10903
▁시작되는	-10904
▁대표적이다	-10905
WS	-10906
▁꽂	-10907
겨레	-10908
니는	-10909
순위	-10910
▁구독	-10911
▁석방	-10912
▁ICT	-10913
▁KTX	-10914
▁기억에	-10915
▁기후변	-10916
▁방식의	-10917
▁시민의	-10918
▁여유가	-10919
▁최적의	-10920
▁협력해	-10921
ation	-10922
▁신분으로	-10923
▁처음부터	-10924
▁판매량이	-10925
▁톡	-10926
▁흙	-10927
동향	-10928
자다	-10929
최저	-10930
▁66	-10931
▁새끼	-10932
▁중지	-10933
▁침수	-10934
만원에	-10935
조사에	-10936
▁개선에	-10937
▁기준에	-10938
▁들었어	-10939
▁수업에	-10940
▁예산안	-10941
▁의약품	-10942
▁추억을	-10943
▁현상을	-10944
▁화요일	-10945
▁히어로	-10946
디움에서	-10947
22	-10948
당시	-10949
오를	-10950
▁그릇	-10951
▁대행	-10952
▁도박	-10953
▁보게	-10954
▁불고	-10955
▁상한	-10956
▁중계	-10957
▁침묵	-10958
▁표명	-10959
▁130	-10960
▁거뒀다	-10961
▁보내준	-10962
▁요즘은	-10963
▁출신인	-10964
▁등장하는	-10965
▁캄	-10966
내지	-10967
더스	-10968
렉스	-10969
수지	-10970
지금	-10971
채널	-10972
측은	-10973
하긴	-10974
▁공천	-10975
▁매진	-10976
▁무장	-10977
▁성숙	-10978
▁씨를	-10979
▁양이	-10980
▁타임	-10981
층으로	-10982
▁교수의	-10983
▁되어서	-10984
▁마드리	-10985
▁이유에	-10986
▁직업을	-10987
▁크기가	-10988
▁행동이	-10989
▁협약을	-10990
▁반려동물	-10991
▁방송에서	-10992
무기	-10993
부품	-10994
설에	-10995
으려	-10996
IST	-10997
▁단단	-10998
▁리버	-10999
▁재해	-11000
▁정례	-11001
▁특화	-11002
▁기반의	-11003
▁나라를	-11004
▁농식품	-11005
▁대상에	-11006
▁부르는	-11007
▁부족해	-11008
▁생명을	-11009
▁아직은	-11010
▁정책실	-11011
▁지급하는	-11012
▁차별화된	-11013
언이	-11014
주식	-11015
(30	-11016
▁무용	-11017
▁방에	-11018
▁소지	-11019
▁영혼	-11020
▁유류	-11021
▁정수	-11022
▁중증	-11023
▁침대	-11024
▁피할	-11025
스마트	-11026
2000	-11027
▁중심이	-11028
▁고용노동부	-11029
▁전체적으로	-11030
▁s	-11031
모임	-11032
분리	-11033
어드	-11034
장벽	-11035
투를	-11036
▁몰입	-11037
▁반품	-11038
▁실례	-11039
▁집은	-11040
문제를	-11041
▁가시면	-11042
▁강렬한	-11043
▁당국의	-11044
▁시대의	-11045
▁아이디	-11046
▁여건이	-11047
▁이었다	-11048
▁인건비	-11049
▁프라이	-11050
▁공무원이	-11051
▁위원장을	-11052
열을	-11053
▁MC	-11054
▁나름	-11055
▁모래	-11056
▁세제	-11057
▁순위	-11058
▁이끈	-11059
▁이은	-11060
▁짓고	-11061
▁한계	-11062
▁공론화	-11063
▁발목을	-11064
▁부회장	-11065
▁상하이	-11066
▁여학생	-11067
▁이끌고	-11068
▁저출산	-11069
▁질문이	-11070
▁참여가	-11071
▁경우에도	-11072
▁디자인이	-11073
▁방송되는	-11074
▁움직임을	-11075
중독	-11076
톨릭	-11077
통일	-11078
▁개가	-11079
▁연다	-11080
▁인원	-11081
▁전액	-11082
▁피로	-11083
▁합작	-11084
건설이	-11085
투자가	-11086
▁담았다	-11087
▁불구속	-11088
▁이견이	-11089
▁이른다	-11090
▁문제점을	-11091
▁보내주신	-11092
▁시장에서는	-11093
▁우리나라는	-11094
▁론	-11095
미로	-11096
부부	-11097
으시	-11098
차의	-11099
코올	-11100
▁공지	-11101
▁돕기	-11102
▁비하	-11103
▁신동	-11104
▁짐작	-11105
▁키가	-11106
석으로	-11107
▁국정감	-11108
▁문제다	-11109
▁밖에서	-11110
▁여자친	-11111
▁행정처	-11112
▁공유하고	-11113
▁나오면서	-11114
▁사립유치	-11115
▁선거제도	-11116
언을	-11117
와이	-11118
▁73	-11119
▁뒤따	-11120
▁처한	-11121
▁촉발	-11122
▁추출	-11123
▁파주	-11124
재단이	-11125
▁셧다운	-11126
▁신청할	-11127
▁알렸다	-11128
▁일정에	-11129
▁있었을	-11130
▁전략적	-11131
▁편이다	-11132
▁하나다	-11133
▁2003	-11134
▁강조하는	-11135
▁노동조합	-11136
▁다양하게	-11137
▁메시지가	-11138
▁성공적인	-11139
▁청와대의	-11140
▁환경에서	-11141
▁메이저리그	-11142
▁전국적으로	-11143
▁전문가들의	-11144
▁끄	-11145
감도	-11146
돈을	-11147
어촌	-11148
▁경매	-11149
▁다해	-11150
▁모른	-11151
▁스키	-11152
▁연초	-11153
▁이산	-11154
▁찍고	-11155
본부가	-11156
▁노력할	-11157
▁메이크	-11158
▁발언은	-11159
▁버튼을	-11160
▁스위스	-11161
▁의도가	-11162
▁집회를	-11163
▁행복을	-11164
▁국가정보	-11165
바지	-11166
반이	-11167
▁계신	-11168
▁민사	-11169
▁반입	-11170
▁오브	-11171
▁자이	-11172
사회가	-11173
적이지	-11174
▁감사의	-11175
▁결정한	-11176
▁관측도	-11177
▁못한다	-11178
▁세계에	-11179
▁안방극	-11180
▁이루고	-11181
▁주인이	-11182
▁참가해	-11183
▁기준금리	-11184
ST	-11185
▁깃	-11186
세이	-11187
▁‘1	-11188
▁강정	-11189
▁관내	-11190
▁부패	-11191
▁사모	-11192
▁자립	-11193
나가는	-11194
지사의	-11195
▁보호를	-11196
▁연구가	-11197
▁용산구	-11198
▁전국의	-11199
▁주택을	-11200
▁차질이	-11201
초등학교	-11202
▁발생한다	-11203
▁자랑하는	-11204
▁프리미어리그	-11205
▁윗	-11206
공립	-11207
교를	-11208
▁밴드	-11209
▁잃고	-11210
▁카풀	-11211
▁휘발	-11212
서에서	-11213
▁그러한	-11214
▁세계적	-11215
▁예약이	-11216
▁적용할	-11217
▁제임스	-11218
▁높아지는	-11219
▁수상했다	-11220
▁시민사회	-11221
as	-11222
▁b	-11223
▁꿀	-11224
▁볶	-11225
국회	-11226
근무	-11227
매체	-11228
집행	-11229
▁기증	-11230
▁빈곤	-11231
▁삶에	-11232
▁제천	-11233
▁칭찬	-11234
▁황의	-11235
연금이	-11236
해야만	-11237
▁검사가	-11238
▁공사를	-11239
▁국정원	-11240
▁배제할	-11241
▁예정돼	-11242
▁지정된	-11243
▁힘들다	-11244
▁생산하는	-11245
)·	-11246
GB	-11247
국내	-11248
부대	-11249
▁FC	-11250
▁소집	-11251
▁위헌	-11252
▁적게	-11253
▁지인	-11254
문으로	-11255
였는데	-11256
해진다	-11257
▁설치해	-11258
▁중심에	-11259
▁지키는	-11260
▁탓이다	-11261
▁폴더블	-11262
▁피부를	-11263
▁가능한지	-11264
▁부작용이	-11265
▁사용되는	-11266
▁중요성을	-11267
▁국무위원장과	-11268
GM	-11269
군과	-11270
북부	-11271
생의	-11272
월말	-11273
▁구급	-11274
▁김승	-11275
▁음란	-11276
▁쪽이	-11277
곳에서	-11278
되었고	-11279
웠어요	-11280
▁과거에	-11281
▁내일은	-11282
▁아이스	-11283
▁정부를	-11284
▁편안한	-11285
▁확대할	-11286
시스템을	-11287
▁들어오는	-11288
▁어떨까요	-11289
▁탄력근로제	-11290
▁하나님께서	-11291
∼9	-11292
▁뜯	-11293
▁몬	-11294
제조	-11295
터는	-11296
▁공산	-11297
▁난다	-11298
▁보전	-11299
▁시너	-11300
▁편이	-11301
▁포용	-11302
▁한복	-11303
지기도	-11304
지난해	-11305
▁공직선거	-11306
▁제조업체	-11307
개인	-11308
기무	-11309
민족	-11310
발표	-11311
인식	-11312
천여	-11313
현장	-11314
▁농민	-11315
▁수송	-11316
▁썼다	-11317
▁초등	-11318
▁해보	-11319
금리를	-11320
▁사랑이	-11321
▁선수는	-11322
▁수비수	-11323
▁예정이	-11324
▁티셔츠	-11325
▁분식회계	-11326
▁않겠다는	-11327
▁편리하게	-11328
▁개인적으로	-11329
MF	-11330
iv	-11331
미한	-11332
야만	-11333
워드	-11334
저우	-11335
전지	-11336
회관	-11337
▁공소	-11338
▁모범	-11339
▁아트	-11340
▁재단	-11341
▁고려한	-11342
▁궁금한	-11343
▁대학의	-11344
▁돌아올	-11345
▁떠나는	-11346
▁로드맵	-11347
▁명확한	-11348
▁연예인	-11349
▁이사장	-11350
▁잇달아	-11351
▁협의가	-11352
▁모릅니다	-11353
▁보이지만	-11354
공을	-11355
발이	-11356
어의	-11357
역과	-11358
청의	-11359
테이	-11360
▁과시	-11361
▁막고	-11362
▁순수	-11363
▁시키	-11364
▁신곡	-11365
▁여가	-11366
▁임차	-11367
▁제이	-11368
▁학기	-11369
느냐에	-11370
▁뒤에는	-11371
▁매력이	-11372
▁바람을	-11373
▁우연히	-11374
▁인력이	-11375
▁전망을	-11376
▁진전이	-11377
해달라고	-11378
▁공유하는	-11379
▁기업들은	-11380
▁매장에서	-11381
▁아니었다	-11382
▁주민들은	-11383
보안	-11384
자문	-11385
플루	-11386
▁계란	-11387
▁스태	-11388
▁신형	-11389
▁와인	-11390
▁입맛	-11391
사업의	-11392
▁귀여운	-11393
▁기온은	-11394
▁대다수	-11395
▁사태를	-11396
▁제기돼	-11397
▁합의에	-11398
▁흔적이	-11399
청사에서	-11400
▁기존에는	-11401
▁부위원장	-11402
▁좋아하지	-11403
▁칩	-11404
귀포	-11405
벌이	-11406
작을	-11407
▁‘3	-11408
▁그들	-11409
▁내달	-11410
▁내정	-11411
▁놓인	-11412
▁땅을	-11413
▁민감	-11414
▁상봉	-11415
▁소장	-11416
▁최장	-11417
조원을	-11418
▁것인데	-11419
▁기록해	-11420
▁마련할	-11421
▁위기가	-11422
▁이해를	-11423
▁청주시	-11424
▁필요해	-11425
▁회장을	-11426
스트리트	-11427
하시나요	-11428
▁2030	-11429
▁가족들과	-11430
▁위해서다	-11431
▁정상적으로	-11432
구속	-11433
농업	-11434
소속	-11435
어스	-11436
창호	-11437
▁간다	-11438
▁사서	-11439
▁소매	-11440
▁연대	-11441
▁외곽	-11442
▁이병	-11443
▁적당	-11444
▁제발	-11445
▁지수	-11446
▁추격	-11447
▁학대	-11448
▁KIA	-11449
▁메신저	-11450
▁열악한	-11451
▁올라온	-11452
▁제품과	-11453
▁증가로	-11454
▁진실을	-11455
▁근절	-11456
▁도모	-11457
▁맺고	-11458
▁법이	-11459
▁역설	-11460
▁이가	-11461
▁중점	-11462
▁추첨	-11463
▁치즈	-11464
▁토마	-11465
▁플로	-11466
▁감동을	-11467
▁꾸준한	-11468
▁맞아요	-11469
▁모르고	-11470
▁물품을	-11471
▁삼성이	-11472
▁저녁을	-11473
▁주한미	-11474
▁집중할	-11475
▁활력을	-11476
▁그러면서	-11477
▁기자들과	-11478
▁부산에서	-11479
▁엄청나게	-11480
▁제공된다	-11481
머스	-11482
메이	-11483
소재	-11484
찰을	-11485
하가	-11486
현직	-11487
▁85	-11488
▁거지	-11489
▁관행	-11490
▁길게	-11491
▁백화	-11492
▁양보	-11493
▁오렌	-11494
▁주체	-11495
▁참조	-11496
▁초고	-11497
▁치명	-11498
▁치유	-11499
화되는	-11500
▁강아지	-11501
▁개최한	-11502
▁검은색	-11503
▁뜻으로	-11504
▁삼성물	-11505
▁시간당	-11506
▁자격을	-11507
▁촬영을	-11508
▁됐습니다	-11509
▁지역주민	-11510
▁캐릭터를	-11511
▁결과적으로	-11512
▁구속영장이	-11513
▁벚	-11514
변호	-11515
스틱	-11516
토론	-11517
▁구두	-11518
▁나눴	-11519
▁불리	-11520
▁팽팽	-11521
기관인	-11522
▁논의할	-11523
▁데리고	-11524
▁동원해	-11525
▁빠졌다	-11526
▁여성은	-11527
▁영수증	-11528
▁이번엔	-11529
▁주어진	-11530
▁쪽에서	-11531
▁처리를	-11532
▁확보할	-11533
▁회장과	-11534
▁이뤄진다	-11535
AE	-11536
링을	-11537
비율	-11538
산에	-11539
설계	-11540
인사	-11541
▁동향	-11542
▁막는	-11543
▁버티	-11544
▁벗어	-11545
▁용이	-11546
▁체력	-11547
▁한참	-11548
▁흰색	-11549
로서는	-11550
우리는	-11551
일수록	-11552
▁겨울철	-11553
▁그것에	-11554
▁비중은	-11555
▁원하지	-11556
▁이렇다	-11557
▁주의를	-11558
후보	-11559
▁1%	-11560
▁가축	-11561
▁문이	-11562
▁쌓여	-11563
▁앓고	-11564
됩니까	-11565
생들이	-11566
▁감정이	-11567
▁결제가	-11568
▁고민을	-11569
▁놀라운	-11570
▁누구도	-11571
▁매뉴얼	-11572
▁요구에	-11573
▁금요일에	-11574
▁되었어요	-11575
▁들었는데	-11576
거부	-11577
동원	-11578
리안	-11579
분양	-11580
산은	-11581
언론	-11582
재료	-11583
▁많기	-11584
▁브로	-11585
▁성별	-11586
▁소액	-11587
▁양식	-11588
▁이강	-11589
만명의	-11590
성장을	-11591
▁1·2	-11592
▁돌아갈	-11593
▁두려워	-11594
▁등장한	-11595
▁방안도	-11596
▁실수로	-11597
▁좀처럼	-11598
▁집값이	-11599
▁한계를	-11600
적이라는	-11601
▁개정안은	-11602
▁만들어야	-11603
▁에너지를	-11604
▁이어갔다	-11605
▁이후에는	-11606
▁효과적인	-11607
▁지난해부터	-11608
만대	-11609
세트	-11610
였어	-11611
원전	-11612
▁게이	-11613
▁명문	-11614
▁상해	-11615
▁은폐	-11616
▁정답	-11617
▁최상	-11618
▁태어	-11619
▁하얀	-11620
회에는	-11621
▁계속될	-11622
▁공화당	-11623
▁산업혁	-11624
▁없으며	-11625
▁지시를	-11626
▁펼치는	-11627
연구원은	-11628
▁생각하면	-11629
▁속에서도	-11630
▁이미지가	-11631
▁현지에서	-11632
▁영업이익이	-11633
▁농림축산식품	-11634
▁덴	-11635
조로	-11636
타르	-11637
▁구형	-11638
▁무한	-11639
▁법제	-11640
라이언	-11641
▁공정한	-11642
▁사례는	-11643
▁상관없	-11644
▁실질적	-11645
▁자녀를	-11646
▁전국이	-11647
경기에서	-11648
▁규정하고	-11649
▁선거에서	-11650
겁다	-11651
욕을	-11652
▁77	-11653
▁뜻이	-11654
▁방한	-11655
▁배후	-11656
▁술에	-11657
▁스킨	-11658
니스트	-11659
졌으며	-11660
지거나	-11661
타임스	-11662
▁단기간	-11663
▁되어야	-11664
▁등이다	-11665
▁부당한	-11666
▁소식에	-11667
▁의미로	-11668
▁이하로	-11669
▁재미를	-11670
▁증상을	-11671
▁공급하는	-11672
▁다릅니다	-11673
▁브랜드를	-11674
▁서비스에	-11675
▁이산가족	-11676
▁홈페이지에	-11677
조의	-11678
▁바꾼	-11679
▁살이	-11680
▁어젯	-11681
▁입지	-11682
▁진압	-11683
거리는	-11684
라이트	-11685
로서의	-11686
사회적	-11687
시에서	-11688
야말로	-11689
▁112	-11690
▁CNN	-11691
▁경기는	-11692
▁나서야	-11693
▁상당수	-11694
▁이밖에	-11695
▁인증을	-11696
▁있다가	-11697
▁지위를	-11698
▁징계를	-11699
▁행보를	-11700
▁현황을	-11701
▁불가능하다	-11702
▁족	-11703
영상	-11704
인멸	-11705
▁꿈이	-11706
▁무력	-11707
▁엑스	-11708
▁외식	-11709
▁줄고	-11710
▁크림	-11711
▁해임	-11712
▁건물을	-11713
▁광범위	-11714
▁남다른	-11715
▁높다고	-11716
▁많지만	-11717
▁순으로	-11718
▁스티커	-11719
▁앞세워	-11720
▁요금을	-11721
▁운동이	-11722
▁원장이	-11723
▁평소에	-11724
▁과기정통	-11725
▁근무하는	-11726
▁아직까지	-11727
▁피해자의	-11728
▁확인하기	-11729
▁효과적으로	-11730
로스	-11731
류에	-11732
본다	-11733
조달	-11734
▁“‘	-11735
▁감성	-11736
▁바꿨	-11737
▁셔틀	-11738
▁수록	-11739
▁위장	-11740
▁지각	-11741
▁척추	-11742
▁코인	-11743
자리를	-11744
터미널	-11745
하니까	-11746
형으로	-11747
▁관계에	-11748
▁급하게	-11749
▁라이프	-11750
▁실리콘	-11751
▁허가를	-11752
위원장을	-11753
▁보인다고	-11754
▁이뤄져야	-11755
▁늘어나면서	-11756
▁무역전쟁이	-11757
분은	-11758
▁납치	-11759
▁달이	-11760
▁댄스	-11761
▁독려	-11762
▁믿는	-11763
▁번씩	-11764
▁임의	-11765
▁전교	-11766
하느라	-11767
▁3∼4	-11768
▁무죄를	-11769
▁미드필	-11770
▁서귀포	-11771
▁아나운	-11772
▁않기로	-11773
▁요금이	-11774
▁장소가	-11775
▁정권이	-11776
▁차지한	-11777
▁확보해	-11778
▁없었어요	-11779
▁사우디아라비아	-11780
규칙	-11781
스카	-11782
역의	-11783
푸드	-11784
▁가담	-11785
▁눌러	-11786
▁서면	-11787
▁약물	-11788
▁은혜	-11789
▁저감	-11790
▁조카	-11791
▁키움	-11792
▁화폐	-11793
▁환급	-11794
사업자	-11795
센티브	-11796
하이닉	-11797
▁매출을	-11798
▁바꾸고	-11799
▁사업장	-11800
▁시즌을	-11801
▁가능해요	-11802
▁개인적인	-11803
▁다음으로	-11804
▁킬	-11805
천군	-11806
테랑	-11807
▁과잉	-11808
▁날카	-11809
▁낯선	-11810
▁녹음	-11811
▁맞을	-11812
▁무효	-11813
▁보강	-11814
▁부추	-11815
▁수산	-11816
▁스펙	-11817
▁안다	-11818
▁원산	-11819
▁전도	-11820
▁춤을	-11821
▁타협	-11822
대표가	-11823
▁개정을	-11824
▁남겼다	-11825
▁마시는	-11826
▁얼굴에	-11827
▁학생부	-11828
▁외국인이	-11829
과도	-11830
▁감추	-11831
▁공판	-11832
▁나눈	-11833
▁띈다	-11834
▁쓰여	-11835
▁진영	-11836
▁표기	-11837
석에서	-11838
전문가	-11839
회의가	-11840
▁광주형	-11841
▁마쳤다	-11842
▁배경을	-11843
▁서울을	-11844
▁선거제	-11845
▁심하게	-11846
▁확대해	-11847
▁테스트를	-11848
▁판단하고	-11849
▁해상에서	-11850
▁m	-11851
▁낡	-11852
기계	-11853
마리	-11854
이익	-11855
청사	-11856
티드	-11857
▁어긋	-11858
▁우회	-11859
▁피드	-11860
사항이	-11861
업계가	-11862
▁수요를	-11863
▁시각이	-11864
▁이재용	-11865
▁전원이	-11866
▁취약한	-11867
▁폭행을	-11868
▁개최한다	-11869
38	-11870
과거	-11871
미르	-11872
오가	-11873
하죠	-11874
혈압	-11875
▁배워	-11876
▁잡지	-11877
▁치른	-11878
우리가	-11879
▁대상은	-11880
▁신경을	-11881
▁엄마는	-11882
▁역사가	-11883
▁자유로운	-11884
▁정상적인	-11885
▁파악됐다	-11886
▁확대하는	-11887
▁계획이라고	-11888
vN	-11889
▁캔	-11890
계좌	-11891
방학	-11892
셨다	-11893
캠프	-11894
희망	-11895
▁5,	-11896
▁김선	-11897
▁나갔	-11898
▁내보	-11899
▁믿음	-11900
▁연인	-11901
▁우즈	-11902
▁위성	-11903
▁코드	-11904
년보다	-11905
당국이	-11906
해주실	-11907
▁고객은	-11908
▁기록이	-11909
▁박물관	-11910
▁판단에	-11911
▁국가인권	-11912
▁못하도록	-11913
▁비교하면	-11914
▁우려했다	-11915
▁체결했다	-11916
▁합의했다	-11917
르몬	-11918
준표	-11919
할게	-11920
▁달린	-11921
▁딸을	-11922
▁생애	-11923
▁수확	-11924
▁스리	-11925
▁유대	-11926
▁잦은	-11927
▁취해	-11928
정책이	-11929
회사의	-11930
▁겨냥한	-11931
▁김학의	-11932
▁봤어요	-11933
▁선정한	-11934
▁안에는	-11935
▁않았기	-11936
▁적용한	-11937
▁전환을	-11938
▁진단을	-11939
▁크다고	-11940
▁확보를	-11941
▁비행기를	-11942
▁신한금융	-11943
▁적발됐다	-11944
▁부탁합니다	-11945
담보	-11946
로지	-11947
방문	-11948
블록	-11949
속한	-11950
여고	-11951
채용	-11952
▁건네	-11953
▁놓은	-11954
▁때의	-11955
▁반성	-11956
▁시인	-11957
▁우세	-11958
▁육박	-11959
▁증상	-11960
▁취할	-11961
▁해산	-11962
여행을	-11963
▁면에서	-11964
▁약속한	-11965
▁없으니	-11966
▁연이어	-11967
▁의식을	-11968
▁이익이	-11969
▁재고가	-11970
▁정당한	-11971
▁주의가	-11972
▁케이크	-11973
▁평화와	-11974
지역에서	-11975
▁부문에서	-11976
▁형식으로	-11977
▁행정안전부	-11978
52	-11979
셀러	-11980
시기	-11981
우와	-11982
울이	-11983
토리	-11984
▁우호	-11985
▁일괄	-11986
▁통행	-11987
▁펜션	-11988
도까지	-11989
▁듯하다	-11990
▁민간인	-11991
▁유학생	-11992
▁일본을	-11993
▁분석됐다	-11994
▁신고했다	-11995
▁연구결과	-11996
▁요청합니다	-11997
원인	-11998
피고	-11999
하듯	-12000
▁보자	-12001
▁열정	-12002
▁염려	-12003
▁일선	-12004
▁조지	-12005
▁창고	-12006
▁침입	-12007
졌는데	-12008
▁날짜를	-12009
▁돌아와	-12010
▁미래의	-12011
▁사과를	-12012
▁시위를	-12013
▁자유를	-12014
▁시작한다	-12015
ER	-12016
구니	-12017
실질	-12018
제작	-12019
측이	-12020
▁LA	-12021
▁덜어	-12022
▁세일	-12023
▁승용	-12024
▁시속	-12025
▁유산	-12026
▁자는	-12027
▁기록할	-12028
▁언젠가	-12029
▁오스트	-12030
▁정상화	-12031
▁중으로	-12032
▁누구보다	-12033
▁대우조선	-12034
▁싶은데요	-12035
▁여기에서	-12036
▁예고했다	-12037
▁진상조사	-12038
▁토요일에	-12039
▁러시아월드컵	-12040
1,	-12041
포트	-12042
해준	-12043
▁맑은	-12044
▁맛볼	-12045
▁물고	-12046
▁부를	-12047
▁스틸	-12048
▁조국	-12049
▁주저	-12050
▁하도	-12051
부르크	-12052
빌리티	-12053
▁국민적	-12054
▁소식통	-12055
▁점검을	-12056
▁진상규	-12057
▁키우고	-12058
▁패키지	-12059
▁받았어요	-12060
▁수수료를	-12061
▁자신만의	-12062
▁회원들이	-12063
ad	-12064
im	-12065
과를	-12066
남도	-12067
조는	-12068
표준	-12069
학규	-12070
∼30	-12071
▁공적	-12072
▁샐러	-12073
▁소음	-12074
▁얼음	-12075
▁홍영	-12076
기관과	-12077
훈련을	-12078
▁겪었다	-12079
▁금리가	-12080
▁당했다	-12081
▁무게를	-12082
▁언론은	-12083
▁워크숍	-12084
대회에서	-12085
자동차가	-12086
▁광주시는	-12087
▁구조조정	-12088
▁그렇지만	-12089
▁않으면서	-12090
▁주장한다	-12091
▁해결하는	-12092
AP	-12093
OP	-12094
부족	-12095
우며	-12096
파를	-12097
▁거다	-12098
▁김관	-12099
▁나고	-12100
▁다녔	-12101
▁상주	-12102
▁성접	-12103
▁있죠	-12104
▁군사적	-12105
▁그랜드	-12106
▁기술의	-12107
▁나와서	-12108
▁대응이	-12109
▁똑같이	-12110
▁미스터	-12111
▁불어넣	-12112
▁세우고	-12113
▁죽음을	-12114
▁출연한	-12115
▁취지다	-12116
▁친구의	-12117
▁공동주택	-12118
▁내용으로	-12119
▁수단으로	-12120
▁예정이며	-12121
▁지금부터	-12122
of	-12123
개정	-12124
금액	-12125
말이	-12126
재와	-12127
차게	-12128
▁관료	-12129
▁끝이	-12130
▁막혀	-12131
▁바가	-12132
▁이듬	-12133
▁지니	-12134
러시아	-12135
▁국회를	-12136
▁내놓을	-12137
▁동대문	-12138
▁먹거리	-12139
▁베테랑	-12140
▁서울고	-12141
▁선정해	-12142
▁어젯밤	-12143
▁위주의	-12144
▁조성을	-12145
▁준비할	-12146
▁추진해	-12147
▁현장의	-12148
ir	-12149
▁찢	-12150
설명	-12151
속을	-12152
절이	-12153
제주	-12154
철수	-12155
▁그해	-12156
▁송영	-12157
▁통학	-12158
답니다	-12159
▁검토할	-12160
▁손해를	-12161
▁연계해	-12162
▁영장을	-12163
▁적었다	-12164
▁주최한	-12165
▁직원의	-12166
▁금융위기	-12167
▁의원들의	-12168
▁관련해서는	-12169
스틴	-12170
오픈	-12171
▁VR	-12172
▁누워	-12173
▁동결	-12174
▁비극	-12175
▁뽑아	-12176
▁소멸	-12177
▁악성	-12178
▁영웅	-12179
▁입는	-12180
▁블로그	-12181
▁이어갈	-12182
▁직장인	-12183
▁협조를	-12184
▁공개된다	-12185
▁들어서는	-12186
▁아버지의	-12187
▁전통적인	-12188
▁현대중공업	-12189
엔터테인먼트	-12190
▁프로그램이다	-12191
하진	-12192
▁고립	-12193
▁당의	-12194
▁좁은	-12195
▁짓는	-12196
▁초록	-12197
▁학업	-12198
▁형이	-12199
환경을	-12200
▁과거의	-12201
▁다루는	-12202
▁메르스	-12203
▁밝히고	-12204
▁변수가	-12205
▁보내줄	-12206
▁상품의	-12207
▁안정을	-12208
▁양질의	-12209
▁학생을	-12210
연구원이	-12211
해주셔서	-12212
▁떠올랐다	-12213
36	-12214
47	-12215
pp	-12216
▁갓	-12217
▁퀄	-12218
되게	-12219
수입	-12220
줘요	-12221
층은	-12222
피가	-12223
▁가사	-12224
▁내로	-12225
▁무단	-12226
▁박상	-12227
▁방과	-12228
▁배를	-12229
▁악영	-12230
▁에피	-12231
▁연상	-12232
▁웹툰	-12233
▁이룰	-12234
비디오	-12235
▁금리를	-12236
▁단위로	-12237
▁만약에	-12238
▁미안해	-12239
▁압박을	-12240
▁의무가	-12241
▁있었기	-12242
▁중간에	-12243
▁지진이	-12244
▁처리가	-12245
▁다이어트	-12246
▁말합니다	-12247
▁미안해요	-12248
▁있으니까	-12249
디스플레이	-12250
▁효율적으로	-12251
▁푹	-12252
값을	-12253
생물	-12254
시스	-12255
운을	-12256
함께	-12257
▁개관	-12258
▁과징	-12259
▁마르	-12260
기에서	-12261
▁스카이	-12262
▁업무가	-12263
▁의견도	-12264
▁이듬해	-12265
▁인정한	-12266
▁제조사	-12267
▁한유총	-12268
▁기업으로	-12269
▁인센티브	-12270
지방경찰청	-12271
▁가능할까요	-12272
눈에	-12273
모든	-12274
서부	-12275
소리	-12276
▁76	-12277
▁녹아	-12278
▁빈번	-12279
▁역을	-12280
▁재학	-12281
▁편지	-12282
▁하청	-12283
▁교회를	-12284
▁기관의	-12285
▁일부는	-12286
▁작품은	-12287
▁드릴까요	-12288
▁존재하는	-12289
시께	-12290
▁바뀔	-12291
▁빼고	-12292
▁웨이	-12293
▁토크	-12294
▁포지	-12295
▁한류	-12296
청에서	-12297
▁감독을	-12298
▁그러니	-12299
▁남자친	-12300
▁다리를	-12301
▁대회를	-12302
▁마련을	-12303
▁숨지게	-12304
▁시선이	-12305
▁일들이	-12306
▁주장에	-12307
▁중이며	-12308
▁차관이	-12309
▁체계를	-12310
▁계속되는	-12311
▁자신들이	-12312
▁자영업자	-12313
▁한진그룹	-12314
▁협력업체	-12315
▁숭	-12316
▁펠	-12317
수행	-12318
원자	-12319
일반	-12320
(18	-12321
▁간절	-12322
▁구호	-12323
▁규탄	-12324
▁미쳤	-12325
▁영남	-12326
▁푸른	-12327
드루킹	-12328
임금을	-12329
체스터	-12330
▁가려면	-12331
▁은행이	-12332
▁이씨는	-12333
▁주차장	-12334
▁실정이다	-12335
▁이번에도	-12336
▁인정하고	-12337
▁판단이다	-12338
oo	-12339
▁첩	-12340
료는	-12341
수급	-12342
채를	-12343
형은	-12344
▁군은	-12345
▁남을	-12346
▁둘이	-12347
▁미사	-12348
▁세련	-12349
▁오바	-12350
▁정교	-12351
▁지는	-12352
▁항암	-12353
조치가	-12354
▁경력이	-12355
▁기대할	-12356
▁기무사	-12357
▁내용과	-12358
▁대학을	-12359
▁마이클	-12360
▁소통을	-12361
▁신청이	-12362
▁여사가	-12363
▁의무를	-12364
▁주장도	-12365
▁프로듀	-12366
▁내년에는	-12367
▁매력적인	-12368
▁자원봉사	-12369
▁혁신성장	-12370
FI	-12371
방해	-12372
분과	-12373
∼10	-12374
▁나흘	-12375
▁내기	-12376
▁동굴	-12377
▁수감	-12378
▁정원	-12379
▁팀장	-12380
문화가	-12381
오면서	-12382
하셔서	-12383
하시기	-12384
▁계획에	-12385
▁기사가	-12386
▁분명한	-12387
▁연락해	-12388
▁의장은	-12389
▁작년에	-12390
▁못했다는	-12391
▁발표하고	-12392
▁선수들은	-12393
▁약속했다	-12394
▁청와대와	-12395
▁보냈습니다	-12396
▁월스트리트	-12397
39	-12398
▁곱	-12399
▁퀴	-12400
동맹	-12401
음식	-12402
저감	-12403
정원	-12404
팀과	-12405
페라	-12406
▁각국	-12407
▁공매	-12408
▁국비	-12409
▁김준	-12410
▁깊게	-12411
▁되자	-12412
▁불만	-12413
▁잠이	-12414
▁후임	-12415
쁩니다	-12416
▁두번째	-12417
▁들어올	-12418
▁빠르고	-12419
▁세상이	-12420
▁호흡을	-12421
▁대형마트	-12422
▁모두에게	-12423
▁물론이고	-12424
▁자전거를	-12425
▁공식적으로	-12426
빌딩	-12427
실적	-12428
있던	-12429
터리	-12430
▁강좌	-12431
▁기지	-12432
▁다닐	-12433
▁던진	-12434
▁위의	-12435
▁주전	-12436
▁찬반	-12437
기업인	-12438
▁대회는	-12439
▁분야를	-12440
▁색다른	-12441
▁성공할	-12442
▁소지가	-12443
▁스페셜	-12444
▁시험이	-12445
▁알리고	-12446
▁유력한	-12447
▁일본인	-12448
▁재학생	-12449
▁확보가	-12450
▁회의에	-12451
하기에는	-12452
▁개정안을	-12453
체육관에서	-12454
불이	-12455
심에	-12456
작가	-12457
철이	-12458
▁성취	-12459
▁신장	-12460
▁얻기	-12461
▁증정	-12462
▁폭넓	-12463
집에서	-12464
▁구름이	-12465
▁구속된	-12466
▁독일의	-12467
▁만만치	-12468
▁손실을	-12469
▁작용할	-12470
▁태풍이	-12471
▁한마디	-12472
▁나라에서	-12473
▁말했다고	-12474
▁사람입니다	-12475
DI	-12476
▁헝	-12477
고와	-12478
박이	-12479
태가	-12480
▁69	-12481
▁대미	-12482
▁들지	-12483
▁오류	-12484
▁저가	-12485
▁채로	-12486
▁확진	-12487
왔어요	-12488
인데요	-12489
하였고	-12490
▁공부할	-12491
▁깨끗한	-12492
▁달라질	-12493
▁도시의	-12494
▁모두를	-12495
▁불투명	-12496
▁오류가	-12497
▁체크인	-12498
▁하기로	-12499
▁간담회를	-12500
▁공부하고	-12501
▁튼	-12502
골이	-12503
그린	-12504
달을	-12505
았기	-12506
희정	-12507
▁88	-12508
▁SW	-12509
▁김연	-12510
▁박탈	-12511
▁사육	-12512
▁전산	-12513
▁점수	-12514
6000	-12515
▁계정을	-12516
▁내놓고	-12517
▁더욱더	-12518
▁무거운	-12519
▁스토리	-12520
▁요소가	-12521
▁입장에	-12522
▁제목의	-12523
▁조양호	-12524
▁미드필더	-12525
▁부모님이	-12526
▁수준이다	-12527
▁시점에서	-12528
▁친구들은	-12529
발의	-12530
아를	-12531
직자	-12532
▁걸림	-12533
▁땅에	-12534
▁말아	-12535
▁본질	-12536
▁상실	-12537
▁어딘	-12538
▁정성	-12539
물질이	-12540
▁110	-12541
▁선택이	-12542
▁신뢰가	-12543
▁쌍둥이	-12544
▁아닐까	-12545
▁어쩌면	-12546
▁정신이	-12547
▁친구들	-12548
▁러시아가	-12549
▁사무실에	-12550
▁사회에서	-12551
▁손흥민은	-12552
▁국내에서는	-12553
▁이유에서다	-12554
▁p	-12555
▁꼴	-12556
선교	-12557
침을	-12558
▁내면	-12559
▁어떡	-12560
▁채팅	-12561
기업을	-12562
도서관	-12563
신도시	-12564
▁강의를	-12565
▁기념해	-12566
▁기재부	-12567
▁조속히	-12568
▁그러므로	-12569
▁대부분은	-12570
▁시작된다	-12571
▁실시하고	-12572
▁포기하지	-12573
▁투자자들의	-12574
49	-12575
▁띠	-12576
강을	-12577
리우	-12578
여대	-12579
예방	-12580
코드	-12581
▁내각	-12582
▁뜨거	-12583
▁사면	-12584
▁살던	-12585
▁승무	-12586
▁양해	-12587
▁이집	-12588
▁좌석	-12589
카데미	-12590
▁눈으로	-12591
▁여름에	-12592
▁지키고	-12593
▁호응을	-12594
▁고마워요	-12595
▁대기오염	-12596
▁임대주택	-12597
▁있겠지만	-12598
▁핸드폰을	-12599
적일	-12600
차와	-12601
콘서	-12602
▁72	-12603
▁IB	-12604
▁기쁘	-12605
▁득표	-12606
▁모를	-12607
▁박종	-12608
▁벚꽃	-12609
▁소진	-12610
▁수제	-12611
▁실감	-12612
▁정시	-12613
▁주무	-12614
▁지붕	-12615
▁쿠폰	-12616
보고서	-12617
케스트	-12618
▁190	-12619
▁3.1	-12620
▁LED	-12621
▁공기가	-12622
▁느끼게	-12623
▁드러낸	-12624
▁때문이	-12625
▁미소를	-12626
▁생각은	-12627
▁업체는	-12628
▁운영할	-12629
▁이용하여	-12630
▁할머니가	-12631
MP	-12632
us	-12633
거야	-12634
겠지	-12635
경의	-12636
들께	-12637
신과	-12638
합을	-12639
▁고무	-12640
▁든든	-12641
▁들면	-12642
▁만화	-12643
▁슬로	-12644
▁이윤	-12645
▁통영	-12646
▁가지는	-12647
▁건설업	-12648
▁구성원	-12649
▁보다는	-12650
▁아니냐	-12651
▁영상은	-12652
▁이루는	-12653
▁전시회	-12654
▁전하는	-12655
▁진행을	-12656
▁첨부된	-12657
▁기록하고	-12658
▁맞습니다	-12659
▁영향력이	-12660
▁재미있게	-12661
▁지난주에	-12662
▁해양수산	-12663
un	-12664
▁굿	-12665
가리	-12666
고객	-12667
라크	-12668
정비	-12669
지급	-12670
체는	-12671
택시	-12672
▁마실	-12673
▁유학	-12674
▁이념	-12675
▁정우	-12676
▁형제	-12677
는지는	-12678
르면서	-12679
업계의	-12680
▁결론이	-12681
▁꿈꾸는	-12682
▁도와줄	-12683
▁비율은	-12684
▁주목할	-12685
▁차량의	-12686
▁햄버거	-12687
▁대학에서	-12688
▁서비스로	-12689
▁우려된다	-12690
▁착수했다	-12691
▁애니메이션	-12692
▁싣	-12693
군사	-12694
홀딩	-12695
▁건국	-12696
▁공고	-12697
▁돈은	-12698
▁돕고	-12699
▁미세	-12700
▁예쁘	-12701
▁요새	-12702
▁제보	-12703
▁측근	-12704
시리즈	-12705
주의가	-12706
▁대응할	-12707
▁말아야	-12708
▁맛있게	-12709
▁부진한	-12710
▁손학규	-12711
▁실장은	-12712
▁올해로	-12713
▁장소로	-12714
▁절차에	-12715
▁지키지	-12716
▁학교는	-12717
▁홈런을	-12718
▁바르셀로	-12719
▁소비자의	-12720
▁시스템에	-12721
▁인정했다	-12722
▁행사에서	-12723
으신	-12724
▁거니	-12725
▁고유	-12726
▁고쳐	-12727
▁낮춰	-12728
▁반가	-12729
▁인문	-12730
▁정전	-12731
▁조재	-12732
기업에	-12733
신문은	-12734
▁게시판	-12735
▁공개해	-12736
▁꼼꼼히	-12737
▁방송에	-12738
▁상처가	-12739
▁원활한	-12740
▁의장이	-12741
▁인보이	-12742
▁조기에	-12743
▁지적을	-12744
▁컨트롤	-12745
해보세요	-12746
▁민정수석	-12747
▁받아들일	-12748
▁사법행정	-12749
▁있으므로	-12750
▁활동하고	-12751
▁가능하다면	-12752
▁자체적으로	-12753
▁린	-12754
겨울	-12755
즈니	-12756
증과	-12757
회말	-12758
▁것일	-12759
▁과천	-12760
▁넓어	-12761
▁몰고	-12762
▁부가	-12763
▁시골	-12764
▁양자	-12765
▁전제	-12766
▁주춤	-12767
▁중립	-12768
▁콜롬	-12769
베스트	-12770
브랜드	-12771
자금을	-12772
▁거라는	-12773
▁구조조	-12774
▁맡는다	-12775
▁목표는	-12776
▁미지수	-12777
▁보니까	-12778
▁스프링	-12779
▁오가는	-12780
▁재활용	-12781
▁점심을	-12782
▁출시된	-12783
▁특별감	-12784
▁협상의	-12785
▁홍영표	-12786
▁2001	-12787
▁금융투자	-12788
▁노동자가	-12789
▁민주당은	-12790
▁선언했다	-12791
▁성장하는	-12792
마드	-12793
압이	-12794
오스	-12795
지노	-12796
▁넉넉	-12797
▁부풀	-12798
▁옵션	-12799
▁위촉	-12800
▁증여	-12801
▁펼친	-12802
았으며	-12803
▁가져올	-12804
▁공개돼	-12805
▁균형을	-12806
▁기술은	-12807
▁남성의	-12808
▁발표가	-12809
▁생산이	-12810
▁신기술	-12811
▁약간의	-12812
▁없었고	-12813
▁연습을	-12814
▁오르고	-12815
▁참석할	-12816
▁파장이	-12817
▁“201	-12818
▁단독주택	-12819
▁받았다는	-12820
▁보여줬다	-12821
▁분석하고	-12822
▁영등포구	-12823
▁조언했다	-12824
▁하겠다는	-12825
▁현실적으로	-12826
AS	-12827
▁닛	-12828
러블	-12829
범이	-12830
SNS	-12831
▁거센	-12832
▁맡겨	-12833
▁반해	-12834
▁비전	-12835
▁신도	-12836
제도를	-12837
▁그것도	-12838
▁낙동강	-12839
▁방안에	-12840
▁없는지	-12841
▁연루된	-12842
▁화재로	-12843
▁노하우를	-12844
▁불필요한	-12845
▁살펴보고	-12846
▁설문조사	-12847
▁있었으면	-12848
▁홈페이지를	-12849
끄럽	-12850
들만	-12851
출이	-12852
▁꾸며	-12853
▁지냈	-12854
▁폭락	-12855
▁플랜	-12856
소시엄	-12857
▁강화할	-12858
▁같다고	-12859
▁겁니까	-12860
▁농산물	-12861
▁먹으러	-12862
▁수준인	-12863
▁업체를	-12864
▁역사상	-12865
▁자신과	-12866
자에게는	-12867
▁느껴지는	-12868
▁대법원은	-12869
▁서울시장	-12870
▁이어진다	-12871
▁일요일에	-12872
▁있으세요	-12873
▁주문했다	-12874
▁현금으로	-12875
▁가능하다고	-12876
▁사람이에요	-12877
▁보내드리겠습니다	-12878
교섭	-12879
님과	-12880
될지	-12881
브라	-12882
수준	-12883
환자	-12884
▁급한	-12885
▁노원	-12886
▁빅뱅	-12887
▁빠질	-12888
▁선전	-12889
▁아울	-12890
▁울릉	-12891
▁잡혀	-12892
▁파기	-12893
밀하게	-12894
▁가톨릭	-12895
▁말씀이	-12896
▁사망자	-12897
▁아닌데	-12898
▁없네요	-12899
▁오늘의	-12900
▁진료를	-12901
▁최대의	-12902
▁했는지	-12903
위원회와	-12904
최저임금	-12905
▁소개하고	-12906
▁스테이크	-12907
▁엔터테인	-12908
▁올라왔다	-12909
▁증거인멸	-12910
▁프로야구	-12911
▁스타디움에서	-12912
▁$	-12913
란시	-12914
여년	-12915
▁섬유	-12916
▁이대	-12917
▁책의	-12918
▁트랙	-12919
▁팀에	-12920
▁회피	-12921
▁개발해	-12922
▁김병준	-12923
▁넘어가	-12924
▁논란은	-12925
▁만남을	-12926
▁벨기에	-12927
▁시점이	-12928
▁약속이	-12929
▁전화가	-12930
노동조합	-12931
▁데이터가	-12932
▁돌아왔다	-12933
▁중요하게	-12934
▁나왔습니다	-12935
교가	-12936
밸리	-12937
버린	-12938
생은	-12939
중을	-12940
▁감찰	-12941
▁깔려	-12942
▁떠날	-12943
▁마켓	-12944
▁말라	-12945
▁법령	-12946
▁송환	-12947
▁숙명	-12948
▁야근	-12949
▁영변	-12950
쪽에서	-12951
▁가입자	-12952
▁무리가	-12953
▁보시면	-12954
▁아들을	-12955
▁오세요	-12956
▁장점을	-12957
▁접근이	-12958
▁홍준표	-12959
▁가능하게	-12960
▁비트코인	-12961
▁접근성이	-12962
▁하락세를	-12963
:1	-12964
마이	-12965
석희	-12966
투쟁	-12967
학회	-12968
ICT	-12969
▁간주	-12970
▁감면	-12971
▁거점	-12972
▁넘은	-12973
▁자부	-12974
▁진열	-12975
▁청춘	-12976
▁가라앉	-12977
▁기술로	-12978
▁대회에	-12979
▁많다고	-12980
▁모습에	-12981
▁정책과	-12982
▁지지율	-12983
차적으로	-12984
▁관계없이	-12985
▁괜찮아요	-12986
▁돌입했다	-12987
▁주최하는	-12988
▁카페에서	-12989
▁희망하는	-12990
▁노동자들이	-12991
교수	-12992
균이	-12993
기인	-12994
야가	-12995
장려	-12996
총회	-12997
▁강점	-12998
▁낭비	-12999
▁되며	-13000
▁번거	-13001
▁생리	-13002
▁시카	-13003
▁친한	-13004
▁화상	-13005
선수권	-13006
하므로	-13007
협회는	-13008
▁게임이	-13009
▁대신해	-13010
▁뒤에도	-13011
▁상품에	-13012
▁설명이	-13013
▁올해의	-13014
▁해운대	-13015
▁화제다	-13016
▁환자를	-13017
▁돌아오는	-13018
▁선수들을	-13019
▁아닌가요	-13020
31	-13021
▁흠	-13022
벨트	-13023
보조	-13024
연료	-13025
움과	-13026
위권	-13027
조리	-13028
카를	-13029
프의	-13030
▁78	-13031
▁식량	-13032
▁전과	-13033
되기를	-13034
업계는	-13035
▁가지가	-13036
▁개혁을	-13037
▁답변이	-13038
▁돼지고	-13039
▁범위가	-13040
▁연결해	-13041
▁연평균	-13042
▁요청이	-13043
▁젊은이	-13044
▁조용히	-13045
▁조처를	-13046
▁1998	-13047
▁개발하고	-13048
▁국방부가	-13049
▁명목으로	-13050
▁이야기는	-13051
▁지도부가	-13052
▁트위터에	-13053
▁확보하고	-13054
▁국민연금이	-13055
▁시작했습니다	-13056
돼서	-13057
란이	-13058
르트	-13059
민과	-13060
산과	-13061
▁발걸	-13062
▁재수	-13063
▁출자	-13064
▁마침내	-13065
▁부모의	-13066
▁상용화	-13067
▁양측이	-13068
▁에이스	-13069
▁연동형	-13070
▁종류가	-13071
▁지시한	-13072
▁추진을	-13073
▁커지자	-13074
적이었다	-13075
▁부족하다	-13076
▁성장하고	-13077
▁세상에서	-13078
▁평가하는	-13079
▁인천국제공항	-13080
▁앵	-13081
▁첼	-13082
사장	-13083
어와	-13084
전담	-13085
홈런	-13086
▁개헌	-13087
▁소아	-13088
▁약화	-13089
▁장성	-13090
▁헤드	-13091
공단이	-13092
병원에	-13093
분부터	-13094
일에도	-13095
▁구조가	-13096
▁기간은	-13097
▁만나게	-13098
▁알아요	-13099
▁영역을	-13100
▁일일이	-13101
▁제재가	-13102
▁노동시간	-13103
▁말했어요	-13104
▁하나님을	-13105
수영	-13106
운송	-13107
창을	-13108
▁미투	-13109
▁복사	-13110
▁부검	-13111
▁적시	-13112
사령부	-13113
▁가구가	-13114
▁개선될	-13115
▁그런지	-13116
▁담배를	-13117
▁대표로	-13118
▁맞았다	-13119
▁사실에	-13120
▁신호를	-13121
▁어두운	-13122
▁원칙을	-13123
▁적발된	-13124
▁점유율	-13125
▁투자에	-13126
쳤습니다	-13127
▁단계에서	-13128
▁목소리도	-13129
▁소셜미디어	-13130
▁소득주도성장	-13131
ct	-13132
롭지	-13133
마의	-13134
배에	-13135
주일	-13136
청을	-13137
항이	-13138
화장	-13139
▁개시	-13140
▁개장	-13141
▁넘지	-13142
▁만드	-13143
▁보류	-13144
▁불펜	-13145
▁비위	-13146
▁했기	-13147
들보다	-13148
캐피탈	-13149
활동에	-13150
▁강화해	-13151
▁내부에	-13152
▁뭐라고	-13153
▁보조금	-13154
▁비즈니	-13155
▁실수를	-13156
▁인생의	-13157
▁일었다	-13158
▁입었다	-13159
▁좋아해	-13160
▁필요는	-13161
▁흐르는	-13162
▁1500	-13163
▁선보이고	-13164
▁안전하고	-13165
▁잇따르고	-13166
▁정보기술	-13167
▁투자하는	-13168
▁높아지면서	-13169
EA	-13170
공화	-13171
등한	-13172
청과	-13173
하늘	-13174
▁강성	-13175
▁과다	-13176
▁나뉘	-13177
▁날인	-13178
▁담임	-13179
▁손실	-13180
▁이별	-13181
▁정통	-13182
▁태도	-13183
관리를	-13184
▁경기장	-13185
▁설치를	-13186
▁사용하여	-13187
▁상당수가	-13188
▁이사장이	-13189
▁전달하는	-13190
▁계획입니다	-13191
▁삼성전자와	-13192
▁어린이들이	-13193
ot	-13194
▁쉼	-13195
나눔	-13196
비행	-13197
▁고전	-13198
▁라돈	-13199
▁맡게	-13200
▁빼돌	-13201
▁전동	-13202
▁헬기	-13203
주의를	-13204
▁건수가	-13205
▁계획은	-13206
▁구매를	-13207
▁권한이	-13208
▁내려진	-13209
▁돈으로	-13210
▁봤는데	-13211
▁부작용	-13212
▁비주얼	-13213
▁사안이	-13214
▁성관계	-13215
▁흥미를	-13216
▁기대되는	-13217
▁발표하는	-13218
▁앞으로의	-13219
▁지속해서	-13220
▁중요하다는	-13221
▁갯	-13222
두환	-13223
로우	-13224
포가	-13225
▁간판	-13226
▁날은	-13227
▁넘긴	-13228
▁소모	-13229
▁야기	-13230
▁우버	-13231
▁유감	-13232
▁읽을	-13233
▁좌절	-13234
▁줬다	-13235
▁차등	-13236
▁추운	-13237
▁테크	-13238
▁한잔	-13239
공학과	-13240
문화를	-13241
▁경험과	-13242
▁놀이터	-13243
▁다니고	-13244
▁단체가	-13245
▁더해져	-13246
▁만났다	-13247
▁신속히	-13248
▁지난번	-13249
계올림픽	-13250
란시스코	-13251
▁담겨있다	-13252
▁시스템은	-13253
▁시중은행	-13254
▁있는지를	-13255
▁줄어들고	-13256
▁친구들을	-13257
▁평양에서	-13258
4%	-13259
▁꾀	-13260
경과	-13261
두는	-13262
부진	-13263
▁결함	-13264
▁꿈은	-13265
▁도마	-13266
▁되게	-13267
▁상륙	-13268
▁왕세	-13269
▁지고	-13270
▁차려	-13271
▁트래	-13272
▁풀려	-13273
기온이	-13274
사진을	-13275
▁됩니까	-13276
▁문자를	-13277
▁소재로	-13278
▁아이콘	-13279
▁재확인	-13280
▁패러다	-13281
▁회사와	-13282
▁그리스도	-13283
▁내부에서	-13284
▁상승했다	-13285
▁없었다는	-13286
▁의심되는	-13287
▁컴퓨터를	-13288
▁필리핀에	-13289
▁하락했다	-13290
▁활동하는	-13291
3%	-13292
OU	-13293
▁솜	-13294
▁험	-13295
디언	-13296
르며	-13297
맞은	-13298
설비	-13299
수학	-13300
언더	-13301
700	-13302
▁길고	-13303
▁난방	-13304
▁녹지	-13305
▁드림	-13306
▁만찬	-13307
▁멜로	-13308
▁반전	-13309
▁중의	-13310
▁착륙	-13311
▁하실	-13312
과정을	-13313
▁대안을	-13314
▁보고를	-13315
▁서서히	-13316
▁십자가	-13317
▁여부는	-13318
▁영원히	-13319
▁이유도	-13320
▁정도를	-13321
▁언급하며	-13322
▁친구에게	-13323
id	-13324
▁릴	-13325
▁톰	-13326
가입	-13327
간접	-13328
구성	-13329
그라	-13330
오지	-13331
전용	-13332
정도	-13333
테일	-13334
▁광복	-13335
▁될까	-13336
▁설탕	-13337
▁숨을	-13338
▁심상	-13339
▁에듀	-13340
▁인접	-13341
▁최선	-13342
▁치는	-13343
라이나	-13344
문에서	-13345
프리카	-13346
행사를	-13347
환경이	-13348
▁궁금해	-13349
▁당신도	-13350
▁바뀌는	-13351
▁비율을	-13352
▁줄줄이	-13353
▁지식을	-13354
▁편리한	-13355
▁하락한	-13356
▁무대에서	-13357
▁연방준비	-13358
▁판매하고	-13359
▁자발적으로	-13360
락이	-13361
업종	-13362
플라	-13363
▁감자	-13364
▁드물	-13365
▁때만	-13366
▁발탁	-13367
▁보석	-13368
▁부의	-13369
▁쉬고	-13370
▁파급	-13371
▁한양	-13372
▁환호	-13373
▁휘두	-13374
기준을	-13375
정부는	-13376
▁강경화	-13377
▁무리한	-13378
▁사항은	-13379
▁서울은	-13380
▁세종시	-13381
▁수익이	-13382
▁위험에	-13383
▁임대료	-13384
▁채널을	-13385
▁행사로	-13386
▁만족도가	-13387
▁부적절한	-13388
▁불법촬영	-13389
▁영수증을	-13390
▁제주도는	-13391
▁참석하고	-13392
▁확정됐다	-13393
▁제공합니다	-13394
MZ	-13395
광장	-13396
월과	-13397
첨단	-13398
파인	-13399
효가	-13400
(15	-13401
▁라면	-13402
▁문턱	-13403
▁여섯	-13404
▁열흘	-13405
▁잡기	-13406
신문이	-13407
인지를	-13408
▁개그맨	-13409
▁게이트	-13410
▁무사히	-13411
▁받아서	-13412
▁발견돼	-13413
▁생산을	-13414
▁성격을	-13415
▁실험을	-13416
▁임금을	-13417
▁하루를	-13418
▁향상을	-13419
▁현실이	-13420
▁국무총리	-13421
▁러시아의	-13422
▁민주당의	-13423
▁부산지역	-13424
▁적용하는	-13425
▁참석하는	-13426
▁호소했다	-13427
▁활발하게	-13428
▁산업통상자원부	-13429
32	-13430
▁a	-13431
▁d	-13432
가정	-13433
국장	-13434
기아	-13435
실장	-13436
외과	-13437
▁급감	-13438
▁내걸	-13439
▁동화	-13440
▁메가	-13441
▁북구	-13442
▁분할	-13443
▁속출	-13444
▁씨와	-13445
▁잘라	-13446
▁폭탄	-13447
▁행안	-13448
겠다며	-13449
▁가정의	-13450
▁그러던	-13451
▁다시는	-13452
▁단어를	-13453
▁대학원	-13454
▁라이트	-13455
▁메뉴를	-13456
▁모양의	-13457
▁보상을	-13458
▁양국이	-13459
▁영어가	-13460
▁유럽의	-13461
▁유튜버	-13462
▁이곳을	-13463
▁일회용	-13464
▁자리잡	-13465
▁장소는	-13466
▁재검토	-13467
▁충남도	-13468
▁꼬집었다	-13469
▁연말까지	-13470
▁이해하기	-13471
▁장점이다	-13472
▁한국전쟁	-13473
인재	-13474
∼19	-13475
▁박영	-13476
▁산학	-13477
▁성실	-13478
▁식의	-13479
▁안락	-13480
▁옷이	-13481
▁위임	-13482
▁일과	-13483
▁피자	-13484
▁향이	-13485
능력을	-13486
▁강서구	-13487
▁등록된	-13488
▁일본과	-13489
▁그러니까	-13490
▁금융위는	-13491
▁내놓았다	-13492
▁만듭니다	-13493
▁벌어지고	-13494
▁식당에서	-13495
▁쏟아졌다	-13496
▁아버지는	-13497
▁인프라를	-13498
▁정신질환	-13499
▁챔피언십	-13500
▁사로잡는다	-13501
LO	-13502
겠죠	-13503
메시	-13504
민은	-13505
번의	-13506
변을	-13507
은혜	-13508
졌어	-13509
추어	-13510
▁그로	-13511
▁노벨	-13512
▁당당	-13513
▁동구	-13514
▁동양	-13515
▁수신	-13516
▁이력	-13517
▁한두	-13518
▁해지	-13519
객들이	-13520
▁160	-13521
▁구축을	-13522
▁다리가	-13523
▁다주택	-13524
▁때에는	-13525
▁떠났다	-13526
▁마리가	-13527
▁선순환	-13528
▁시청률	-13529
▁실종된	-13530
▁아쉬운	-13531
▁아이는	-13532
▁않거나	-13533
▁업계가	-13534
▁정신적	-13535
▁하나씩	-13536
▁기다려야	-13537
▁돌아가는	-13538
▁발견했다	-13539
▁브랜드가	-13540
▁선택하는	-13541
▁없었지만	-13542
▁저소득층	-13543
▁지시했다	-13544
▁생각했어요	-13545
▁중소기업이	-13546
▁월스트리트저널	-13547
▁잤	-13548
▁힙	-13549
발로	-13550
▁가도	-13551
▁군인	-13552
▁대두	-13553
▁성동	-13554
▁오기	-13555
▁줘야	-13556
▁화를	-13557
산에서	-13558
인데도	-13559
카메라	-13560
▁고려대	-13561
▁나라에	-13562
▁대단히	-13563
▁드러내	-13564
▁매출액	-13565
▁발의한	-13566
▁접어들	-13567
▁하시는	-13568
▁학교의	-13569
▁설명하고	-13570
▁제출했다	-13571
▁대한민국의	-13572
▁청소년들이	-13573
LG	-13574
▁젠	-13575
세권	-13576
응답	-13577
인치	-13578
진단	-13579
▁귀찮	-13580
▁모터	-13581
▁몽골	-13582
▁상정	-13583
▁알바	-13584
▁여전	-13585
▁왔어	-13586
▁주먹	-13587
▁품고	-13588
상거래	-13589
▁경영권	-13590
▁경우를	-13591
▁그림이	-13592
▁늘리고	-13593
▁보도를	-13594
▁분야는	-13595
▁여자는	-13596
▁와중에	-13597
▁정리해	-13598
▁지원한	-13599
▁총장은	-13600
▁자아냈다	-13601
▁지속되고	-13602
▁최소한의	-13603
▁효율적인	-13604
비드	-13605
사자	-13606
색의	-13607
서치	-13608
쳤던	-13609
▁IS	-13610
▁국악	-13611
▁눈앞	-13612
▁맛과	-13613
▁세입	-13614
▁유성	-13615
▁입양	-13616
▁적도	-13617
▁친척	-13618
▁폐업	-13619
기업과	-13620
심사를	-13621
▁교회에	-13622
▁등장해	-13623
▁말하지	-13624
▁방식은	-13625
▁산불이	-13626
▁선거에	-13627
▁없다며	-13628
▁원자력	-13629
▁제한이	-13630
▁차가운	-13631
▁파악할	-13632
사업으로	-13633
산화탄소	-13634
▁대체복무	-13635
▁드라마를	-13636
▁명예훼손	-13637
▁사진으로	-13638
▁않았는데	-13639
▁정부에서	-13640
▁포인트를	-13641
▁블랙리스트	-13642
▁종합적으로	-13643
▁중소기업의	-13644
▁잭	-13645
곡을	-13646
공이	-13647
레가	-13648
련의	-13649
보유	-13650
상환	-13651
즈와	-13652
타로	-13653
행동	-13654
▁61	-13655
▁감기	-13656
▁건전	-13657
▁공이	-13658
▁국빈	-13659
▁권장	-13660
▁다름	-13661
▁동창	-13662
▁사냥	-13663
▁전속	-13664
▁팔을	-13665
박근혜	-13666
▁것임을	-13667
▁공급을	-13668
▁기다릴	-13669
▁문제도	-13670
▁범죄를	-13671
▁사우스	-13672
▁주제를	-13673
▁결정적인	-13674
▁도로에서	-13675
▁직원에게	-13676
▁털어놨다	-13677
▁한반도의	-13678
▁실질적으로	-13679
우기	-13680
타는	-13681
투갈	-13682
▁고창	-13683
▁눈높	-13684
▁늘리	-13685
▁띄는	-13686
▁라벨	-13687
▁속의	-13688
▁열람	-13689
▁예의	-13690
▁이지	-13691
▁찍는	-13692
까지의	-13693
▁tvN	-13694
▁경사노	-13695
▁고혈압	-13696
▁노사가	-13697
▁됐어요	-13698
▁몰라요	-13699
▁무게가	-13700
▁생긴다	-13701
▁수상한	-13702
▁요건을	-13703
▁한눈에	-13704
▁항공사	-13705
공원에서	-13706
▁구매하는	-13707
▁알고리즘	-13708
▁운영한다	-13709
▁일어났다	-13710
▁일입니다	-13711
▁관광객들이	-13712
▁브리핑에서	-13713
▁프로젝트에	-13714
7%	-13715
▁웰	-13716
▁흩	-13717
변이	-13718
선물	-13719
영과	-13720
처에	-13721
▁감싸	-13722
▁걷는	-13723
▁경과	-13724
▁까닭	-13725
▁보컬	-13726
▁생계	-13727
▁수월	-13728
▁싶을	-13729
▁자궁	-13730
▁캄보	-13731
▁강력히	-13732
▁교수님	-13733
▁비전을	-13734
▁우리와	-13735
▁장례식	-13736
▁장면은	-13737
▁처리할	-13738
▁배우들이	-13739
▁요구하며	-13740
▁하나님께	-13741
▁한국당은	-13742
▁국무장관이	-13743
▁우리나라가	-13744
▁국토교통부는	-13745
▁샷	-13746
개와	-13747
밥을	-13748
비한	-13749
충전	-13750
▁나눌	-13751
▁나을	-13752
▁다친	-13753
▁때와	-13754
▁백두	-13755
▁부유	-13756
▁상금	-13757
▁승소	-13758
▁시그	-13759
▁아스	-13760
▁연쇄	-13761
▁온실	-13762
▁음원	-13763
▁장려	-13764
▁착각	-13765
▁형식	-13766
위원이	-13767
정책에	-13768
폴리오	-13769
.5%)	-13770
▁결제를	-13771
▁경북도	-13772
▁문서를	-13773
▁배경에	-13774
▁세웠다	-13775
▁연결된	-13776
▁전달할	-13777
▁점수가	-13778
▁접수된	-13779
▁주변을	-13780
▁노동자의	-13781
▁비핵화에	-13782
▁생태계를	-13783
▁수익률이	-13784
▁이해하는	-13785
들여	-13786
사례	-13787
▁79	-13788
▁‘5	-13789
▁귀를	-13790
▁보충	-13791
▁불합	-13792
▁붙은	-13793
▁안을	-13794
▁원가	-13795
▁적고	-13796
▁전복	-13797
▁총회	-13798
▁파고	-13799
▁표출	-13800
▁형평	-13801
▁희귀	-13802
공간을	-13803
되나요	-13804
모비스	-13805
왔지만	-13806
주에서	-13807
▁ICO	-13808
▁때로는	-13809
▁부진이	-13810
▁사랑에	-13811
▁사법부	-13812
▁선물로	-13813
▁소문이	-13814
▁수입이	-13815
▁있느냐	-13816
▁즐기고	-13817
▁증가에	-13818
▁지나가	-13819
▁출석해	-13820
▁크리에	-13821
▁피하기	-13822
지역으로	-13823
▁나타난다	-13824
▁대상이다	-13825
▁사람들도	-13826
▁찾아가는	-13827
▁삼성전자의	-13828
▁국토교통부가	-13829
ut	-13830
급식	-13831
노인	-13832
▁걷어	-13833
▁교차	-13834
▁낙관	-13835
▁네이	-13836
▁복음	-13837
▁불에	-13838
▁설렘	-13839
▁염색	-13840
▁자재	-13841
▁죽을	-13842
▁증선	-13843
▁차분	-13844
소비자	-13845
▁강제로	-13846
▁대회가	-13847
▁드리고	-13848
▁맞물려	-13849
▁신입사	-13850
▁일정한	-13851
▁전력을	-13852
▁운영되고	-13853
▁지하철을	-13854
▁체계적인	-13855
▁토로했다	-13856
▁보건복지부	-13857
▁보았습니다	-13858
▁럭	-13859
연수	-13860
침해	-13861
타이	-13862
하에	-13863
▁AS	-13864
▁가늠	-13865
▁과열	-13866
▁근접	-13867
▁높지	-13868
▁다뤄	-13869
▁러브	-13870
▁어색	-13871
▁재선	-13872
▁취미	-13873
▁하반	-13874
디스크	-13875
주들이	-13876
지원을	-13877
▁15%	-13878
▁3·4	-13879
▁개념을	-13880
▁대출이	-13881
▁말하면	-13882
▁매장을	-13883
▁아세안	-13884
▁일상을	-13885
▁정하는	-13886
▁판사는	-13887
▁표정이	-13888
상공회의	-13889
적이라고	-13890
▁못합니다	-13891
▁예상하고	-13892
▁이용하면	-13893
▁인터넷을	-13894
▁일대에서	-13895
▁제시하는	-13896
▁지식재산	-13897
▁추정하고	-13898
▁청와대에서	-13899
▁프로젝트가	-13900
46	-13901
SR	-13902
은이	-13903
학대	-13904
▁여건	-13905
▁종부	-13906
▁퍼져	-13907
버스를	-13908
북한이	-13909
7000	-13910
▁걸어서	-13911
▁나오기	-13912
▁마련돼	-13913
▁만남이	-13914
▁무혐의	-13915
▁시간도	-13916
▁여당이	-13917
▁영업을	-13918
▁위반한	-13919
▁은행에	-13920
▁정치인	-13921
▁지장이	-13922
▁찾아볼	-13923
▁찾아야	-13924
▁총리와	-13925
▁최우선	-13926
▁축제가	-13927
▁혼란을	-13928
임대주택	-13929
▁안전사고	-13930
▁참가하는	-13931
▁핵심이다	-13932
▁확보했다	-13933
망에	-13934
방은	-13935
▁걸친	-13936
▁경로	-13937
▁경총	-13938
▁길로	-13939
▁논리	-13940
▁다큐	-13941
▁당이	-13942
▁비로	-13943
▁이시	-13944
▁폭스	-13945
▁관여한	-13946
▁기승을	-13947
▁비무장	-13948
▁상승한	-13949
▁의문이	-13950
▁추진한	-13951
▁하니까	-13952
▁함께한	-13953
▁기념촬영	-13954
▁논의했다	-13955
▁직권남용	-13956
프란시스코	-13957
▁아이스크림	-13958
구매	-13959
라와	-13960
차피	-13961
▁간이	-13962
▁부양	-13963
▁수질	-13964
▁예금	-13965
▁온몸	-13966
▁적폐	-13967
▁회전	-13968
겠는데	-13969
소득이	-13970
▁교육의	-13971
▁극대화	-13972
▁밝히지	-13973
▁작가는	-13974
▁정보는	-13975
▁대변인이	-13976
▁없었다고	-13977
▁에스케이	-13978
▁인정하는	-13979
▁주변에서	-13980
▁컨소시엄	-13981
특별위원회	-13982
▁피해자들이	-13983
▁쪼	-13984
내야	-13985
티를	-13986
호에	-13987
효율	-13988
and	-13989
▁LC	-13990
▁교황	-13991
▁두루	-13992
▁뛰는	-13993
▁안성	-13994
▁양념	-13995
▁클릭	-13996
▁하천	-13997
대한민	-13998
실장은	-13999
으려는	-14000
하고도	-14001
▁아파서	-14002
▁저자는	-14003
▁출장을	-14004
▁탄력을	-14005
▁표현이	-14006
지원센터	-14007
▁직원들에게	-14008
▁뻗	-14009
슨이	-14010
약이	-14011
웠고	-14012
유로	-14013
챌린	-14014
(11	-14015
▁공제	-14016
▁낚시	-14017
▁데에	-14018
▁되살	-14019
▁살기	-14020
▁세력	-14021
▁집어	-14022
▁타깃	-14023
▁특사	-14024
▁국공립	-14025
▁규정에	-14026
▁끝으로	-14027
▁달콤한	-14028
▁생각한	-14029
▁싶다고	-14030
▁아레나	-14031
▁올라와	-14032
▁음주운	-14033
▁이동할	-14034
▁정상의	-14035
병원에서	-14036
▁과도하게	-14037
▁누군가가	-14038
▁사용하면	-14039
▁솔루션을	-14040
마는	-14041
압의	-14042
예정	-14043
·27	-14044
▁가산	-14045
▁김주	-14046
▁김창	-14047
▁년간	-14048
▁등산	-14049
▁묘사	-14050
▁사격	-14051
▁사외	-14052
▁성립	-14053
▁셋째	-14054
▁속이	-14055
▁이득	-14056
▁합산	-14057
검사를	-14058
▁것이기	-14059
▁나오자	-14060
▁말부터	-14061
▁문구가	-14062
▁부적절	-14063
▁빛나는	-14064
▁사업비	-14065
▁위대한	-14066
▁프레스	-14067
▁공간에서	-14068
▁멤버들이	-14069
▁선고했다	-14070
▁어우러진	-14071
▁흥미로운	-14072
▁때문이었다	-14073
▁부장판사는	-14074
▁부족하다는	-14075
▁놔	-14076
데요	-14077
민을	-14078
특례	-14079
▁낮게	-14080
▁비치	-14081
▁상인	-14082
▁손이	-14083
▁이길	-14084
▁찬양	-14085
▁출력	-14086
▁표면	-14087
동으로	-14088
라이프	-14089
반도체	-14090
제도가	-14091
중학교	-14092
▁공장이	-14093
▁교수와	-14094
▁그렇다	-14095
▁내세운	-14096
▁못해요	-14097
▁방문이	-14098
▁보일러	-14099
▁수업은	-14100
▁것이라며	-14101
▁이해관계	-14102
▁체크아웃	-14103
▁하나금융	-14104
▁후보자는	-14105
▁후보자의	-14106
▁사무실에서	-14107
PA	-14108
VR	-14109
▁델	-14110
▁붐	-14111
▁붓	-14112
불을	-14113
영리	-14114
혈관	-14115
▁사임	-14116
▁사형	-14117
▁삭감	-14118
▁서술	-14119
▁윌리	-14120
▁종결	-14121
▁채취	-14122
▁해병	-14123
▁힐링	-14124
계에서	-14125
금리가	-14126
다시피	-14127
단체장	-14128
으므로	-14129
▁공감을	-14130
▁댓글을	-14131
▁미래가	-14132
▁부산항	-14133
▁수량을	-14134
▁스캔들	-14135
▁쓰이는	-14136
▁요구할	-14137
▁전쟁을	-14138
▁제주시	-14139
▁주도한	-14140
▁지방의	-14141
▁향하는	-14142
▁확보에	-14143
▁불과하다	-14144
▁실시한다	-14145
▁완료되면	-14146
▁의원들은	-14147
▁정부서울	-14148
▁제출받은	-14149
▁표정으로	-14150
ra	-14151
개는	-14152
마일	-14153
빈이	-14154
스런	-14155
회초	-14156
훈은	-14157
▁공표	-14158
▁끌려	-14159
▁뒤인	-14160
▁산출	-14161
▁새만	-14162
▁쇼트	-14163
▁슈팅	-14164
▁연체	-14165
▁열애	-14166
노동자	-14167
▁다문화	-14168
▁담당자	-14169
▁번째는	-14170
▁선언한	-14171
▁시신이	-14172
▁조치로	-14173
▁터미널	-14174
▁펼쳐질	-14175
▁표정을	-14176
▁대대적인	-14177
▁마련하고	-14178
▁배경에는	-14179
▁비상저감	-14180
▁임시정부	-14181
▁준비되어	-14182
▁지지율이	-14183
OA	-14184
기상	-14185
남기	-14186
되길	-14187
시피	-14188
우면	-14189
혜원	-14190
▁86	-14191
▁95	-14192
▁개소	-14193
▁극장	-14194
▁기구	-14195
▁두는	-14196
▁때려	-14197
▁매트	-14198
▁선점	-14199
▁안착	-14200
▁잔디	-14201
▁재임	-14202
▁적대	-14203
▁판교	-14204
▁픽업	-14205
됐는지	-14206
비용이	-14207
어지는	-14208
에게서	-14209
▁건강이	-14210
▁교육감	-14211
▁그레이	-14212
▁달라는	-14213
▁만하다	-14214
▁먹어야	-14215
▁박람회	-14216
▁방송이	-14217
▁생활이	-14218
▁수익률	-14219
▁아래에	-14220
▁전보다	-14221
▁조언을	-14222
▁환자는	-14223
▁국제사회	-14224
▁대통령에	-14225
▁자신감이	-14226
공무	-14227
광고	-14228
▁of	-14229
▁넘기	-14230
▁스카	-14231
▁아사	-14232
▁플라	-14233
▁해커	-14234
달러를	-14235
▁개입한	-14236
▁구조적	-14237
▁넘어선	-14238
▁대응에	-14239
▁레이저	-14240
▁방으로	-14241
▁부가가	-14242
▁실패한	-14243
▁아들의	-14244
▁요청할	-14245
▁용기를	-14246
▁유나이	-14247
▁지수가	-14248
▁직원은	-14249
▁피부가	-14250
▁확대가	-14251
▁흉기로	-14252
▁건강하게	-14253
▁부인했다	-14254
▁준비해야	-14255
KB	-14256
명령	-14257
쳤고	-14258
▁고지	-14259
▁김은	-14260
▁김희	-14261
▁눈치	-14262
▁모금	-14263
▁부임	-14264
▁서양	-14265
▁성형	-14266
▁훌쩍	-14267
박물관	-14268
비용을	-14269
청와대	-14270
하자면	-14271
4000	-14272
▁김관영	-14273
▁도입에	-14274
▁마음의	-14275
▁명령을	-14276
▁사이로	-14277
▁생활에	-14278
▁설치한	-14279
▁여부와	-14280
▁제외하면	-14281
▁통화에서	-14282
▁경제부총리	-14283
▁국무총리가	-14284
▁최저임금이	-14285
▁프로그램으로	-14286
ow	-14287
으론	-14288
직이	-14289
타당	-14290
판사	-14291
▁62	-14292
▁98	-14293
▁알기	-14294
▁얼어	-14295
▁워너	-14296
▁해리	-14297
민들이	-14298
비서관	-14299
프라이	-14300
해보면	-14301
▁강세를	-14302
▁공간에	-14303
▁과정은	-14304
▁도착해	-14305
▁마두로	-14306
▁매체는	-14307
▁민원이	-14308
▁승리의	-14309
▁시신을	-14310
▁자기가	-14311
▁자사고	-14312
▁전달한	-14313
▁조화를	-14314
▁차례로	-14315
▁축구를	-14316
▁편의를	-14317
드리도록	-14318
했음에도	-14319
회관에서	-14320
▁도착하면	-14321
▁미래에셋	-14322
▁보이면서	-14323
▁선보이며	-14324
▁편안하게	-14325
▁호기심을	-14326
▁그렇습니다	-14327
▁방탄소년단	-14328
▁f	-14329
농도	-14330
독한	-14331
로만	-14332
우로	-14333
▁기저	-14334
▁덕분	-14335
▁마포	-14336
▁본선	-14337
▁사귀	-14338
▁사드	-14339
▁얼른	-14340
▁여신	-14341
▁자매	-14342
▁주사	-14343
▁차는	-14344
▁퇴원	-14345
▁파라	-14346
병원이	-14347
수수료	-14348
8000	-14349
▁맞는지	-14350
▁미국산	-14351
▁삼성의	-14352
▁예상치	-14353
▁완화를	-14354
▁일부러	-14355
▁정도에	-14356
▁지적에	-14357
▁지키기	-14358
▁표현한	-14359
들입니다	-14360
▁OLED	-14361
▁금융기관	-14362
▁넘어섰다	-14363
▁못했지만	-14364
▁받았지만	-14365
▁안타까운	-14366
▁괜찮습니다	-14367
▁국제사회의	-14368
▁샌프란시스코	-14369
▁헛	-14370
▁홋	-14371
겠네	-14372
돼지	-14373
두를	-14374
르다	-14375
면세	-14376
브로	-14377
비상	-14378
이용	-14379
▁걷고	-14380
▁궁극	-14381
▁김도	-14382
▁독도	-14383
▁딸의	-14384
▁발이	-14385
▁사야	-14386
▁승강	-14387
▁에릭	-14388
▁엘지	-14389
▁예선	-14390
▁온갖	-14391
▁임용	-14392
▁커서	-14393
▁터치	-14394
격으로	-14395
플랫폼	-14396
하지도	-14397
▁2.5	-14398
▁경험한	-14399
▁과제가	-14400
▁동물을	-14401
▁동생이	-14402
▁마련에	-14403
▁머리카	-14404
▁않으며	-14405
▁장자연	-14406
▁해외로	-14407
원입니다	-14408
▁대부분을	-14409
▁사업자가	-14410
▁알려지지	-14411
▁여성가족	-14412
▁일정으로	-14413
▁주민등록	-14414
마블	-14415
복이	-14416
본명	-14417
빨리	-14418
션은	-14419
쿼터	-14420
▁같지	-14421
▁견줘	-14422
▁대성	-14423
▁래퍼	-14424
▁매칭	-14425
▁밀착	-14426
▁불로	-14427
▁색이	-14428
▁승점	-14429
▁없지	-14430
▁터널	-14431
▁하원	-14432
▁합성	-14433
▁헌신	-14434
인프라	-14435
차이나	-14436
▁350	-14437
▁개최된	-14438
▁관해서	-14439
▁당연한	-14440
▁상황과	-14441
▁일정은	-14442
▁자산을	-14443
▁쾌적한	-14444
계에서는	-14445
▁근로자가	-14446
▁남아있는	-14447
▁우리은행	-14448
▁이끌었다	-14449
▁자동차를	-14450
▁저희에게	-14451
▁좋아하고	-14452
▁포트폴리오	-14453
니를	-14454
만히	-14455
오던	-14456
지부	-14457
▁극중	-14458
▁반갑	-14459
▁상을	-14460
▁시연	-14461
▁신작	-14462
▁줘서	-14463
깁니다	-14464
봤는데	-14465
업체에	-14466
했거나	-14467
▁남편은	-14468
▁논란의	-14469
▁무소속	-14470
▁밀어붙	-14471
▁부품을	-14472
▁사교육	-14473
▁사실도	-14474
▁사유가	-14475
▁이상은	-14476
▁인재를	-14477
▁찾아온	-14478
▁캐스팅	-14479
▁폐기물	-14480
▁후보와	-14481
▁개발하는	-14482
▁모아지고	-14483
▁재판에서	-14484
▁상태입니다	-14485
나를	-14486
좋은	-14487
트라	-14488
혜택	-14489
▁경신	-14490
▁넘쳐	-14491
▁당해	-14492
▁물려	-14493
▁실증	-14494
▁유승	-14495
▁응용	-14496
▁주를	-14497
▁주총	-14498
▁챙긴	-14499
▁추경	-14500
▁키울	-14501
하게도	-14502
▁검토해	-14503
▁계엄령	-14504
▁국민을	-14505
▁동성애	-14506
▁바이러	-14507
▁보여요	-14508
▁설치돼	-14509
▁손잡고	-14510
▁이동이	-14511
▁저질렀	-14512
▁적당한	-14513
▁전주시	-14514
▁조직이	-14515
▁주문할	-14516
▁하도급	-14517
▁효과는	-14518
중소기업	-14519
▁구속됐다	-14520
▁국민에게	-14521
▁맨체스터	-14522
▁사이트를	-14523
▁있었으나	-14524
▁뮤직비디오	-14525
RS	-14526
갈등	-14527
문과	-14528
에미	-14529
증후	-14530
▁군의	-14531
▁낮고	-14532
▁예민	-14533
▁환상	-14534
공동체	-14535
만명에	-14536
-201	-14537
▁고기를	-14538
▁권력을	-14539
▁내부의	-14540
▁목표가	-14541
▁없이는	-14542
▁에피소	-14543
▁자이언	-14544
▁취업을	-14545
▁테니까	-14546
▁프로필	-14547
▁피해는	-14548
▁개최되는	-14549
▁대표팀은	-14550
▁사이즈가	-14551
▁상품으로	-14552
▁성장세를	-14553
▁악영향을	-14554
▁우려하는	-14555
▁제한하는	-14556
▁지원하기	-14557
▁전자상거래	-14558
▁모르겠습니다	-14559
2’	-14560
▁탕	-14561
경협	-14562
공모	-14563
끔찍	-14564
철을	-14565
품질	-14566
▁“1	-14567
▁가죽	-14568
▁구할	-14569
▁깎아	-14570
▁논술	-14571
▁농가	-14572
▁다각	-14573
▁수분	-14574
▁실어	-14575
▁입구	-14576
▁장이	-14577
▁청산	-14578
▁테슬	-14579
▁트윈	-14580
▁틀어	-14581
대책을	-14582
3000	-14583
▁가난한	-14584
▁근거를	-14585
▁다음주	-14586
▁단백질	-14587
▁되돌아	-14588
▁문화의	-14589
▁선거를	-14590
▁시너지	-14591
▁심의를	-14592
▁알아보	-14593
▁업체와	-14594
▁연구에	-14595
▁찾아와	-14596
▁처음에	-14597
▁파티를	-14598
▁하려면	-14599
총회에서	-14600
▁바라보고	-14601
▁이동하는	-14602
▁자아낸다	-14603
▁사물인터넷	-14604
▁오스트리아	-14605
▁이르기까지	-14606
▁최종적으로	-14607
▁현대모비스	-14608
감치	-14609
렇게	-14610
로봇	-14611
리얼	-14612
제이	-14613
초를	-14614
▁YG	-14615
▁끄는	-14616
▁냉동	-14617
▁모레	-14618
▁방영	-14619
▁재조	-14620
▁정서	-14621
▁통증	-14622
▁판정	-14623
레이터	-14624
시험을	-14625
어드십	-14626
팀에서	-14627
행위가	-14628
▁LNG	-14629
▁누리꾼	-14630
▁명단에	-14631
▁바다에	-14632
▁엄격한	-14633
▁인상과	-14634
▁잘하고	-14635
▁조사해	-14636
▁한겨레	-14637
▁설치하고	-14638
▁언론들은	-14639
▁주어진다	-14640
▁진행되며	-14641
▁확인해야	-14642
▁모르겠지만	-14643
▁블라디미르	-14644
TC	-14645
ce	-14646
고교	-14647
신탁	-14648
행한	-14649
▁공조	-14650
▁김천	-14651
▁부친	-14652
▁양심	-14653
▁여쭤	-14654
▁전락	-14655
▁종업	-14656
▁햇빛	-14657
시장과	-14658
▁140	-14659
▁기반이	-14660
▁동해안	-14661
▁버스는	-14662
▁성능을	-14663
▁쌍용차	-14664
▁여행은	-14665
▁오바마	-14666
▁위치에	-14667
▁하루가	-14668
시간으로	-14669
▁4000	-14670
▁과거에는	-14671
▁불거졌다	-14672
▁브랜드의	-14673
▁사이트에	-14674
▁서울경제	-14675
▁유니폼을	-14676
▁식품의약품	-14677
34	-14678
▁롱	-14679
▁쭉	-14680
난다	-14681
주신	-14682
행복	-14683
▁꽃을	-14684
▁데서	-14685
▁돌연	-14686
▁만인	-14687
▁분열	-14688
▁일일	-14689
▁잡힌	-14690
▁확립	-14691
했으니	-14692
▁걸었다	-14693
▁경기침	-14694
▁그래요	-14695
▁나라는	-14696
▁리버풀	-14697
▁마크롱	-14698
▁모스크	-14699
▁방향이	-14700
▁비난을	-14701
▁익숙한	-14702
▁초대형	-14703
▁통화를	-14704
▁그렇다고	-14705
▁다가오는	-14706
▁미국과의	-14707
▁상태였다	-14708
▁이용하고	-14709
▁채용비리	-14710
▁받아들이지	-14711
▁시작했어요	-14712
개편	-14713
관절	-14714
농협	-14715
왔고	-14716
지휘	-14717
함은	-14718
현과	-14719
▁각기	-14720
▁걸음	-14721
▁국영	-14722
▁만의	-14723
▁이통	-14724
▁질을	-14725
▁통역	-14726
▁필터	-14727
▁횡단	-14728
발전을	-14729
업체인	-14730
▁간호사	-14731
▁결정된	-14732
▁금품을	-14733
▁김정숙	-14734
▁밝히는	-14735
▁소방관	-14736
▁에이전	-14737
▁추천한	-14738
▁투자한	-14739
▁판단할	-14740
▁핵시설	-14741
담보대출	-14742
▁부당하게	-14743
▁부회장은	-14744
▁아메리카	-14745
▁아파트를	-14746
▁추진된다	-14747
▁포르투갈	-14748
▁생각했습니다	-14749
강의	-14750
밀리	-14751
소유	-14752
아직	-14753
왕이	-14754
환은	-14755
▁강풍	-14756
▁관건	-14757
▁냉각	-14758
▁덕에	-14759
▁발명	-14760
▁축산	-14761
▁침투	-14762
▁0.0	-14763
▁기억을	-14764
▁나서서	-14765
▁변경이	-14766
▁상대가	-14767
▁상원의	-14768
▁승부를	-14769
▁지갑을	-14770
▁파스타	-14771
기보다는	-14772
앞으로도	-14773
▁거짓말을	-14774
▁밝혔지만	-14775
▁밝히면서	-14776
▁오르면서	-14777
▁장소에서	-14778
▁집중하고	-14779
▁콜롬비아	-14780
▁주문했는데	-14781
인척	-14782
합병	-14783
▁6,	-14784
▁공립	-14785
▁공청	-14786
▁교역	-14787
▁기밀	-14788
▁놀랐	-14789
▁대면	-14790
▁랭킹	-14791
▁밖의	-14792
▁색상	-14793
▁생중	-14794
▁소위	-14795
▁영토	-14796
▁의외	-14797
▁증인	-14798
▁찍을	-14799
▁타자	-14800
▁터라	-14801
▁토너	-14802
▁후손	-14803
신청을	-14804
찌감치	-14805
총생산	-14806
품으로	-14807
▁걸어가	-14808
▁구성을	-14809
▁그녀와	-14810
▁뜨겁다	-14811
▁반려견	-14812
▁배우가	-14813
▁서울로	-14814
▁수년간	-14815
▁아픔을	-14816
▁은행의	-14817
▁정책은	-14818
▁진출한	-14819
▁차량은	-14820
▁축제를	-14821
▁측에서	-14822
▁통계청	-14823
▁것입니까	-14824
▁노력하는	-14825
▁늘어났다	-14826
▁성장세가	-14827
▁있으시면	-14828
▁확실하게	-14829
▁최저임금을	-14830
너스	-14831
닷컴	-14832
드림	-14833
보상	-14834
터널	-14835
플랜	-14836
희는	-14837
▁갈라	-14838
▁과감	-14839
▁등재	-14840
▁반짝	-14841
▁복수	-14842
▁빛이	-14843
▁세이	-14844
▁시계	-14845
▁왕복	-14846
▁해를	-14847
지사는	-14848
▁국가를	-14849
▁남기고	-14850
▁도시를	-14851
▁등록을	-14852
▁모습과	-14853
▁본회의	-14854
▁부부의	-14855
▁상승을	-14856
▁세대가	-14857
▁시급한	-14858
▁시행된	-14859
▁않겠다	-14860
▁위협을	-14861
▁응답이	-14862
▁있네요	-14863
▁토론을	-14864
▁행위에	-14865
▁화면을	-14866
▁못한다는	-14867
▁부분에서	-14868
▁요청하는	-14869
▁이벤트가	-14870
▁하는데요	-14871
TX	-14872
▁딴	-14873
래곤	-14874
를린	-14875
법률	-14876
유출	-14877
윤리	-14878
지던	-14879
호흡	-14880
·25	-14881
▁US	-14882
▁계류	-14883
▁늘릴	-14884
▁달간	-14885
▁독보	-14886
▁박진	-14887
▁워킹	-14888
▁원에	-14889
▁지리	-14890
▁투숙	-14891
▁하신	-14892
경제가	-14893
속에서	-14894
▁감성을	-14895
▁검토를	-14896
▁국제적	-14897
▁그리워	-14898
▁나가서	-14899
▁마련이	-14900
▁보험사	-14901
▁사진에	-14902
▁서울이	-14903
▁수행할	-14904
▁시도가	-14905
▁신산업	-14906
▁없어도	-14907
▁이보다	-14908
▁지켜보	-14909
▁처벌이	-14910
▁협력이	-14911
▁국군기무	-14912
▁나서면서	-14913
▁부모님은	-14914
▁언제부터	-14915
▁인상으로	-14916
▁인터넷에	-14917
▁포착됐다	-14918
▁필요한데	-14919
▁헬스케어	-14920
▁프로젝트는	-14921
▁하였습니다	-14922
55	-14923
67	-14924
▁혁	-14925
담배	-14926
래가	-14927
량에	-14928
완화	-14929
채권	-14930
후의	-14931
▁리뷰	-14932
▁몰린	-14933
▁반찬	-14934
▁삽입	-14935
▁우대	-14936
▁차질	-14937
▁타면	-14938
업체의	-14939
지역은	-14940
▁가로막	-14941
▁산업에	-14942
▁여력이	-14943
▁제치고	-14944
▁주석이	-14945
▁증가해	-14946
▁지상파	-14947
▁크기의	-14948
만으로는	-14949
▁기록적인	-14950
▁마련하는	-14951
▁못했다고	-14952
▁있음에도	-14953
▁전체적인	-14954
▁점검하고	-14955
▁페널티킥	-14956
▁행정부의	-14957
▁단계적으로	-14958
▁일시적으로	-14959
통계	-14960
▁대조	-14961
▁듣기	-14962
▁만기	-14963
▁반송	-14964
▁받던	-14965
▁보아	-14966
▁비만	-14967
▁실습	-14968
▁에버	-14969
▁일원	-14970
▁잠수	-14971
▁짙은	-14972
▁최정	-14973
상품을	-14974
적이며	-14975
타이어	-14976
▁가구의	-14977
▁공소시	-14978
▁수익성	-14979
▁시작될	-14980
▁애플이	-14981
▁어차피	-14982
▁운전을	-14983
▁있는가	-14984
▁전달해	-14985
▁전체에	-14986
▁조항이	-14987
▁탁월한	-14988
적입니다	-14989
▁나가겠다	-14990
▁주도권을	-14991
▁확보하는	-14992
▁공직선거법	-14993
op	-14994
▁쉐	-14995
가인	-14996
내륙	-14997
습기	-14998
전국	-14999
폐기	-15000
형에	-15001
▁감리	-15002
▁구리	-15003
▁레벨	-15004
▁백신	-15005
▁실려	-15006
▁실물	-15007
▁옮기	-15008
▁원작	-15009
▁체납	-15010
▁카톡	-15011
▁팀원	-15012
▁표지	-15013
만큼은	-15014
문제가	-15015
으로만	-15016
특보가	-15017
해주신	-15018
▁과거와	-15019
▁내용도	-15020
▁뜨겁게	-15021
▁말라고	-15022
▁메뉴가	-15023
▁안희정	-15024
▁언론의	-15025
▁오렌지	-15026
▁태도가	-15027
베키스탄	-15028
위원장과	-15029
▁것이어서	-15030
▁긴장감을	-15031
▁원하시는	-15032
▁의료기관	-15033
▁정신건강	-15034
▁클러스터	-15035
▁주시겠습니까	-15036
강화	-15037
목적	-15038
미스	-15039
미와	-15040
받기	-15041
업은	-15042
▁견디	-15043
▁노숙	-15044
▁소망	-15045
▁아산	-15046
▁재편	-15047
▁취향	-15048
▁표본	-15049
전부터	-15050
▁과제로	-15051
▁눈물이	-15052
▁물었다	-15053
▁음식점	-15054
▁의무화	-15055
▁장점은	-15056
▁전두환	-15057
▁정권의	-15058
▁조치에	-15059
하십시오	-15060
현장에서	-15061
▁1999	-15062
▁2025	-15063
▁벌써부터	-15064
▁수행하는	-15065
▁촉구하고	-15066
▁콘텐츠가	-15067
▁포함되지	-15068
▁해결해야	-15069
▁활성화에	-15070
▁네트워크를	-15071
▁동남아시아	-15072
▁자연스러운	-15073
▁초미세먼지	-15074
▁식품의약품안전	-15075
가루	-15076
급을	-15077
답게	-15078
라를	-15079
컴퍼	-15080
▁71	-15081
▁감옥	-15082
▁교실	-15083
▁구름	-15084
▁낙찰	-15085
▁답이	-15086
▁론칭	-15087
▁목에	-15088
▁북극	-15089
▁식민	-15090
▁오찬	-15091
▁차원	-15092
▁카르	-15093
칩니다	-15094
▁과감한	-15095
▁교회의	-15096
▁그룹의	-15097
▁대회의	-15098
▁도시가	-15099
▁불과한	-15100
▁세계가	-15101
▁소비가	-15102
▁시장과	-15103
▁신재생	-15104
▁실장이	-15105
▁심리적	-15106
▁여론을	-15107
▁올라갈	-15108
▁주민의	-15109
▁최선의	-15110
▁1970	-15111
▁간편하게	-15112
▁신청했다	-15113
▁엔지니어	-15114
▁일어나고	-15115
▁주한미군	-15116
▁참석한다	-15117
▁혁신적인	-15118
▁확정되면	-15119
▁정기적으로	-15120
▁중요하지만	-15121
▁톤	-15122
▁펌	-15123
과제	-15124
돼요	-15125
반의	-15126
인한	-15127
형사	-15128
▁겪을	-15129
▁기말	-15130
▁끔찍	-15131
▁동서	-15132
▁라운	-15133
▁로비	-15134
▁빚을	-15135
▁쌓인	-15136
▁착한	-15137
▁해온	-15138
▁1·4	-15139
▁늘어났	-15140
▁다녀온	-15141
▁매장에	-15142
▁모델은	-15143
▁문화적	-15144
▁바로잡	-15145
▁약세를	-15146
▁외에는	-15147
▁이외에	-15148
▁주장은	-15149
▁카타르	-15150
▁무언가를	-15151
▁부산시가	-15152
▁상징하는	-15153
▁서대문구	-15154
▁소개하는	-15155
▁아랍에미	-15156
▁안전관리	-15157
▁일찌감치	-15158
▁재판부가	-15159
▁적용된다	-15160
▁좋을까요	-15161
▁주인공이	-15162
▁주장하며	-15163
▁한국노총	-15164
▁스마트시티	-15165
▁인터넷전문	-15166
▁정상회담에	-15167
LA	-15168
▁랜	-15169
▁읍	-15170
용량	-15171
저축	-15172
▁2%	-15173
▁김장	-15174
▁놀랍	-15175
▁랜드	-15176
▁설교	-15177
▁스코	-15178
▁유방	-15179
▁일명	-15180
▁정동	-15181
▁좁아	-15182
▁짧게	-15183
▁컨셉	-15184
▁평일	-15185
▁포도	-15186
▁할까	-15187
유공자	-15188
점검을	-15189
▁관리할	-15190
▁그곳은	-15191
▁노선을	-15192
▁동북아	-15193
▁소방당	-15194
▁승무원	-15195
▁여행이	-15196
▁자격증	-15197
▁장소에	-15198
▁통과한	-15199
▁흉기를	-15200
만원에서	-15201
▁가계부채	-15202
▁여기에는	-15203
▁피해자를	-15204
▁가이드라인	-15205
구간	-15206
놓을	-15207
오른	-15208
후가	-15209
▁공룡	-15210
▁도의	-15211
▁배분	-15212
▁심야	-15213
▁악취	-15214
▁작아	-15215
▁친박	-15216
▁항만	-15217
대회가	-15218
었나요	-15219
편으로	-15220
▁IoT	-15221
▁각국의	-15222
▁대신에	-15223
▁도입된	-15224
▁도입이	-15225
▁리모델	-15226
▁물량을	-15227
▁박차를	-15228
▁선정돼	-15229
▁세력이	-15230
▁안내해	-15231
▁앉아서	-15232
▁인연이	-15233
▁일으킬	-15234
▁자세를	-15235
▁중인데	-15236
▁차라리	-15237
▁폭행한	-15238
▁행동에	-15239
▁형태를	-15240
업체들이	-15241
▁강조하고	-15242
▁당했다고	-15243
▁마스크를	-15244
▁수익성이	-15245
▁실시하는	-15246
▁아쉬움을	-15247
▁직원들은	-15248
▁진술했다	-15249
▁캄보디아	-15250
▁고맙습니다	-15251
▁죄송합니다만	-15252
ON	-15253
▁율	-15254
▁핑	-15255
대리	-15256
블릿	-15257
살인	-15258
상가	-15259
소개	-15260
업의	-15261
일러	-15262
자격	-15263
종은	-15264
▁계곡	-15265
▁권역	-15266
▁급식	-15267
▁동호	-15268
▁떡볶	-15269
▁먹기	-15270
▁부결	-15271
▁비어	-15272
▁삶과	-15273
▁손꼽	-15274
▁수료	-15275
▁제압	-15276
▁팔레	-15277
▁한시	-15278
▁후퇴	-15279
드린다	-15280
디지털	-15281
상태에	-15282
상황을	-15283
왔다는	-15284
지수가	-15285
직으로	-15286
▁CBS	-15287
▁공사는	-15288
▁밀접한	-15289
▁사고는	-15290
▁쓰러져	-15291
▁장애가	-15292
▁좋지만	-15293
▁직장을	-15294
▁진출에	-15295
▁체험을	-15296
▁회원국	-15297
▁감사해요	-15298
▁근처에서	-15299
▁기록하는	-15300
▁대법원의	-15301
▁마련해야	-15302
▁오늘부터	-15303
▁하겠다고	-15304
▁현실이다	-15305
주시겠습니까	-15306
3,	-15307
대원	-15308
시경	-15309
에어	-15310
용은	-15311
▁난이	-15312
▁눈물	-15313
▁다쳐	-15314
▁달할	-15315
▁문희	-15316
▁숨어	-15317
▁키즈	-15318
▁텍사	-15319
▁협회	-15320
능력이	-15321
업체를	-15322
여명을	-15323
▁가는데	-15324
▁공인중	-15325
▁구글이	-15326
▁부상이	-15327
▁알코올	-15328
▁요청에	-15329
▁우위를	-15330
▁중국어	-15331
▁하네요	-15332
▁개발했다	-15333
▁의료기기	-15334
▁인명피해	-15335
▁증가하면서	-15336
▁플레이오프	-15337
▁뜬	-15338
▁립	-15339
강도	-15340
과목	-15341
급이	-15342
내외	-15343
묘한	-15344
사다	-15345
이노	-15346
제철	-15347
하성	-15348
▁겹쳐	-15349
▁돌고	-15350
▁렌터	-15351
▁부른	-15352
▁은평	-15353
▁지친	-15354
▁초에	-15355
네스코	-15356
▁것인가	-15357
▁계약서	-15358
▁기여한	-15359
▁노래가	-15360
▁대체할	-15361
▁더했다	-15362
▁많았던	-15363
▁브라운	-15364
▁사례로	-15365
▁사생활	-15366
▁샌드위	-15367
▁숫자가	-15368
▁옆에서	-15369
▁자녀의	-15370
▁자원을	-15371
▁전문의	-15372
▁펼친다	-15373
▁금지하는	-15374
▁내일까지	-15375
▁변동성이	-15376
▁본사에서	-15377
▁안팎에서는	-15378
PM	-15379
▁싹	-15380
▁큽	-15381
드라	-15382
소연	-15383
오롱	-15384
▁노르	-15385
▁마중	-15386
▁분배	-15387
▁싱크	-15388
▁이젠	-15389
▁자외	-15390
▁장마	-15391
▁차장	-15392
▁촉촉	-15393
▁출구	-15394
▁치아	-15395
▁카테	-15396
더불어	-15397
병원은	-15398
병으로	-15399
장관이	-15400
조원에	-15401
.7%)	-15402
▁단계에	-15403
▁대주주	-15404
▁도로가	-15405
▁되었고	-15406
▁들어설	-15407
▁성장에	-15408
▁움직일	-15409
▁이뤄져	-15410
▁일본군	-15411
▁중점을	-15412
▁지도자	-15413
▁투자와	-15414
▁행복해	-15415
▁1994	-15416
▁동아시아	-15417
▁동일하게	-15418
▁오케스트	-15419
▁이루어진	-15420
▁즐거움을	-15421
▁사로잡았다	-15422
▁불가능합니다	-15423
4,	-15424
각이	-15425
고리	-15426
리바	-15427
시길	-15428
인드	-15429
인민	-15430
잡이	-15431
평이	-15432
포스	-15433
▁개원	-15434
▁보람	-15435
▁부시	-15436
▁살균	-15437
▁영동	-15438
▁의구	-15439
▁이색	-15440
▁탈북	-15441
▁휴양	-15442
대회에	-15443
버스가	-15444
으시면	-15445
활동이	-15446
▁강화에	-15447
▁뜻하는	-15448
▁뜻한다	-15449
▁상승이	-15450
▁새만금	-15451
▁신발을	-15452
▁역사의	-15453
▁전쟁이	-15454
▁태평양	-15455
▁하원의	-15456
봤습니다	-15457
으신가요	-15458
▁경쟁률을	-15459
▁권고했다	-15460
▁받으면서	-15461
▁유지하기	-15462
▁지난번에	-15463
▁갑작스러운	-15464
▁대우조선해양	-15465
▁더불어민주당이	-15466
5,	-15467
oc	-15468
▁씁	-15469
경비	-15470
니의	-15471
더리	-15472
베르	-15473
소매	-15474
필드	-15475
(27	-15476
▁건에	-15477
▁건은	-15478
▁기득	-15479
▁내장	-15480
▁넓혀	-15481
▁동점	-15482
▁본래	-15483
▁세븐	-15484
▁입체	-15485
▁즐겁	-15486
▁투여	-15487
▁팔아	-15488
권으로	-15489
지역을	-15490
평가를	-15491
▁각별한	-15492
▁나가야	-15493
▁다가가	-15494
▁들어요	-15495
▁브레이	-15496
▁산업을	-15497
▁설명할	-15498
▁스트리	-15499
▁쏟아져	-15500
▁안전성	-15501
▁재료를	-15502
▁전남도	-15503
▁진출이	-15504
▁최상의	-15505
▁출발해	-15506
▁1997	-15507
▁교육과정	-15508
▁구속영장	-15509
▁다운로드	-15510
▁비판하는	-15511
▁부위원장이	-15512
▁상황에서도	-15513
em	-15514
▁켈	-15515
내려	-15516
방식	-15517
봉을	-15518
세서	-15519
위해	-15520
.18	-15521
▁낮다	-15522
▁머릿	-15523
▁믿지	-15524
▁박해	-15525
▁봤어	-15526
▁산다	-15527
▁수목	-15528
▁인내	-15529
▁일행	-15530
▁청렴	-15531
▁취지	-15532
▁카슈	-15533
▁컴백	-15534
▁편한	-15535
마케팅	-15536
▁기업가	-15537
▁데에는	-15538
▁레이더	-15539
▁바다를	-15540
▁발견해	-15541
▁부모와	-15542
▁출범한	-15543
▁투표를	-15544
▁합리적	-15545
▁흘러나	-15546
▁마련된다	-15547
▁의사소통	-15548
▁제공하기	-15549
▁제로페이	-15550
▁문재인정부	-15551
▁보내드립니다	-15552
NC	-15553
경험	-15554
매치	-15555
업소	-15556
원도	-15557
중견	-15558
진구	-15559
컨대	-15560
혁이	-15561
▁떠났	-15562
▁벽에	-15563
▁상하	-15564
▁숨겨	-15565
▁안동	-15566
▁요약	-15567
▁웃고	-15568
▁이글	-15569
▁쟁점	-15570
▁핑크	-15571
▁혼합	-15572
마리가	-15573
타당성	-15574
효과를	-15575
.8%)	-15576
▁미국인	-15577
▁불안한	-15578
▁설치가	-15579
▁소유한	-15580
▁시가총	-15581
▁영화에	-15582
▁위원회	-15583
▁의식이	-15584
▁진전을	-15585
▁하늘을	-15586
광장에서	-15587
▁광주시가	-15588
▁근로자의	-15589
▁리스트를	-15590
▁불이익을	-15591
▁영상에는	-15592
▁현대차가	-15593
▁지난해까지	-15594
▁연방준비제도	-15595
▁자유한국당의	-15596
99	-15597
것이	-15598
딩을	-15599
량과	-15600
루미	-15601
자녀	-15602
체와	-15603
추천	-15604
▁광명	-15605
▁기장	-15606
▁담합	-15607
▁똑똑	-15608
▁변형	-15609
▁안의	-15610
▁이석	-15611
▁정차	-15612
▁질이	-15613
▁초계	-15614
▁폭을	-15615
▁프라	-15616
▁흡입	-15617
리지널	-15618
▁가져오	-15619
▁남학생	-15620
▁농어촌	-15621
▁라운드	-15622
▁발언에	-15623
▁변화의	-15624
▁새마을	-15625
▁원으로	-15626
▁이라크	-15627
▁큽니다	-15628
▁통하여	-15629
▁투자할	-15630
▁활발히	-15631
기업으로	-15632
▁그라운드	-15633
▁들어가면	-15634
▁병역거부	-15635
▁부작용을	-15636
▁손흥민의	-15637
▁시행하는	-15638
▁없을까요	-15639
▁연구팀은	-15640
▁통화정책	-15641
EB	-15642
근한	-15643
르자	-15644
모닝	-15645
백화	-15646
보도	-15647
슈퍼	-15648
연락	-15649
유지	-15650
집단	-15651
커피	-15652
화재	-15653
(12	-15654
▁각광	-15655
▁마신	-15656
▁미얀	-15657
▁분해	-15658
▁셔츠	-15659
▁소나	-15660
▁여럿	-15661
▁영종	-15662
▁정면	-15663
▁증대	-15664
▁치과	-15665
▁한옥	-15666
개사가	-15667
관리에	-15668
되는지	-15669
치료를	-15670
▁가지를	-15671
▁그다음	-15672
▁성장과	-15673
▁수위를	-15674
▁신고한	-15675
▁실무협	-15676
▁압력을	-15677
▁업체인	-15678
▁있겠다	-15679
▁주소로	-15680
▁출전한	-15681
▁호평을	-15682
문화예술	-15683
▁날카로운	-15684
▁대응하기	-15685
▁미지수다	-15686
▁수수료가	-15687
▁어머니는	-15688
▁정책으로	-15689
▁취소하고	-15690
년생	-15691
득점	-15692
박을	-15693
복음	-15694
영장	-15695
▁고사	-15696
▁광산	-15697
▁높인	-15698
▁돌이	-15699
▁듣지	-15700
▁무지	-15701
▁삶은	-15702
▁신일	-15703
▁써서	-15704
▁있긴	-15705
▁토끼	-15706
▁하차	-15707
년만에	-15708
본부장	-15709
소리가	-15710
하자고	-15711
▁국가와	-15712
▁마사지	-15713
▁명단을	-15714
▁바뀌고	-15715
▁버리고	-15716
▁소재를	-15717
▁열차가	-15718
▁운행이	-15719
▁윌리엄	-15720
▁재산을	-15721
▁정신과	-15722
▁주머니	-15723
▁지나지	-15724
▁지도를	-15725
▁지역과	-15726
▁체험할	-15727
▁총장이	-15728
▁타이거	-15729
▁태권도	-15730
▁평양을	-15731
▁표했다	-15732
▁현금을	-15733
▁호텔을	-15734
▁회사로	-15735
거리에서	-15736
▁국토부가	-15737
▁내비쳤다	-15738
▁높아진다	-15739
▁불가피한	-15740
▁사무실을	-15741
▁아이들과	-15742
▁있는데요	-15743
▁조성하는	-15744
▁캠페인을	-15745
▁조금이라도	-15746
33	-15747
ur	-15748
▁-	-15749
가야	-15750
강점	-15751
렸어	-15752
속이	-15753
스퍼	-15754
커스	-15755
폭을	-15756
▁96	-15757
▁김일	-15758
▁문체	-15759
▁설레	-15760
▁케어	-15761
▁해방	-15762
영화제	-15763
웠지만	-15764
합시다	-15765
.6%)	-15766
▁대중의	-15767
▁마음은	-15768
▁살면서	-15769
▁선택해	-15770
▁설립된	-15771
▁속으로	-15772
▁싶었다	-15773
▁이씨가	-15774
▁전화로	-15775
▁절대로	-15776
▁접근할	-15777
▁체결한	-15778
▁크루즈	-15779
이라면서	-15780
▁기술개발	-15781
▁아일랜드	-15782
▁확보하기	-15783
엔터테인먼	-15784
▁부탁드려요	-15785
▁기다려주세요	-15786
▁만들었습니다	-15787
▁뚝	-15788
일째	-15789
코스	-15790
투스	-15791
▁3%	-15792
▁교원	-15793
▁깨고	-15794
▁남구	-15795
▁대접	-15796
▁몸의	-15797
▁민중	-15798
▁사단	-15799
▁식탁	-15800
▁책상	-15801
▁철학	-15802
▁톡톡	-15803
▁호전	-15804
룸에서	-15805
사회를	-15806
새로운	-15807
소리를	-15808
▁경제성	-15809
▁그래픽	-15810
▁기술적	-15811
▁모이는	-15812
▁베를린	-15813
▁변경을	-15814
▁변화와	-15815
▁부산에	-15816
▁분야가	-15817
▁수량이	-15818
▁어렵지	-15819
▁온도가	-15820
▁위안화	-15821
▁작용한	-15822
▁적용을	-15823
▁전하고	-15824
▁조직을	-15825
▁증가가	-15826
▁초청해	-15827
▁페미니	-15828
▁혼란이	-15829
기업들이	-15830
▁불안감이	-15831
▁시내버스	-15832
▁이용해서	-15833
▁개최한다고	-15834
▁지역에서는	-15835
▁워싱턴포스트	-15836
if	-15837
▁찜	-15838
가을	-15839
거를	-15840
근이	-15841
식당	-15842
▁관악	-15843
▁김형	-15844
▁납득	-15845
▁다할	-15846
▁불렀	-15847
▁입에	-15848
▁주둔	-15849
▁지체	-15850
▁직속	-15851
기독교	-15852
식간에	-15853
은행과	-15854
▁김대중	-15855
▁도입해	-15856
▁부통령	-15857
▁상승에	-15858
▁설립을	-15859
▁스태프	-15860
▁언어를	-15861
▁오늘이	-15862
▁온종일	-15863
▁적용될	-15864
▁정하고	-15865
▁지적한	-15866
▁진술한	-15867
▁처음이	-15868
▁총선을	-15869
▁확대와	-15870
▁확산을	-15871
되었어요	-15872
▁게시판에	-15873
▁명확하게	-15874
▁방송통신	-15875
▁실거래가	-15876
▁작품이다	-15877
▁전문성을	-15878
▁중부지방	-15879
▁지적한다	-15880
▁집중하는	-15881
▁특별감찰	-15882
▁폭염으로	-15883
▁화웨이가	-15884
▁스튜어드십	-15885
HO	-15886
YT	-15887
▁록	-15888
▁젤	-15889
▁폰	-15890
연설	-15891
▁강수	-15892
▁광장	-15893
▁금연	-15894
▁닿지	-15895
▁도울	-15896
▁않겠	-15897
▁압축	-15898
▁일한	-15899
▁조업	-15900
▁친화	-15901
▁통산	-15902
▁훈훈	-15903
문이다	-15904
문화재	-15905
시키며	-15906
작업이	-15907
회사로	-15908
.3%)	-15909
▁같다는	-15910
▁남성은	-15911
▁다큐멘	-15912
▁돕는다	-15913
▁되기도	-15914
▁마약을	-15915
▁매매가	-15916
▁몰리는	-15917
▁변호인	-15918
▁생일을	-15919
▁알아서	-15920
▁없었어	-15921
▁의원에	-15922
▁잘못을	-15923
▁조정이	-15924
▁지정한	-15925
▁청년이	-15926
▁확대로	-15927
▁교섭단체	-15928
▁아파트가	-15929
▁인정하지	-15930
▁제품이다	-15931
▁장기적으로	-15932
▁우즈베키스탄	-15933
▁정보통신기술	-15934
▁맵	-15935
림의	-15936
만삭	-15937
숙한	-15938
지하	-15939
코노	-15940
▁87	-15941
▁89	-15942
▁갔을	-15943
▁남기	-15944
▁때에	-15945
▁멸종	-15946
▁선착	-15947
▁신원	-15948
▁온천	-15949
▁재가	-15950
▁전월	-15951
산분리	-15952
았으면	-15953
▁갖는다	-15954
▁개최를	-15955
▁거래처	-15956
▁김용균	-15957
▁대전시	-15958
▁목소리	-15959
▁목적을	-15960
▁문의가	-15961
▁변화는	-15962
▁사령탑	-15963
▁성장률	-15964
▁성접대	-15965
▁숙제를	-15966
▁아기가	-15967
▁안전에	-15968
▁연구소	-15969
▁영등포	-15970
▁영유아	-15971
▁인도적	-15972
▁일반인	-15973
▁텔레비	-15974
▁할리우	-15975
▁나섰지만	-15976
▁대상에서	-15977
▁부산시는	-15978
▁저렴하게	-15979
▁방송에서는	-15980
▁시민들에게	-15981
▁업무협약을	-15982
▁체계적으로	-15983
▁덥	-15984
▁콤	-15985
대변	-15986
란을	-15987
수용	-15988
시안	-15989
지배	-15990
▁고집	-15991
▁무의	-15992
▁미처	-15993
▁민관	-15994
▁빚은	-15995
▁쉽다	-15996
▁유저	-15997
▁지킬	-15998
▁패스	-15999
▁풍경	-16000
▁회식	-16001
그동안	-16002
운동이	-16003
한반도	-16004
회장이	-16005
▁경제학	-16006
▁고발한	-16007
▁기대에	-16008
▁끝내고	-16009
▁되풀이	-16010
▁먹어도	-16011
▁면모를	-16012
▁미끄러	-16013
▁사례도	-16014
▁사실과	-16015
▁수치가	-16016
▁싶지만	-16017
▁아니기	-16018
▁업계에	-16019
▁업무상	-16020
▁여자를	-16021
▁연구는	-16022
▁입지를	-16023
▁작성해	-16024
▁체제를	-16025
▁호텔은	-16026
갔습니다	-16027
▁구성되어	-16028
▁궁금증이	-16029
▁금감원이	-16030
▁보이는데	-16031
▁상승세가	-16032
▁설치하는	-16033
▁알려주는	-16034
▁여성들의	-16035
▁유네스코	-16036
▁의미하는	-16037
▁청와대에	-16038
▁보고서에서	-16039
▁예상됩니다	-16040
▁정상회담의	-16041
▁주었습니다	-16042
반대	-16043
있게	-16044
할까	-16045
▁넘나	-16046
▁던져	-16047
▁미달	-16048
▁믿어	-16049
▁부스	-16050
▁빚고	-16051
▁산재	-16052
▁신념	-16053
▁쓰기	-16054
▁알파	-16055
▁역동	-16056
▁용기	-16057
▁이원	-16058
▁입수	-16059
▁항구	-16060
▁휩쓸	-16061
범으로	-16062
스피싱	-16063
진으로	-16064
▁국가에	-16065
▁못했고	-16066
▁문화와	-16067
▁미쳤다	-16068
▁아빠가	-16069
▁야당의	-16070
▁엄마의	-16071
▁완료된	-16072
▁제도적	-16073
산업단지	-16074
협동조합	-16075
▁걸립니다	-16076
▁급격하게	-16077
▁받았는데	-16078
▁수사하고	-16079
▁쏟아지고	-16080
▁어우러져	-16081
▁운영된다	-16082
▁좋아해서	-16083
▁중요해요	-16084
▁표현하는	-16085
▁보이스피싱	-16086
▁엔터테인먼트	-16087
57	-16088
여건	-16089
있고	-16090
주며	-16091
텍스	-16092
est	-16093
▁개개	-16094
▁고추	-16095
▁뭔지	-16096
▁방통	-16097
▁부재	-16098
▁어지	-16099
▁원본	-16100
▁이따	-16101
▁이화	-16102
▁자정	-16103
▁접할	-16104
▁탐사	-16105
▁히트	-16106
테크노	-16107
하느냐	-16108
.4%)	-16109
1000	-16110
▁가슴이	-16111
▁대도시	-16112
▁몰라서	-16113
▁비난이	-16114
▁사각지	-16115
▁생겨서	-16116
▁소득을	-16117
▁쇼케이	-16118
▁육아휴	-16119
▁임종헌	-16120
▁있기에	-16121
▁지켜야	-16122
▁체감할	-16123
▁통증을	-16124
▁프레임	-16125
▁해결해	-16126
▁기술력을	-16127
▁모스크바	-16128
▁사용하기	-16129
▁순식간에	-16130
▁처리하는	-16131
▁환자들이	-16132
▁싱가포르에서	-16133
▁룰	-16134
국적	-16135
권익	-16136
동부	-16137
론에	-16138
상도	-16139
선한	-16140
소나	-16141
스쿨	-16142
앤젤	-16143
억여	-16144
준은	-16145
회복	-16146
▁꺾고	-16147
▁다투	-16148
▁똑같	-16149
▁맡는	-16150
▁명단	-16151
▁무섭	-16152
▁문구	-16153
▁박준	-16154
▁붙을	-16155
▁상공	-16156
▁유재	-16157
▁의학	-16158
▁작전	-16159
▁주파	-16160
▁파열	-16161
권에서	-16162
사에게	-16163
절차를	-16164
▁검증된	-16165
▁드러났	-16166
▁문희상	-16167
▁방식에	-16168
▁보내지	-16169
▁선거가	-16170
▁선수로	-16171
▁세상의	-16172
▁없음을	-16173
▁열정을	-16174
▁온전히	-16175
▁적용이	-16176
▁제안이	-16177
▁진화에	-16178
▁하기도	-16179
▁하시면	-16180
▁해법을	-16181
▁국정농단	-16182
▁금융회사	-16183
▁돌아다니	-16184
▁들어간다	-16185
▁봤습니다	-16186
▁서비스의	-16187
▁선고받은	-16188
▁설명하는	-16189
▁신용등급	-16190
▁인프라가	-16191
▁출신으로	-16192
▁협동조합	-16193
▁국내총생산	-16194
▁아이디어가	-16195
▁밭	-16196
▁킨	-16197
미투	-16198
순이	-16199
움에	-16200
이런	-16201
GDP	-16202
▁김미	-16203
▁때면	-16204
▁삼고	-16205
▁선풍	-16206
▁수성	-16207
▁어쨌	-16208
▁절약	-16209
▁줄곧	-16210
▁컬렉	-16211
▁하려	-16212
왔는데	-16213
▁과태료	-16214
▁교육에	-16215
▁나누어	-16216
▁대비한	-16217
▁부분도	-16218
▁저작권	-16219
▁조직의	-16220
▁지목된	-16221
▁현실에	-16222
▁휘발유	-16223
본부장은	-16224
▁구매하고	-16225
▁극단적인	-16226
▁만들어낸	-16227
▁이야기다	-16228
▁주문하고	-16229
▁봉사활동을	-16230
BM	-16231
난을	-16232
도도	-16233
였을	-16234
위안	-16235
(17	-16236
▁TF	-16237
▁기적	-16238
▁낡은	-16239
▁내어	-16240
▁모욕	-16241
▁박유	-16242
▁불발	-16243
▁오너	-16244
▁전한	-16245
▁접경	-16246
▁한인	-16247
방으로	-16248
피해가	-16249
▁감소가	-16250
▁김현미	-16251
▁나서지	-16252
▁뉴스를	-16253
▁도로를	-16254
▁사용된	-16255
▁성장한	-16256
▁운영이	-16257
▁추진에	-16258
▁태블릿	-16259
▁투자해	-16260
▁특징을	-16261
▁파악해	-16262
공동선언	-16263
▁강조한다	-16264
▁논의하는	-16265
▁도와주는	-16266
▁들어왔다	-16267
▁바뀌었다	-16268
▁비행기가	-16269
▁사진에는	-16270
▁산업단지	-16271
▁성폭행을	-16272
▁않더라도	-16273
▁여러분의	-16274
▁역사적인	-16275
▁예약하고	-16276
▁응답자의	-16277
▁지지하는	-16278
▁통일전선	-16279
▁공공기관이	-16280
▁국정감사에서	-16281
▁커뮤니케이션	-16282
단위	-16283
조절	-16284
주거	-16285
(25	-16286
ter	-16287
▁대부	-16288
▁맛집	-16289
▁묻자	-16290
▁원동	-16291
▁진한	-16292
▁청량	-16293
▁팔고	-16294
루에서	-16295
▁개발과	-16296
▁건물에	-16297
▁결정적	-16298
▁공개할	-16299
▁김명수	-16300
▁늦어도	-16301
▁물건은	-16302
▁방문객	-16303
▁손실이	-16304
▁여론의	-16305
▁장치를	-16306
▁전기를	-16307
▁출시를	-16308
되더라도	-16309
자로부터	-16310
▁고민하고	-16311
▁부총리가	-16312
▁분명하다	-16313
▁알려주실	-16314
▁일어나지	-16315
▁지원사업	-16316
▁카메라가	-16317
▁통계청이	-16318
▁금융당국은	-16319
▁얼마인가요	-16320
강이	-16321
대기	-16322
천명	-16323
희의	-16324
▁급변	-16325
▁망가	-16326
▁모험	-16327
▁문장	-16328
▁상원	-16329
▁왔을	-16330
▁외로	-16331
▁이륙	-16332
▁임산	-16333
▁전진	-16334
▁청취	-16335
▁카라	-16336
▁컨디	-16337
▁타야	-16338
▁태안	-16339
▁휘말	-16340
▁힙합	-16341
린다는	-16342
시간은	-16343
인구가	-16344
정부와	-16345
조사가	-16346
할수록	-16347
▁가져야	-16348
▁공유할	-16349
▁내역을	-16350
▁대화의	-16351
▁마음껏	-16352
▁무주택	-16353
▁보도한	-16354
▁보유세	-16355
▁야당이	-16356
▁이름과	-16357
▁정준영	-16358
하십니까	-16359
▁가상화폐	-16360
▁기쁩니다	-16361
▁나타내는	-16362
▁문제점이	-16363
▁부드럽게	-16364
▁아파트에	-16365
▁방탄소년단이	-16366
간이	-16367
으실	-16368
채가	-16369
층과	-16370
▁8,	-16371
▁CG	-16372
▁가이	-16373
▁넣는	-16374
▁단식	-16375
▁리듬	-16376
▁만세	-16377
▁발로	-16378
▁부평	-16379
▁영리	-16380
▁유익	-16381
▁전이	-16382
▁줄기	-16383
▁첨예	-16384
▁클린	-16385
▁푸드	-16386
수요가	-16387
심리가	-16388
컨설팅	-16389
테이션	-16390
하다면	-16391
▁2·4	-16392
▁듭니다	-16393
▁여기가	-16394
▁이뤘다	-16395
▁이해해	-16396
▁임금이	-16397
▁중단을	-16398
▁지역별	-16399
▁촬영이	-16400
▁행동은	-16401
겼습니다	-16402
▁개최된다	-16403
▁구축하고	-16404
▁기금운용	-16405
▁먹었어요	-16406
▁무역협상	-16407
▁보호하기	-16408
▁쇼트트랙	-16409
▁심사위원	-16410
2·	-16411
▁램	-16412
▁엽	-16413
▁쿨	-16414
글라	-16415
기부	-16416
란스	-16417
랑카	-16418
클래	-16419
화물	-16420
(-0	-16421
900	-16422
▁7,	-16423
▁버전	-16424
▁볼을	-16425
▁살피	-16426
▁수납	-16427
▁승계	-16428
▁오세	-16429
▁워터	-16430
▁웨딩	-16431
▁튼튼	-16432
▁해준	-16433
리에서	-16434
볼게요	-16435
왔다고	-16436
중이다	-16437
▁갔다가	-16438
▁기숙사	-16439
▁놓치지	-16440
▁때문인	-16441
▁모두의	-16442
▁벌어질	-16443
▁비영리	-16444
▁비정상	-16445
▁영향은	-16446
▁예방을	-16447
▁예약한	-16448
▁임기가	-16449
▁학생들	-16450
▁해외에	-16451
▁개최하는	-16452
▁골드만삭	-16453
▁대안으로	-16454
▁등장한다	-16455
▁마이너스	-16456
▁마케팅을	-16457
▁브리핑을	-16458
▁안심하고	-16459
▁해소하기	-16460
▁힘들어요	-16461
▁국내에서도	-16462
▁보내주시면	-16463
▁지속가능한	-16464
▁휴대전화를	-16465
▁법원행정처가	-16466
▁아랍에미리트	-16467
▁뺀	-16468
▁으	-16469
방과	-16470
심리	-16471
온은	-16472
절차	-16473
진보	-16474
WSJ	-16475
▁고율	-16476
▁단원	-16477
▁레전	-16478
▁목이	-16479
▁불신	-16480
▁비관	-16481
▁신촌	-16482
▁압수	-16483
▁양천	-16484
▁한발	-16485
▁행렬	-16486
▁효능	-16487
으려면	-16488
졌으나	-16489
했나요	-16490
.2%)	-16491
▁되지만	-16492
▁물어보	-16493
▁운영해	-16494
▁자리는	-16495
▁전화해	-16496
▁종사자	-16497
▁파문이	-16498
▁판결에	-16499
▁거론되고	-16500
▁국정감사	-16501
▁나머지는	-16502
▁떠오르고	-16503
▁문자메시	-16504
▁북한과의	-16505
▁쓰레기를	-16506
▁원한다면	-16507
▁주의해야	-16508
▁회담에서	-16509
▁바람직하다	-16510
▁소비자에게	-16511
43	-16512
▁Z	-16513
긴다	-16514
닐라	-16515
리던	-16516
방한	-16517
법관	-16518
서야	-16519
시절	-16520
심판	-16521
아산	-16522
짐에	-16523
탄이	-16524
트릭	-16525
▁AR	-16526
▁격리	-16527
▁구워	-16528
▁법에	-16529
▁부디	-16530
▁분수	-16531
▁섰다	-16532
▁수년	-16533
▁신차	-16534
▁양상	-16535
▁점과	-16536
▁한껏	-16537
미국이	-16538
시켜야	-16539
원자력	-16540
회담을	-16541
회사를	-16542
▁가세요	-16543
▁다르지	-16544
▁달리는	-16545
▁범죄가	-16546
▁불리한	-16547
▁수술이	-16548
▁수입을	-16549
▁시험에	-16550
▁아끼지	-16551
▁엄마와	-16552
▁정보와	-16553
▁준비에	-16554
▁중이야	-16555
▁지표가	-16556
▁진행이	-16557
▁특정한	-16558
▁파주시	-16559
▁할인을	-16560
▁다짐했다	-16561
▁도착했다	-16562
▁사람으로	-16563
▁않았으면	-16564
▁인식하고	-16565
▁일제강점	-16566
▁자본시장	-16567
▁작동하지	-16568
▁전해진다	-16569
▁철저하게	-16570
노동위원회	-16571
▁지난해에는	-16572
▁삼성바이오로직스	-16573
르도	-16574
뮤지	-16575
분위	-16576
작은	-16577
지니	-16578
티가	-16579
▁LH	-16580
▁권유	-16581
▁막상	-16582
▁맞다	-16583
▁순조	-16584
▁용서	-16585
▁장미	-16586
▁조형	-16587
▁집착	-16588
▁퇴출	-16589
뜩이나	-16590
러스트	-16591
마저도	-16592
억원대	-16593
장관은	-16594
쳤다고	-16595
▁가입한	-16596
▁감소할	-16597
▁검토한	-16598
▁낮추는	-16599
▁사례다	-16600
▁사연을	-16601
▁성차별	-16602
▁수용할	-16603
▁전제로	-16604
▁절반이	-16605
▁주시고	-16606
▁최근의	-16607
▁코오롱	-16608
▁판매할	-16609
▁거론된다	-16610
▁담당자가	-16611
▁무리하게	-16612
▁석유화학	-16613
▁오리지널	-16614
▁작용했다	-16615
▁필요하지	-16616
▁괜찮을까요	-16617
▁얹	-16618
시행	-16619
에다	-16620
▁계시	-16621
▁고래	-16622
▁딸기	-16623
▁만취	-16624
▁맞붙	-16625
▁박주	-16626
▁있나	-16627
드리는	-16628
보다도	-16629
센터와	-16630
원이나	-16631
▁검찰과	-16632
▁그래야	-16633
▁그리는	-16634
▁나이에	-16635
▁대안이	-16636
▁사안에	-16637
▁양국의	-16638
▁차이는	-16639
▁출마를	-16640
▁취재진	-16641
▁패스를	-16642
▁호텔로	-16643
▁힘들게	-16644
하겠지만	-16645
하자마자	-16646
▁모르지만	-16647
▁선정했다	-16648
▁시장으로	-16649
▁알아보고	-16650
▁저축은행	-16651
▁아파트에서	-16652
▁우리나라에서	-16653
▁자유한국당은	-16654
▁기자간담회에서	-16655
6,	-16656
▁솟	-16657
비핵	-16658
숙이	-16659
제일	-16660
토지	-16661
특구	-16662
·12	-16663
▁In	-16664
▁가뭄	-16665
▁거는	-16666
▁경희	-16667
▁그릴	-16668
▁그칠	-16669
▁다스	-16670
▁발산	-16671
▁생선	-16672
▁수단	-16673
▁이순	-16674
▁총을	-16675
▁홍역	-16676
기술이	-16677
명하게	-16678
부장관	-16679
수석이	-16680
스럽고	-16681
졌는지	-16682
▁남편의	-16683
▁노리는	-16684
▁덴마크	-16685
▁됐지만	-16686
▁떠오른	-16687
▁마라톤	-16688
▁방법에	-16689
▁사소한	-16690
▁사업과	-16691
▁우울증	-16692
▁유은혜	-16693
▁이틀간	-16694
▁장거리	-16695
▁협업을	-16696
▁대북정책	-16697
▁대표팀이	-16698
▁반발했다	-16699
▁부회장의	-16700
▁불과했다	-16701
▁아니라면	-16702
▁않을까요	-16703
▁여러분이	-16704
▁위험성이	-16705
▁전까지는	-16706
▁접수됐다	-16707
▁공기청정기	-16708
▁미세먼지를	-16709
▁이례적으로	-16710
FP	-16711
▁팁	-16712
강남	-16713
달이	-16714
치킨	-16715
파는	-16716
▁“3	-16717
▁가평	-16718
▁건넸	-16719
▁검경	-16720
▁국책	-16721
▁금전	-16722
▁넘을	-16723
▁도래	-16724
▁리포	-16725
▁박람	-16726
▁신사	-16727
▁애로	-16728
▁에코	-16729
▁온열	-16730
▁운이	-16731
▁의석	-16732
▁전지	-16733
▁코팅	-16734
▁파인	-16735
▁한남	-16736
쳤지만	-16737
함으로	-16738
▁가리지	-16739
▁공수처	-16740
▁기상청	-16741
▁내놓는	-16742
▁도시로	-16743
▁뒤에서	-16744
▁드리는	-16745
▁매티스	-16746
▁발견한	-16747
▁부끄러	-16748
▁세우는	-16749
▁업로드	-16750
▁요소를	-16751
▁의하면	-16752
▁조사는	-16753
▁초부터	-16754
▁친인척	-16755
▁통신은	-16756
▁화면에	-16757
▁메이크업	-16758
▁밝혔다고	-16759
▁사라지고	-16760
▁수준에서	-16761
▁의심하고	-16762
▁일으키는	-16763
▁전당대회	-16764
▁파키스탄	-16765
▁프로모션	-16766
▁기념촬영을	-16767
▁오른쪽으로	-16768
▁인터넷으로	-16769
▁인스타그램에	-16770
▁댐	-16771
먹는	-16772
슨은	-16773
역량	-16774
폭행	-16775
▁82	-16776
▁골고	-16777
▁김윤	-16778
▁미혼	-16779
▁밤을	-16780
▁벤치	-16781
▁보잉	-16782
▁애완	-16783
▁어찌	-16784
▁언덕	-16785
▁예뻐	-16786
▁유흥	-16787
▁재킷	-16788
▁직결	-16789
▁챌린	-16790
▁페르	-16791
드리면	-16792
산업을	-16793
시키지	-16794
았으나	-16795
회사인	-16796
▁강하다	-16797
▁개선과	-16798
▁건축물	-16799
▁계좌로	-16800
▁나가고	-16801
▁달러로	-16802
▁모습도	-16803
▁변하지	-16804
▁순간이	-16805
▁시간대	-16806
▁조항을	-16807
▁좋았다	-16808
▁지원과	-16809
▁해보고	-16810
▁협의해	-16811
▁국가에서	-16812
▁남북경협	-16813
▁따뜻하게	-16814
▁봉사활동	-16815
▁서울시의	-16816
▁스타벅스	-16817
▁심각하게	-16818
▁전기요금	-16819
▁지난해에	-16820
▁취약계층	-16821
랑이	-16822
양은	-16823
척이	-16824
퀘어	-16825
학술	-16826
해수	-16827
▁거제	-16828
▁결성	-16829
▁과반	-16830
▁내구	-16831
▁늦춰	-16832
▁목욕	-16833
▁묻고	-16834
▁불허	-16835
▁원화	-16836
▁이럴	-16837
▁작고	-16838
▁체중	-16839
▁침몰	-16840
▁침착	-16841
▁쿠키	-16842
▁클리	-16843
▁한전	-16844
▁활짝	-16845
서에는	-16846
차산업	-16847
했음을	-16848
▁170	-16849
▁결정은	-16850
▁기술에	-16851
▁답장을	-16852
▁도와주	-16853
▁되었어	-16854
▁물리적	-16855
▁북한산	-16856
▁새벽에	-16857
▁소요될	-16858
▁역할에	-16859
▁용도로	-16860
▁충격이	-16861
▁풍성한	-16862
개발기구	-16863
▁가뜩이나	-16864
▁강력하게	-16865
▁고객들의	-16866
▁부족으로	-16867
▁비용으로	-16868
▁여러분은	-16869
▁요구된다	-16870
▁추천하는	-16871
경기장에서	-16872
▁불가피하다	-16873
▁고용노동부가	-16874
▁웬	-16875
검증	-16876
동해	-16877
레를	-16878
브가	-16879
직에	-16880
추는	-16881
케미	-16882
품에	-16883
▁각계	-16884
▁갖다	-16885
▁권위	-16886
▁날에	-16887
▁때다	-16888
▁뚫고	-16889
▁명은	-16890
▁방출	-16891
▁분주	-16892
▁사인	-16893
▁소독	-16894
▁양대	-16895
▁열이	-16896
▁이식	-16897
▁좁혀	-16898
▁증액	-16899
▁진주	-16900
▁집무	-16901
▁합창	-16902
년간의	-16903
되지는	-16904
홈쇼핑	-16905
▁건물은	-16906
▁구하라	-16907
▁다가온	-16908
▁만나면	-16909
▁생기고	-16910
▁손혜원	-16911
▁심리가	-16912
▁여행객	-16913
▁정상에	-16914
▁제도는	-16915
▁제시할	-16916
▁증권사	-16917
▁청구한	-16918
▁통계를	-16919
▁회원이	-16920
되었으며	-16921
들에게도	-16922
▁계획하고	-16923
▁고려해야	-16924
▁공격적인	-16925
▁공정위가	-16926
▁아버지를	-16927
▁영역에서	-16928
▁증가세가	-16929
▁간담회에서	-16930
▁공무원들이	-16931
▁뉴욕타임스	-16932
▁페이스북을	-16933
CG	-16934
▁&	-16935
▁춥	-16936
날이	-16937
웠어	-16938
침이	-16939
칭을	-16940
태용	-16941
▁교내	-16942
▁군이	-16943
▁날로	-16944
▁넣을	-16945
▁쌓은	-16946
▁엉덩	-16947
▁커리	-16948
▁화산	-16949
경기에	-16950
▁건설을	-16951
▁경험할	-16952
▁넘겼다	-16953
▁노래는	-16954
▁다수가	-16955
▁도전을	-16956
▁동력을	-16957
▁뛰어들	-16958
▁말았다	-16959
▁매출은	-16960
▁머무는	-16961
▁믿는다	-16962
▁바빠서	-16963
▁변경할	-16964
▁본사가	-16965
▁빠지는	-16966
▁삼성은	-16967
▁세금이	-16968
▁시도를	-16969
▁시도한	-16970
▁신입생	-16971
▁안드로	-16972
▁역사와	-16973
▁음악이	-16974
▁친절한	-16975
▁헝가리	-16976
▁호르몬	-16977
도미사일	-16978
▁가계대출	-16979
▁공개하지	-16980
▁노력해야	-16981
▁러시아와	-16982
▁배우들의	-16983
▁스케줄을	-16984
▁제시하고	-16985
▁제주도에	-16986
▁주도하고	-16987
▁판결했다	-16988
▁호소하는	-16989
▁참가자들이	-16990
▁헐	-16991
년차	-16992
울산	-16993
포로	-16994
회째	-16995
▁QR	-16996
▁“2	-16997
▁강해	-16998
▁군데	-16999
▁로켓	-17000
▁말했	-17001
▁발목	-17002
▁뿌려	-17003
▁사료	-17004
▁서쪽	-17005
▁신라	-17006
▁심어	-17007
▁유적	-17008
▁쳐다	-17009
▁콘크	-17010
▁키운	-17011
경기도	-17012
박람회	-17013
▁같았다	-17014
▁겨울에	-17015
▁과목을	-17016
▁관계는	-17017
▁날씨를	-17018
▁노조의	-17019
▁느끼지	-17020
▁되어있	-17021
▁등에게	-17022
▁리조트	-17023
▁매장이	-17024
▁복수의	-17025
▁사항에	-17026
▁시카고	-17027
▁잇따른	-17028
▁자세로	-17029
▁전해져	-17030
▁하나만	-17031
▁해소를	-17032
▁감소하고	-17033
▁고민하는	-17034
▁고조되고	-17035
▁비난했다	-17036
▁서울교통	-17037
▁어머니의	-17038
▁중요성이	-17039
▁한국어를	-17040
▁현실적인	-17041
▁학부모들이	-17042
os	-17043
골로	-17044
머리	-17045
예를	-17046
창출	-17047
형과	-17048
▁“5	-17049
▁갔어	-17050
▁건넨	-17051
▁권영	-17052
▁내몰	-17053
▁대개	-17054
▁묶어	-17055
▁불쾌	-17056
▁삼척	-17057
▁자의	-17058
▁주부	-17059
▁중산	-17060
▁지날	-17061
▁충실	-17062
경제를	-17063
분까지	-17064
줬으면	-17065
▁나아갈	-17066
▁넷마블	-17067
▁데려다	-17068
▁메뉴는	-17069
▁못지않	-17070
▁무대가	-17071
▁성향의	-17072
▁여배우	-17073
▁여성과	-17074
▁운행을	-17075
▁적극적	-17076
▁전환이	-17077
▁창출을	-17078
▁카리스	-17079
▁토마토	-17080
▁투명한	-17081
시겠어요	-17082
▁6000	-17083
▁단기간에	-17084
▁않겠다고	-17085
▁압도적인	-17086
▁전문적인	-17087
▁말씀하시는	-17088
OT	-17089
걸음	-17090
날을	-17091
노스	-17092
는가	-17093
담이	-17094
분권	-17095
완전	-17096
(16	-17097
IoT	-17098
▁간섭	-17099
▁구원	-17100
▁닮은	-17101
▁더운	-17102
▁드문	-17103
▁뚜껑	-17104
▁뽑는	-17105
▁여고	-17106
▁윤곽	-17107
▁이준	-17108
▁접대	-17109
▁집주	-17110
▁하남	-17111
▁한숨	-17112
▁휠체	-17113
교육감	-17114
구청장	-17115
궐선거	-17116
▁4∼5	-17117
▁가져온	-17118
▁게다가	-17119
▁대국민	-17120
▁동향을	-17121
▁명백한	-17122
▁부문의	-17123
▁샀는데	-17124
▁시에는	-17125
▁역량이	-17126
▁오페라	-17127
▁청소를	-17128
▁코치가	-17129
▁풍경을	-17130
▁합시다	-17131
▁회의는	-17132
▁간단하게	-17133
▁선호도가	-17134
▁어려웠다	-17135
▁정상회의	-17136
▁예정이어서	-17137
▁삐	-17138
▁엮	-17139
과세	-17140
금에	-17141
기한	-17142
명씩	-17143
물류	-17144
받게	-17145
십자	-17146
전도	-17147
해외	-17148
(26	-17149
▁83	-17150
▁가령	-17151
▁갇혀	-17152
▁구비	-17153
▁높기	-17154
▁대의	-17155
▁더러	-17156
▁두꺼	-17157
▁두께	-17158
▁드레	-17159
▁밸런	-17160
▁뿌듯	-17161
▁수직	-17162
▁영문	-17163
▁전염	-17164
▁채소	-17165
▁천재	-17166
▁탐구	-17167
▁특활	-17168
▁후유	-17169
소송을	-17170
지사와	-17171
▁검증을	-17172
▁견적을	-17173
▁구성이	-17174
▁기쁨을	-17175
▁긴밀한	-17176
▁나쁘지	-17177
▁느꼈다	-17178
▁단거리	-17179
▁무서운	-17180
▁부위에	-17181
▁특성화	-17182
시스템에	-17183
▁2023	-17184
▁공개하고	-17185
▁대통령도	-17186
▁멤버들의	-17187
▁사망했다	-17188
▁시민들은	-17189
▁참여하지	-17190
▁폭발적인	-17191
드렸습니다	-17192
▁먹었습니다	-17193
▁미안합니다	-17194
TM	-17195
가게	-17196
고발	-17197
길래	-17198
드레	-17199
련이	-17200
면접	-17201
음료	-17202
캐슬	-17203
▁‘4	-17204
▁거울	-17205
▁공단	-17206
▁교복	-17207
▁금품	-17208
▁달걀	-17209
▁되니	-17210
▁디젤	-17211
▁무궁	-17212
▁밑에	-17213
▁변수	-17214
▁상권	-17215
▁센서	-17216
▁증진	-17217
▁크레	-17218
▁탐방	-17219
경기를	-17220
내셔널	-17221
래프트	-17222
천억원	-17223
협력을	-17224
▁개정이	-17225
▁고소한	-17226
▁구성돼	-17227
▁날짜가	-17228
▁디저트	-17229
▁마운드	-17230
▁물의를	-17231
▁불편이	-17232
▁설치할	-17233
▁소통이	-17234
▁수사의	-17235
▁싸움을	-17236
▁얼어붙	-17237
▁우려의	-17238
▁위치가	-17239
▁의문을	-17240
▁주제는	-17241
▁지내는	-17242
▁특별법	-17243
▁행보에	-17244
적으로도	-17245
하였으며	-17246
▁곳입니다	-17247
▁리스크가	-17248
▁시사했다	-17249
▁실시했다	-17250
▁어디까지	-17251
▁여기까지	-17252
▁중에서는	-17253
▁것만으로도	-17254
▁금융감독원은	-17255
IN	-17256
▁故	-17257
림은	-17258
말라	-17259
분별	-17260
상인	-17261
엔날	-17262
연준	-17263
의학	-17264
▁경질	-17265
▁그친	-17266
▁단절	-17267
▁단정	-17268
▁달고	-17269
▁마블	-17270
▁발렌	-17271
▁보라	-17272
▁서산	-17273
▁습득	-17274
▁시한	-17275
▁어둠	-17276
▁오버	-17277
▁옹호	-17278
▁제네	-17279
▁채굴	-17280
▁퇴임	-17281
▁피력	-17282
경제의	-17283
곳으로	-17284
였으며	-17285
이거나	-17286
이스트	-17287
▁4·3	-17288
▁건물의	-17289
▁공동성	-17290
▁기자는	-17291
▁나만의	-17292
▁납니다	-17293
▁노력해	-17294
▁놀라게	-17295
▁도저히	-17296
▁순간을	-17297
▁시작을	-17298
▁신중한	-17299
▁앞당겨	-17300
▁외무성	-17301
▁의원도	-17302
▁조정을	-17303
▁지나친	-17304
▁카지노	-17305
▁타격이	-17306
▁흐름에	-17307
냈습니다	-17308
▁감소하는	-17309
▁강조하며	-17310
▁긴장감이	-17311
▁부분이다	-17312
▁상승으로	-17313
▁서로에게	-17314
▁소통하는	-17315
▁신한은행	-17316
▁실제로는	-17317
▁주목하고	-17318
▁중국으로	-17319
▁지금보다	-17320
▁질병관리	-17321
▁파격적인	-17322
▁하나하나	-17323
▁한국교회	-17324
▁한자리에	-17325
▁상황입니다	-17326
▁종전선언을	-17327
▁홈페이지에서	-17328
41	-17329
▁컷	-17330
▁튜	-17331
군수	-17332
르가	-17333
쓰고	-17334
영향	-17335
헬스	-17336
▁견해	-17337
▁고충	-17338
▁귀농	-17339
▁길은	-17340
▁데도	-17341
▁미미	-17342
▁바랄	-17343
▁밝힐	-17344
▁브루	-17345
▁선관	-17346
▁소각	-17347
▁잔뜩	-17348
▁점령	-17349
▁청정	-17350
▁카메	-17351
▁컸던	-17352
▁황희	-17353
▁후쿠	-17354
계획이	-17355
교육과	-17356
기록을	-17357
▁결혼식	-17358
▁고령화	-17359
▁고의로	-17360
▁골고루	-17361
▁공격이	-17362
▁공연은	-17363
▁뇌물을	-17364
▁독일이	-17365
▁색깔이	-17366
▁성남시	-17367
▁아울러	-17368
▁우려해	-17369
▁월평균	-17370
▁인플루	-17371
▁장기화	-17372
▁지나는	-17373
▁지정을	-17374
▁크로아	-17375
▁혁신성	-17376
으로서의	-17377
▁경찰관이	-17378
▁고양이를	-17379
▁사용자의	-17380
▁생각에는	-17381
▁시너지를	-17382
▁싫어하는	-17383
▁학생들과	-17384
▁사용합니다	-17385
9·	-17386
드민	-17387
의사	-17388
증명	-17389
항서	-17390
활성	-17391
▁끊은	-17392
▁스쿨	-17393
▁오게	-17394
▁운명	-17395
▁원로	-17396
▁유래	-17397
▁정직	-17398
▁주입	-17399
▁축복	-17400
▁치안	-17401
▁화합	-17402
량으로	-17403
수당을	-17404
였으나	-17405
체제를	-17406
▁물질이	-17407
▁박수를	-17408
▁소속팀	-17409
▁시기는	-17410
▁어쨌든	-17411
▁유용한	-17412
▁음료를	-17413
▁일련의	-17414
▁작품에	-17415
▁좋은데	-17416
▁진술이	-17417
▁치러진	-17418
▁특성에	-17419
▁핵심인	-17420
▁높습니다	-17421
▁블라디보	-17422
▁의혹으로	-17423
▁펼쳐졌다	-17424
▁보도자료를	-17425
▁서울시장이	-17426
ul	-17427
▁g	-17428
▁뵙	-17429
걸이	-17430
고령	-17431
면은	-17432
스톱	-17433
일드	-17434
잡을	-17435
진영	-17436
▁강타	-17437
▁강호	-17438
▁고르	-17439
▁보습	-17440
▁애국	-17441
▁유선	-17442
▁적잖	-17443
▁코레	-17444
▁가만히	-17445
▁가짜뉴	-17446
▁감소로	-17447
▁남자를	-17448
▁던지는	-17449
▁무릎을	-17450
▁배경이	-17451
▁보였던	-17452
▁셀트리	-17453
▁일대에	-17454
▁잊어버	-17455
▁장비가	-17456
▁진출할	-17457
▁하려는	-17458
▁가르치는	-17459
▁관리하고	-17460
▁얼마든지	-17461
▁포털사이트	-17462
▁지방자치단체가	-17463
▁과학기술정보통신부	-17464
86	-17465
MR	-17466
▁잎	-17467
리츠	-17468
멘텀	-17469
욱이	-17470
▁급성	-17471
▁막강	-17472
▁박찬	-17473
▁새우	-17474
▁세션	-17475
▁셀프	-17476
▁숫자	-17477
▁어휘	-17478
▁없었	-17479
▁잦아	-17480
▁전성	-17481
▁최전	-17482
▁태워	-17483
▁특감	-17484
▁하동	-17485
▁호수	-17486
사업체	-17487
종으로	-17488
행사가	-17489
9000	-17490
▁각별히	-17491
▁게임은	-17492
▁구멍이	-17493
▁내세워	-17494
▁달리고	-17495
▁대학은	-17496
▁말하기	-17497
▁맡았던	-17498
▁방에서	-17499
▁보스턴	-17500
▁보이기	-17501
▁사랑과	-17502
▁사안을	-17503
▁세련된	-17504
▁실수가	-17505
▁어제는	-17506
▁희망이	-17507
▁관측된다	-17508
▁근로기준	-17509
▁급증하고	-17510
▁기억하고	-17511
▁나왔지만	-17512
▁대기업이	-17513
▁리모델링	-17514
▁발생했을	-17515
▁브랜드로	-17516
▁신청하면	-17517
▁이해하지	-17518
▁전통시장	-17519
▁존재하지	-17520
▁캐릭터가	-17521
▁재생에너지	-17522
▁전망입니다	-17523
BI	-17524
LB	-17525
kW	-17526
개씩	-17527
공식	-17528
끈한	-17529
일자	-17530
종목	-17531
하드	-17532
항에	-17533
▁97	-17534
▁“4	-17535
▁때를	-17536
▁번만	-17537
▁북상	-17538
▁어땠	-17539
▁의제	-17540
▁저해	-17541
▁청사	-17542
▁출품	-17543
▁틀을	-17544
▁한라	-17545
▁현수	-17546
강에서	-17547
되어서	-17548
비율이	-17549
시설에	-17550
일보가	-17551
해주길	-17552
.1%)	-17553
▁FTA	-17554
▁가정을	-17555
▁갤러리	-17556
▁고부가	-17557
▁공기업	-17558
▁남북한	-17559
▁문장을	-17560
▁삼성생	-17561
▁제한을	-17562
▁차이로	-17563
▁찾아서	-17564
▁것인가요	-17565
▁광주광역	-17566
▁기대하는	-17567
▁담당하고	-17568
▁방문했다	-17569
▁유의해야	-17570
▁인물이다	-17571
▁전화번호	-17572
▁필요하면	-17573
▁하락하는	-17574
▁4,000	-17575
▁그중에서도	-17576
9%	-17577
규가	-17578
도어	-17579
류의	-17580
매출	-17581
보훈	-17582
아와	-17583
커녕	-17584
파의	-17585
패로	-17586
▁같고	-17587
▁곳의	-17588
▁구별	-17589
▁도구	-17590
▁됐던	-17591
▁무실	-17592
▁바나	-17593
▁밤새	-17594
▁서두	-17595
▁안건	-17596
▁앤드	-17597
▁우아	-17598
▁윤종	-17599
▁죄를	-17600
▁주름	-17601
금액이	-17602
번째로	-17603
베이션	-17604
센터의	-17605
안으로	-17606
중앙회	-17607
하다며	-17608
항공사	-17609
▁ABC	-17610
▁DNA	-17611
▁것과는	-17612
▁구축해	-17613
▁기관에	-17614
▁단지는	-17615
▁동안의	-17616
▁목적은	-17617
▁바꿔야	-17618
▁발휘할	-17619
▁생산한	-17620
▁선거법	-17621
▁수산물	-17622
▁시점을	-17623
▁운동은	-17624
▁이번주	-17625
▁작업은	-17626
▁저희도	-17627
▁절반을	-17628
▁조짐을	-17629
▁페이팔	-17630
▁활약이	-17631
▁말씀하신	-17632
▁벗어나지	-17633
▁불가피할	-17634
▁불편함을	-17635
▁뿐입니다	-17636
▁사용해야	-17637
▁시행하고	-17638
▁업무추진	-17639
▁자격증을	-17640
▁자이언츠	-17641
▁한국은행	-17642
▁허용하는	-17643
▁확대되는	-17644
▁대법원장의	-17645
▁원내대표의	-17646
▁주택담보대출	-17647
착륙	-17648
코가	-17649
크는	-17650
혹한	-17651
▁개학	-17652
▁걷기	-17653
▁고구	-17654
▁구인	-17655
▁구자	-17656
▁기피	-17657
▁김제	-17658
▁부하	-17659
▁신재	-17660
▁위조	-17661
사실을	-17662
쇼핑몰	-17663
어머니	-17664
인지는	-17665
지방법	-17666
▁개편을	-17667
▁건조한	-17668
▁구매가	-17669
▁국세청	-17670
▁넘는다	-17671
▁무분별	-17672
▁박사는	-17673
▁발표에	-17674
▁사이가	-17675
▁수위가	-17676
▁식당이	-17677
▁영감을	-17678
▁위협이	-17679
▁이행을	-17680
▁해결에	-17681
▁했으며	-17682
▁홍보를	-17683
2,000	-17684
▁데이비드	-17685
▁모빌리티	-17686
▁선고됐다	-17687
▁연구팀이	-17688
▁요청하신	-17689
▁우려되는	-17690
▁은행에서	-17691
▁하이브리	-17692
▁한반도에	-17693
▁협상에서	-17694
▁의도적으로	-17695
▁크리에이터	-17696
▁문화체육관광부	-17697
84	-17698
▁펄	-17699
격에	-17700
더러	-17701
력도	-17702
워진	-17703
주자	-17704
지연	-17705
품은	-17706
(21	-17707
▁겪어	-17708
▁기둥	-17709
▁남과	-17710
▁낳은	-17711
▁당원	-17712
▁마비	-17713
▁몸싸	-17714
▁미소	-17715
▁보름	-17716
▁상자	-17717
▁신화	-17718
▁알렉	-17719
▁운반	-17720
▁유진	-17721
▁창단	-17722
▁첨가	-17723
▁특이	-17724
교육이	-17725
만원씩	-17726
베트남	-17727
브란스	-17728
▁그림은	-17729
▁꼽혔다	-17730
▁나눴다	-17731
▁단계를	-17732
▁단어가	-17733
▁박씨는	-17734
▁분야로	-17735
▁수단이	-17736
▁싶다면	-17737
▁아쉬워	-17738
▁예고한	-17739
▁제출할	-17740
▁조성된	-17741
▁좋아할	-17742
▁주관한	-17743
▁중소형	-17744
▁친구랑	-17745
▁카슈끄	-17746
▁컨벤션	-17747
▁펼쳐진	-17748
▁효과도	-17749
케이션을	-17750
▁1996	-17751
▁공개하는	-17752
▁도전하는	-17753
▁방문하고	-17754
▁방지하기	-17755
▁영장전담	-17756
▁원활하게	-17757
▁프랑스의	-17758
▁떨어진다는	-17759
▁무엇보다도	-17760
▁진행한다고	-17761
▁항소심에서	-17762
균관	-17763
년은	-17764
두가	-17765
러닝	-17766
마당	-17767
모집	-17768
바바	-17769
보단	-17770
오면	-17771
점유	-17772
특정	-17773
▁경향	-17774
▁꽃이	-17775
▁다변	-17776
▁당기	-17777
▁맡길	-17778
▁별세	-17779
▁불복	-17780
▁빌린	-17781
▁상설	-17782
▁시흥	-17783
▁오름	-17784
▁잃지	-17785
▁전역	-17786
▁차고	-17787
▁창설	-17788
▁챙기	-17789
▁칼럼	-17790
▁판타	-17791
▁풍성	-17792
공사의	-17793
군으로	-17794
들까지	-17795
인데다	-17796
주기를	-17797
.9%)	-17798
OECD	-17799
▁거액의	-17800
▁골자다	-17801
▁노선이	-17802
▁말하며	-17803
▁빨간색	-17804
▁생중계	-17805
▁시민과	-17806
▁신태용	-17807
▁이사를	-17808
▁자료는	-17809
▁전면에	-17810
▁출발한	-17811
▁핵심은	-17812
▁홍남기	-17813
하셨나요	-17814
▁로스앤젤	-17815
▁만들어서	-17816
▁매출액이	-17817
▁수요일에	-17818
▁스리랑카	-17819
▁이외에도	-17820
▁조사하는	-17821
▁주문하신	-17822
▁중국과의	-17823
▁지금처럼	-17824
▁지켜보는	-17825
▁진지하게	-17826
자유한국당	-17827
▁고객들에게	-17828
▁연구위원은	-17829
ag	-17830
▁뿜	-17831
도우	-17832
디는	-17833
석유	-17834
체적	-17835
티노	-17836
▁74	-17837
▁곡을	-17838
▁구역	-17839
▁김문	-17840
▁들러	-17841
▁상기	-17842
▁성령	-17843
▁신의	-17844
▁실린	-17845
▁열을	-17846
▁예로	-17847
▁적다	-17848
▁정재	-17849
거래소	-17850
근로자	-17851
라이브	-17852
루미늄	-17853
마리를	-17854
밖에도	-17855
성폭력	-17856
주의의	-17857
▁공방이	-17858
▁먹어요	-17859
▁바이올	-17860
▁별개로	-17861
▁시설물	-17862
▁악순환	-17863
▁이루기	-17864
▁인형을	-17865
▁주석의	-17866
▁주체가	-17867
▁축제는	-17868
적이지만	-17869
▁1995	-17870
▁뉴욕에서	-17871
▁발언으로	-17872
▁보냈어요	-17873
▁서울시와	-17874
▁인종차별	-17875
▁존재한다	-17876
▁직원들을	-17877
▁한국당의	-17878
▁순차적으로	-17879
레드	-17880
브이	-17881
이민	-17882
전화	-17883
지출	-17884
치유	-17885
▁강세	-17886
▁골이	-17887
▁구사	-17888
▁국감	-17889
▁긴축	-17890
▁대항	-17891
▁멀어	-17892
▁무난	-17893
▁세균	-17894
▁순매	-17895
▁연탄	-17896
▁정정	-17897
▁쥐고	-17898
▁총재	-17899
▁편견	-17900
▁풀고	-17901
지는데	-17902
킵니다	-17903
▁가처분	-17904
▁강화된	-17905
▁그렇기	-17906
▁단속을	-17907
▁목사의	-17908
▁무너진	-17909
▁벗어난	-17910
▁순위가	-17911
▁슬라이	-17912
▁시위가	-17913
▁않은데	-17914
▁알았다	-17915
▁양호한	-17916
▁열기가	-17917
▁줄게요	-17918
▁차장이	-17919
▁특징이	-17920
▁하므로	-17921
▁가입자가	-17922
▁넘겨졌다	-17923
▁논란으로	-17924
▁드러나는	-17925
▁먹습니다	-17926
▁부과하는	-17927
▁콘서트를	-17928
▁학교생활	-17929
▁마무리했다	-17930
▁금융감독원이	-17931
um	-17932
▁뺏	-17933
▁뽀	-17934
경궁	-17935
라기	-17936
사관	-17937
월의	-17938
팩트	-17939
▁ES	-17940
▁갖췄	-17941
▁갱신	-17942
▁김원	-17943
▁내밀	-17944
▁백종	-17945
▁봉쇄	-17946
▁분홍	-17947
▁세르	-17948
▁속옷	-17949
▁신상	-17950
▁안겨	-17951
▁연중	-17952
▁옷은	-17953
▁원주	-17954
▁전설	-17955
▁줄게	-17956
▁참관	-17957
▁치닫	-17958
▁탈모	-17959
가구가	-17960
됐어요	-17961
책으로	-17962
해보고	-17963
▁골프를	-17964
▁귀하의	-17965
▁규정한	-17966
▁남편과	-17967
▁내놓지	-17968
▁로맨스	-17969
▁방송은	-17970
▁방향에	-17971
▁보내야	-17972
▁생각엔	-17973
▁성장동	-17974
▁소장은	-17975
▁안정적	-17976
▁안철수	-17977
▁연관이	-17978
▁조치는	-17979
▁좋다는	-17980
▁총력을	-17981
▁환불을	-17982
대한민국	-17983
▁나타나지	-17984
▁남부지방	-17985
▁동물보호	-17986
▁들어가서	-17987
▁떨어진다	-17988
▁미국프로	-17989
▁상황으로	-17990
▁올라가는	-17991
▁컴퓨터가	-17992
▁펼쳐지는	-17993
▁할리우드	-17994
▁할아버지	-17995
▁국민연금의	-17996
▁근본적으로	-17997
▁사법행정권	-17998
.’	-17999
87	-18000
구호	-18001
류는	-18002
변경	-18003
앨범	-18004
지오	-18005
천이	-18006
▁PO	-18007
▁고액	-18008
▁권익	-18009
▁꿈에	-18010
▁당정	-18011
▁만일	-18012
▁맡을	-18013
▁산지	-18014
▁성산	-18015
▁엄중	-18016
▁푸는	-18017
▁핵무	-18018
드민턴	-18019
사와의	-18020
이사장	-18021
테스트	-18022
▁고소득	-18023
▁교과서	-18024
▁교류를	-18025
▁더위를	-18026
▁법정에	-18027
▁베이비	-18028
▁사려고	-18029
▁수출을	-18030
▁예컨대	-18031
▁전반을	-18032
▁초점이	-18033
▁파란색	-18034
▁현상은	-18035
발적으로	-18036
사회복지	-18037
▁6·25	-18038
▁국민건강	-18039
▁기각했다	-18040
▁누군가를	-18041
▁다르다는	-18042
▁떠오르는	-18043
▁소식통을	-18044
▁스트리밍	-18045
▁잃어버린	-18046
▁전망하고	-18047
▁존재감을	-18048
▁주말에는	-18049
▁민주화운동	-18050
▁확인해주세요	-18051
관세	-18052
동기	-18053
맛이	-18054
민간	-18055
불법	-18056
절로	-18057
추행	-18058
환을	-18059
▁동승	-18060
▁비빔	-18061
▁시야	-18062
▁얻게	-18063
▁업황	-18064
▁웃는	-18065
▁필로	-18066
▁한지	-18067
기관을	-18068
메달을	-18069
분기에	-18070
언더파	-18071
▁간단히	-18072
▁경로를	-18073
▁기능성	-18074
▁김부겸	-18075
▁맞춰서	-18076
▁머스크	-18077
▁미얀마	-18078
▁분쟁이	-18079
▁산업용	-18080
▁선수와	-18081
▁숨지는	-18082
▁안전보	-18083
▁오르면	-18084
▁올리며	-18085
▁올스타	-18086
▁인하여	-18087
▁장치가	-18088
▁주시길	-18089
▁투입된	-18090
▁힘들고	-18091
아일랜드	-18092
▁경기도와	-18093
▁마음대로	-18094
▁모아진다	-18095
▁보호무역	-18096
▁사라졌다	-18097
▁수사하는	-18098
▁아쉬움이	-18099
▁에너지가	-18100
▁우려하고	-18101
▁전년보다	-18102
▁지속되는	-18103
▁충격적인	-18104
▁학교폭력	-18105
▁확정했다	-18106
▁선정됐다고	-18107
▁온라인으로	-18108
▁체결했다고	-18109
▁쫄	-18110
글로	-18111
대왕	-18112
보와	-18113
참모	-18114
칙을	-18115
투기	-18116
포지	-18117
프닝	-18118
ity	-18119
▁거머	-18120
▁계승	-18121
▁공주	-18122
▁공휴	-18123
▁놀고	-18124
▁독창	-18125
▁메디	-18126
▁슬퍼	-18127
▁쓰인	-18128
▁앵커	-18129
▁조화	-18130
▁파크	-18131
스토어	-18132
정책의	-18133
▁경주시	-18134
▁관광지	-18135
▁국경을	-18136
▁모델의	-18137
▁밝히며	-18138
▁방사선	-18139
▁부부는	-18140
▁불안이	-18141
▁사랑은	-18142
▁연계한	-18143
▁자치구	-18144
▁취지를	-18145
▁협력사	-18146
▁가족에게	-18147
▁느껴진다	-18148
▁못하면서	-18149
▁서비스다	-18150
▁아마추어	-18151
▁알았는데	-18152
▁운전면허	-18153
▁전달하고	-18154
▁출발하는	-18155
▁화장실에	-18156
▁경기장에서	-18157
▁관계자들은	-18158
▁내부적으로	-18159
▁마이크로닷	-18160
▁사랑스러운	-18161
▁예비타당성	-18162
SI	-18163
TI	-18164
▁퀸	-18165
건물	-18166
배송	-18167
약한	-18168
염이	-18169
용의	-18170
의견	-18171
전망	-18172
접촉	-18173
▁고문	-18174
▁공작	-18175
▁버디	-18176
▁산소	-18177
▁상표	-18178
▁성명	-18179
▁수락	-18180
▁숙련	-18181
▁스윙	-18182
▁실은	-18183
▁안경	-18184
▁이철	-18185
▁인가	-18186
▁장갑	-18187
▁중형	-18188
▁짚어	-18189
▁최하	-18190
▁피어	-18191
▁회동	-18192
자들에	-18193
전략을	-18194
차례에	-18195
케미칼	-18196
해보니	-18197
▁0.2	-18198
▁개념이	-18199
▁고성능	-18200
▁기아차	-18201
▁낮다는	-18202
▁높인다	-18203
▁대검찰	-18204
▁대내외	-18205
▁면밀히	-18206
▁발굴해	-18207
▁브로커	-18208
▁사이클	-18209
▁사장의	-18210
▁수소차	-18211
▁실수요	-18212
▁여권을	-18213
▁연결이	-18214
▁올시즌	-18215
▁정도면	-18216
▁품질을	-18217
▁형태가	-18218
자치단체	-18219
코리아가	-18220
▁공감대가	-18221
▁늘어난다	-18222
▁선생님은	-18223
▁일각에선	-18224
▁중앙은행	-18225
▁창의적인	-18226
▁갑작스럽게	-18227
▁사이트에서	-18228
▁인터넷에서	-18229
더불어민주당	-18230
AD	-18231
녀가	-18232
돌고	-18233
런트	-18234
롭다	-18235
상한	-18236
생과	-18237
월이	-18238
테르	-18239
▁마셔	-18240
▁문법	-18241
▁바보	-18242
▁박모	-18243
▁방은	-18244
▁방화	-18245
▁배틀	-18246
▁버거	-18247
▁솔릭	-18248
▁쌍용	-18249
▁어플	-18250
▁오키	-18251
▁온다	-18252
▁응모	-18253
▁적을	-18254
▁정형	-18255
▁제때	-18256
▁직격	-18257
▁행태	-18258
▁허브	-18259
법인이	-18260
실장이	-18261
여개의	-18262
의학과	-18263
인들을	-18264
천만원	-18265
▁가습기	-18266
▁건강과	-18267
▁극단적	-18268
▁다행이	-18269
▁대상자	-18270
▁동반한	-18271
▁라인을	-18272
▁면접을	-18273
▁사실로	-18274
▁생각도	-18275
▁선수단	-18276
▁원칙에	-18277
▁인물로	-18278
▁일으켜	-18279
▁직업이	-18280
▁학습을	-18281
▁형성된	-18282
▁호텔이	-18283
▁휩싸인	-18284
▁구축하는	-18285
▁규제개혁	-18286
▁비핵화가	-18287
▁사랑하고	-18288
▁살아있는	-18289
▁시작했고	-18290
▁아이템을	-18291
▁않았다면	-18292
▁작품으로	-18293
▁특별검사	-18294
▁국가주석이	-18295
▁임직원들이	-18296
KT	-18297
사리	-18298
회원	-18299
▁글로	-18300
▁김한	-18301
▁대세	-18302
▁렌즈	-18303
▁맡기	-18304
▁발암	-18305
▁앉은	-18306
▁양을	-18307
▁유공	-18308
▁입대	-18309
▁정문	-18310
▁주석	-18311
▁총력	-18312
▁흔적	-18313
과대학	-18314
받는다	-18315
부장이	-18316
시설과	-18317
안에서	-18318
주의적	-18319
판에서	-18320
▁가격과	-18321
▁김태우	-18322
▁당뇨병	-18323
▁대변인	-18324
▁만나러	-18325
▁머리에	-18326
▁모집에	-18327
▁반발을	-18328
▁발길이	-18329
▁비판도	-18330
▁살아갈	-18331
▁식이다	-18332
▁없거나	-18333
▁오로지	-18334
▁오시면	-18335
▁유동성	-18336
▁의사결	-18337
▁쟁점이	-18338
▁적용돼	-18339
▁중단된	-18340
▁특징은	-18341
▁화면이	-18342
▁되었으면	-18343
▁마드리드	-18344
▁법원에서	-18345
▁생각이다	-18346
▁신중하게	-18347
▁아카데미	-18348
▁와이파이	-18349
▁케이크를	-18350
▁시작하면서	-18351
▁시작합니다	-18352
',	-18353
EF	-18354
ea	-18355
▁촘	-18356
고로	-18357
국립	-18358
니얼	-18359
도르	-18360
루션	-18361
릿수	-18362
마한	-18363
메르	-18364
몬드	-18365
봐요	-18366
져요	-18367
진화	-18368
하곤	-18369
훈의	-18370
▁계단	-18371
▁끼어	-18372
▁말과	-18373
▁사촌	-18374
▁세수	-18375
▁송부	-18376
▁실전	-18377
▁쓰면	-18378
▁유모	-18379
▁자식	-18380
▁장담	-18381
▁측과	-18382
공단은	-18383
공직자	-18384
군에서	-18385
로에서	-18386
물질을	-18387
상황이	-18388
카드가	-18389
▁900	-18390
▁가격도	-18391
▁거치지	-18392
▁겨냥해	-18393
▁관계로	-18394
▁국제유	-18395
▁그치지	-18396
▁넘었다	-18397
▁다이아	-18398
▁맞추는	-18399
▁사라질	-18400
▁스테이	-18401
▁승인이	-18402
▁언론을	-18403
▁언론인	-18404
▁열정이	-18405
▁오른다	-18406
▁유치를	-18407
▁자리로	-18408
▁트리플	-18409
▁판매한	-18410
▁팬들은	-18411
▁학교와	-18412
▁향하고	-18413
▁회복이	-18414
력발전소	-18415
아시아나	-18416
▁공식적인	-18417
▁기울이고	-18418
▁당시에는	-18419
▁대법관이	-18420
▁르노삼성	-18421
▁많았지만	-18422
▁아파트의	-18423
▁연구진이	-18424
▁유럽에서	-18425
▁폴더블폰	-18426
▁생각하세요	-18427
▁인터넷전문은행	-18428
59	-18429
▁둬	-18430
▁엎	-18431
바꿈	-18432
백이	-18433
베리	-18434
압을	-18435
왼쪽	-18436
이동	-18437
▁그늘	-18438
▁됐을	-18439
▁배고	-18440
▁부위	-18441
▁불황	-18442
▁사칭	-18443
▁새겨	-18444
▁서정	-18445
▁수탁	-18446
▁심재	-18447
▁아리	-18448
▁아토	-18449
▁염증	-18450
▁왔던	-18451
▁욕설	-18452
▁재원	-18453
▁주중	-18454
▁청각	-18455
▁터트	-18456
▁필립	-18457
게이트	-18458
메이트	-18459
타임을	-18460
(200	-18461
▁같지만	-18462
▁게임에	-18463
▁공장에	-18464
▁구조로	-18465
▁국장은	-18466
▁레전드	-18467
▁모멘텀	-18468
▁믿음이	-18469
▁보험금	-18470
▁사태에	-18471
▁알았어	-18472
▁이내로	-18473
▁인접한	-18474
▁인정할	-18475
▁지급을	-18476
▁카운터	-18477
▁특화된	-18478
▁파티에	-18479
▁폐지를	-18480
▁개정안에	-18481
▁당신한테	-18482
▁돌파했다	-18483
▁보험료를	-18484
▁식약처는	-18485
▁아침부터	-18486
▁어렵지만	-18487
▁업무협약	-18488
▁은산분리	-18489
▁자유무역	-18490
▁텔레비전	-18491
산업진흥원	-18492
▁많았습니다	-18493
▁스트레스가	-18494
▁주민들에게	-18495
▁포스트시즌	-18496
▁프로젝트의	-18497
7,	-18498
AC	-18499
만족	-18500
맞춤	-18501
현을	-18502
(13	-18503
(23	-18504
▁값이	-18505
▁거둘	-18506
▁곁에	-18507
▁고온	-18508
▁깜빡	-18509
▁도발	-18510
▁뜯어	-18511
▁먹방	-18512
▁무덤	-18513
▁미치	-18514
▁부흥	-18515
▁사직	-18516
▁소스	-18517
▁소주	-18518
▁않던	-18519
▁왕이	-18520
▁이천	-18521
▁적법	-18522
▁탈세	-18523
▁토종	-18524
▁폴리	-18525
▁필름	-18526
▁행운	-18527
콘서트	-18528
▁거쳐야	-18529
▁골프장	-18530
▁구조다	-18531
▁남았다	-18532
▁라이온	-18533
▁맥주를	-18534
▁모르게	-18535
▁번째다	-18536
▁병원이	-18537
▁생산성	-18538
▁소개할	-18539
▁아내와	-18540
▁악수를	-18541
▁연결돼	-18542
▁원하고	-18543
▁인문학	-18544
▁임종석	-18545
▁장하성	-18546
▁재능을	-18547
▁제도의	-18548
▁조속한	-18549
▁처리해	-18550
▁총재가	-18551
▁탈원전	-18552
▁할인이	-18553
▁해주고	-18554
▁현안을	-18555
▁홈쇼핑	-18556
크라이나	-18557
▁공개하며	-18558
▁도시에서	-18559
▁도시철도	-18560
▁아시나요	-18561
▁입장에선	-18562
▁있었다면	-18563
▁특수활동	-18564
▁해당한다	-18565
▁국회의원이	-18566
▁사회적경제	-18567
▁말씀해주세요	-18568
때로	-18569
러브	-18570
명도	-18571
뮤직	-18572
뮬러	-18573
손해	-18574
였기	-18575
워킹	-18576
음은	-18577
ver	-18578
▁St	-18579
▁계파	-18580
▁곤충	-18581
▁귀엽	-18582
▁띄게	-18583
▁매립	-18584
▁무거	-18585
▁박재	-18586
▁사정	-18587
▁소문	-18588
▁역임	-18589
▁유세	-18590
▁윤석	-18591
▁일축	-18592
방식을	-18593
컨벤션	-18594
▁0.3	-18595
▁경제는	-18596
▁고유의	-18597
▁단계로	-18598
▁대단한	-18599
▁머물러	-18600
▁박항서	-18601
▁번이나	-18602
▁불안정	-18603
▁사람에	-18604
▁소수의	-18605
▁식당을	-18606
▁없이도	-18607
▁예배를	-18608
▁유쾌한	-18609
▁장난감	-18610
▁조용한	-18611
▁졸업한	-18612
▁지켜볼	-18613
▁채용을	-18614
▁최씨가	-18615
▁풍경이	-18616
▁했으면	-18617
▁댓글조작	-18618
▁디자인과	-18619
▁사법개혁	-18620
▁신혼부부	-18621
▁집중된다	-18622
▁최고치를	-18623
▁출연한다	-18624
▁파악하는	-18625
▁후문이다	-18626
▁20∼30	-18627
▁소득주도성	-18628
▁스타트업이	-18629
▁암호화폐를	-18630
▁전화번호를	-18631
6%	-18632
▁썩	-18633
개념	-18634
니와	-18635
도심	-18636
[...]
